node {
  name: "x1"
  op: "Placeholder"
  attr {
    key: "dtype"
    value {
      type: DT_FLOAT
    }
  }
  attr {
    key: "shape"
    value {
      shape {
        dim {
          size: 1
        }
        dim {
          size: 240
        }
        dim {
          size: 1
        }
      }
    }
  }
}
node {
  name: "unknown"
  op: "Const"
  attr {
    key: "dtype"
    value {
      type: DT_FLOAT
    }
  }
  attr {
    key: "value"
    value {
      tensor {
        dtype: DT_FLOAT
        tensor_shape {
          dim {
            size: 7
          }
          dim {
            size: 1
          }
          dim {
            size: 16
          }
        }
        tensor_content: "W+_\276\366!\242\275\325\3423>\262\270\220\275fw\300=\355\324K>-\351F>\010\350r\275\314W$\276\214d\033\276(\205\332<\312\361<\276@\327\343\275\033\303a>\357\3677>y\311\031>\033-S>\026\r\261=@\0322;\301ZY>\242\371\213\275\236\335\274=\036\322\311\275@/L;w8a>\000\220\3548A\r^>\353\304\036>\272\333\312=\354EO=\370*\005\276\273\374\036>\250\'\233<\020\005\212<\237x\037>~\224\324=\032\335\231=\031\036J>\266Y\252\275\313\266&>s\242\337\275\206\"\263\275\357\026\017>X\212A\276\200Y\003\274?bQ>\000\200\3076T\363h\275t4L=\342*\271\275\204\261\033\275SNC\276\354Q\013\276\221|\017\276Dn)=\014\260&\276\330\375\242<\264\333<=\205\303F>\021\262Z>,L7\276\226\241\233=\367*/>,\303\016\275\371\364\314\275\356\226B\276\240:5\275\200\234\225\275V7$\276~\325\373\275\200\027G\276u\216\032\2769&T> \210\257\275\274^t\275\200*\366\274|\235\017=3\273,\276P!\372\274\270h\300<\340?\245\275\347\013=>l%f=T\036\325\275\256N\353=\t\214G>\213\204B\276\204\322G\276\022\244\243=\0047V\275U\310\025>\250\362\240\275\036\336&\276eC\n>\310\016\017\276)U\021>\212w\271=0*i\274\325\341\000>\307x&>\010\335\306\274\354T\221\275@\002\241\273\364JD=@\334\350\274K\256.>\n\371\355=\244!}={9\'>`\235\213\275knC>\3761+\276"
      }
    }
  }
}
node {
  name: "unknown_0"
  op: "Const"
  attr {
    key: "dtype"
    value {
      type: DT_FLOAT
    }
  }
  attr {
    key: "value"
    value {
      tensor {
        dtype: DT_FLOAT
        tensor_shape {
          dim {
            size: 16
          }
        }
        tensor_content: "\000\000\000\000\000\000\000\000\000\000\000\000\000\000\000\000\000\000\000\000\000\000\000\000\000\000\000\000\000\000\000\000\000\000\000\000\000\000\000\000\000\000\000\000\000\000\000\000\000\000\000\000\000\000\000\000\000\000\000\000\000\000\000\000"
      }
    }
  }
}
node {
  name: "unknown_8"
  op: "Const"
  attr {
    key: "dtype"
    value {
      type: DT_FLOAT
    }
  }
  attr {
    key: "value"
    value {
      tensor {
        dtype: DT_FLOAT
        tensor_shape {
          dim {
            size: 16
          }
        }
        tensor_content: "\000\000\000\000\000\000\000\000\000\000\000\000\000\000\000\000\000\000\000\000\000\000\000\000\000\000\000\000\000\000\000\000\000\000\000\000\000\000\000\000\000\000\000\000\000\000\000\000\000\000\000\000\000\000\000\000\000\000\000\000\000\000\000\000"
      }
    }
  }
}
node {
  name: "unknown_5"
  op: "Const"
  attr {
    key: "dtype"
    value {
      type: DT_FLOAT
    }
  }
  attr {
    key: "value"
    value {
      tensor {
        dtype: DT_FLOAT
        tensor_shape {
          dim {
            size: 3
          }
          dim {
            size: 32
          }
          dim {
            size: 64
          }
        }
        tensor_content: "\231k\301\275\370\307\037\275\332\377G\275\340\304\316\273\240{\017<\340u\365\2730\323&<@\351H;\342\003\324=(\003\035=\220\330\315\274\200\261a=\003\366\272\275\240\256?=h\352\203\275\234uw\275\274T\245\2754\022K=.\205\212=\n\256L\275\201\200\010\276\030\334\331<\2660\226=\362\327\254=@bh\273\000r5=\000\023\024\272F\037\322=\224\t\352\274\264\252\350\274,\225R=\306\355\304=p\251h=\334\356\033=BSE\275H\347\340\275z\264\001\276\340?/=()\315=@}^;\360m\017>U\372\370\275:\376\304=\240\025d\274v\245\341\275\255\021\217\275\302\247\265\275|\372\002\276.4\003\275\261\266\007\276D\026\262\275\227_\000\276\274\010J=\224+\350=\000\tS\274\330}\306=\020l5<@\241\241\273\366_\005\276\213\307\021\276\206\274\007>\360h@\274\272+\244\275\372H\332\275\370y\231=\240\004\363;\240,\323=\207K\001\276$\000\n=h\344\247\274\324)~=\304\345\r>\324\220\332=\246\035\177\275\334\374\312\275\272\005\021>\005|\306\275\240E\252\273\3503\303<\374X\320\274\034n\250\274,|X=\220}\204=,d\006>\200\231/<\204\321\213=\0306\022\276\230\244\275\274\240*c\274n\237A\275\360\025\004<\324U\r>p\2317=8\335\200\274\360Mg\274\267+\t\276z\272\274\275\232$\004\276l\237c=\240:\252\273\264u\007>\262\327\004\275\256\262\245=\306\221\300\275n\274J\275\014\234s=*\251\204=\340$P=\224\374\006>\025\226\010\276\364\274\266\274\200V\244:9#\205\2756\371\305=\222p\004\2768\206\331=\236\237^\2758\237s\275\2706\204<4\304\255\275\322\324\363\275$\313w=\224\352\371=\336\206\377\275\300\354\234=\000\t\336\275\374\026-=b\356\246\275\226o\252\275L\250\231\275\000x~\272\\Q\000>\3502Y=\350\330\251<\364\265\335\275`E\004\275.>\022\276X\316s\275\266\355\266\275\202|}\275\221\333\250\275`\246\216=\364\216O\275\222\235\301=U\242\271\275\376\010$\275\312j\014>k\352\252\275dD\366=-+\202\275\000H\3538`\255\360=\014\200\260\275\000\300v\271\020Z<=\330r\215\274<{\357\275\350\351\240\275\240\311d\275\260\212g\274b\177L\275\350W\325=\324{\264\274B@\013>\250x\r>\020\331\257=0\216)<5\334\314\275L\343\357\2748W\223\274\000\221Z\275\030\317k=\264\313\244\274\\\246\303=h\n\251\275\371%\003\276\204\342\355=\334\342\005>p\270\023=\321\273\254\2754\266\t>\340\024\354\274\000\226\305=\000\301~\272\224\031\332\275\350\234\241<P\177\355<!|\227\275\304\237K\275\230\224x\275\366}\326=`5\353=\224\t\000\275`\347\235\275D\373\332\274\000Y\263=\370\025\301\275\364z\001>4W\376=\314\003k\275\334\021\003>\254\272i\275\266f\337\275\244\317\365\274\276\321\237=\036\202\226\275Y\206\321\275F\2511\275N\337\007>\304i\322\274\300qU\274\241\017\353\275\026R\007>H\tA\275 @\370\274&bv\275\300\032\213\274H|=\275\301(\371\275\000\'K< +\206\273\346~\212\275\030.;=4\2708=\366\312\023>\302\365\274=\365\346\227\275\016\373\262=\010\262\023>\362\027\201\275\244\276\267=\244`\357\275\\\236\356=\230F\347=\210\007\262\274l\311i=\220\351\204=\260\356\321=\344K\265=\024\013;=\260~\302\275\372\024\277=\247\213\322\275\330\212t=);\373\275<$\317=\224\370U=r{\255=`\303\020\276\002\212\263\275xq2=\372\277V\275\0360\312\275uz\205\275\334Z\370\275\n\352\t>\000\'\342\2734\235\267=\220\316\031\275\264^\371= ^C=}\356\t\276\302\264\215\275\340\221\210\274Q2\224\275s\322\004\276\n\275\277=P]\337=@B\221<\2328\267\275&q\264=\200c\031\2758\'z=\000\324\006\276\270\352\334<\t\311\362\275x\320\t=\254\356E=\370;/=\020\374Z=<)\214=\310\350\265\275\224:\254\274\360h\004>\366\354\005>\020Z\370=\260\220\317=\354\224\261\274\020(\327=V\353\300\275Z\377\262=\304>\310\275\022o\262\275\241\200\236\275\332\247\234=\r\374\347\275b\245\t\276\tu\017\276 -\022\274x\002\017>\200\0104\275F\350+\275\360\333t\274\253\345\245\275\202\033\366\275\000\310\363\270v\313\200=2\232\r>O\313\330\275\010\323\027=\314ZE=\274\206g=`\235\001\276\"\213\242=(\307\020>\366U\361\275\376\334V\275\214&?\275&ky\275%\321\014\2761\313\260\275\345d\264\275q\331\307\275\372\357*\275*\212\337\275\200>0<\000\262\277\271\211c\304\275\310}\002=\214d\376=\010\260\355\274\240\017F<\010#\341=\270\326\313=,a\034=^&\221=F6\207=d\261_=P3\232<\000\tp\273\250F\202\275V\0248\275x\213\005>\360\034\370=\203-\014\276\320\303\220\2744\202(\275\000v\023\276\244\027\007\276\014\272\221\275\220\354\242<\230\2440=\222_\232\275\235I\376\275\221\032\326\275\310C\211<\014\217\211=\\\336V=\320H\371=D\2168=Fj\320=\202O\251\275 q\376\275\302\272\315=\220/_<\330s\211< \355\305;\200\214\273\275\210XG\275\010\241\251\274\342\220\016\276\303\230\023\276.1\255\275\2008\250;\207\274\203\275\200}\016\273\030\216\006=`~\353;\320\311\246=\n\352)\275\310\234l=\206\256\313\275\266\262\004>\242\205\370\275*6\227=\274\3405\275h\264\350=\376C\211\275\024a\t>\346z\307\275 \223\n\276O\260\314\275\360|\267<x\001\005>\016X\332\275\260[\336\275`\010m<H\340\233=\246\0016\275`V\010\276\200\313\343=H&\362=\356\247\013\276`\357\310<\020\2626\275\370\262\275\275\360\314e\274\000\230`\2730\251\004=\234\346\312\274i\241\020\276\270\262x\275X\371F\275\364\311S\275V4\250\275x7\326\275\300\334\307;\320;\223<Pk\331=b\013\307\275Z\007\327\275\334\237\266=\263\263\t\276\250l\237=\000\356\303\272\030\000\374=\230\201C\275p\341&\274\"S\007>\020\333\"\274\344<==\350\220\347=`\245\346=\352\367\220=\240\274\203<Hs\230\274\300-*\273\266n\266=\340\240\225<v\333\253\275 \244I=\364\331\004\276\304O\033\275\256\261c\275\030@\216<&\377\364\275\024\243\004>`\333\262;\250tz=\274\345\002=\270%\017>\320\246\246=\020\031U=\332\323\232=\000V\225\272\024H\321\274\"\337f\275\'A\234\275\362H\r>\337U\013\276P\340F<V\255\212=\216\225Q\275\315x\013\276\306\215\023\276\324\250\037=\342\201\005>\200o\231\272\371\327\355\275`\023\307\275\204\322\315\275\010\352\350=~\214y\275\260\300D\275u\207\220\275b-\274\275\240[\374\274\200~\260\274~\364j\275 Z\256\273\336\224\226=H\003]\275\240\342\367;\2601\203\274n\344\\\275`\224C<\260\336\016<o\325\220\275X}\325=\232\317\216=\244\205y=\340\264\345=\262\307\263\275t\255F\275\376\342\014>\272\315\356\275\312\343\003>\232E\217=\024\023\237=P\332\030\275~\233\267=$\000\372\274\240\236\363=y\272\354\275\226o\250=2\262\244=\204\266\016\276\234\340\335=\224-g=\250.\244<\230\206\211<\240tm<}\320\220\275\016B\267=<\231\031=|\312\342=8\373e\275\260\272\320=\240^\374\273lD\023>\246\214r\2750\302\311=\032\373Y\275\220\200\005<@U\037\273pAI<\364w\331=\353\362\257\275\226\352\200\275\016P\347\275Ph\327=1A\205\275\300(:\273\034\343\220\275\200\342o\273\343\253\343\275\020\"\256=L\031\373=\340\000\213=(\374\254=P\326$=\330\346\010>\004c3\275\350\375\225\274|7\345=\200,\r\273hV\343<\010E\230\275\266\005A\275f]\365\275\3223g\275\214\271v=\220\225&\274\234Iv\275Ge\356\275X\313R\275h\352\345\274\350\354\027=l\307>=\236W\006\276\251\241\314\275BZ\330=f\322\245\275\350\247\023>d\3262=h\031\337=\214\275\305\275R3\300=\264\002_\275\354j;=@\232\267=\347\341\020\276\000\275\026\273@\257\177;\330\261}\275V$\337\275lf\310\275\020\215\300\275\000x>\273|\036\326\275\360;\'\274\\\323R=<\347\246\274X4\336=\370\223U\275`\327\313<\214\346\026=\206\320\020>h\211\257=\250\0366\275\320\271\251\275$C\241=\224\375\220=\361\330\263\275$:o=p\323\373=\230a\316=\030B\206\275h4\246\275\016 \306=\302r\240=p\256\376\274\000\326\366\272\255\370\t\276\230\210\010>h\212\330=8\337\201\274\263;\022\276\224\234T=`\031\222;C\220\336\275]\204\005\276\260\264t<v\306\251\275\010wx=\230%\263<V\350\354\275\320\013Z\2752\346\253\275h\220e=\320\267\310\275\200\353\350\272\310\272\236\274\202\240\004\276\240k\307;\200\333\036;\320\220\275=\364\372\307\274V\365\253\275\210\021\352<\264\342p=\302\\\346\275\2467\t\276\332\027\232=\036\270\023\275\300\362\t=\236s\234=\3349\375=\304\036j=\354 \374=$\254\350=PL\307<\220\261\007>\034\255q\275H\305\212\275?\240\023\276\314{\324\275%\013\334\275\220\261c<\340q\325\274F\t\230\275Po\r>\212zD\275\372\020\002\275\203\202\335\275}\336\246\275*\355\313\275\370E\032=\340\030*=\260ET\275t\356\321=\317\222\372\275\260w\256=`S\002\276Z\331\226=\005 \020\276 \247\203=\212\322\264=@\240Y\274@/C;H\247\002\276\034B\013>x\346\261=\000A\251\272@QP\274B\022c\275p\035\300\274\220\345\371=\220\021a\274X0\361=J\005f\275\364\271Z\275\272\245\014>.\316\213=\324\312\334=\315U\247\275PG\021=>-\016>V~\001>g\271\232\275\026_\352\275Fi\307\275\014\372\375\275\260\271\310\275\260#\036=T\370\014=\010m\204\275Y\r\336\275\0108:\275\000F\220;8\r\331=\353]\276\275X`\372=\240O\210=\270Z3\275\262Y\t\276.\372\355\275\246\234\266=\226\024\025\275\310vr=\260\214\347<\030$\023=\204P\360=\362l\272=`w\321=hy\200=\375n\003\276\366\240n\275\014p\265\274\300GS<\nU\002>\303t\217\275<\031*=\246\247\231\275\034\032\345\275(&{=\034.\362=\270?\331\275\306\236\321\275\240.o=\244\003\307=\270B\337=<4\375\275\030S\221<\002O\014>\326\2353\275D\211\342\275\240\221\226\273\003\034\362\275 \323\306\274\304|\352\2758\306\305\274\2648\230=`\242\036\274P\235&\274\210\303\255\274\3402\243\274\310\207\343\274 \227\373=X\221\310=8\312\345=P\314\201\275\240\035F\274\200\254C\274JZ\236=\240Q\353=fN:\275E\r\246\275\342\215\311\275XN\242=\030o\231\274\250\363w\275\232\202\021\276\300|\244=V\275\226=h)\224=\234\362u=\312\227f\275V\020\243=\310\254\354=\320\001\257<\324\232\212=#\003\370\275\354:\335=$\000\010=\360e\316=\256\325O\275\300\254\225\273pv\013=\260O\250=\320%|=X\324\333<0\317\"<\250\020\023=\310\t\270=b\331\327\275V\027\206=\200|/<\300\253 <H\300\220\274\224\244\341=\270\n\255<,\342\006>~\366\261\275\304\006\r\276&\347\001\276\274},=\'\340\371\275\300\3023;z\264\316=\004\312O=\220\025\376=\2605\201\274\30017<\220\3420=\020g\242=\"\243\250\275d\017\314=\020\321\222<\0005\234;\320D-\275\203\373\351\275\264$\363\274\344\\\277\274)|\366\275\246\221\250\275j?\220\275yD\001\276\000\216g=\372\257\020\276\342G\231= \274\346<\3002\217=J%\303=\240\226G<\240{k\274\000v\255\273\342\375\365\275\230\264\366=\212s\022\276\327u\355\275\260\336\255<v\014\\\275v7\305=\200\370\243\273\300\275U;\324\226\336=\370\313\344\274\034\024^\275h*\010>\324<\205=\214\325-=h\307\352\275\334]\206\275~!\270=\204g\326=T\304\215=\014\303\301=J\"\324\275\024\222\367=\374\214k=\276\310\266\275v\267\276\275X\351\224\274l\n\333\275J\263\202=`\276\311< l\204\274\254z\236\275P\260\242<\304\3433=@)`\273\264\344B=@\247]\273\3348\022>\340\335\221<\n\026\010>\320\267\n\274\274\323\004=\364\377 =\230\306\340=l\327Y=\370$\n>pWB<48O\275\022\255\302\275\346\263\022>\323\022\007\276\316b\203=\024P\241=\021|\n\276\3449\372=\350L\233<\314\214\247\274\320\306\206\2749\335\242\275\003\361\004\276\324\244\364=\004\210\256=\034\243\376\274@+(\273Jh\007>\200\365\014\276\304\035\306\275p\225\246=\240\253\026<J\271\004>\230\376\203<\034Kj=\300H\032=\030\234\251\275\236\341\031\275\276\363\252=\342\304\242\275\030\207x=8\312\267\274\020\362w=d\224\334\274hD\331=\270{\004>\236=\203\275\352w\323\275HqM=\246\030\264=\304^V=\222\246\212=\264\177\314\275\212X\211\275\226D\216=\340\335\031\274P5a<1\265\001\276bk\n>\262A\313=(}\000>\300{\274\273z\004P\275@Z\260<&\306\244=\314\271\230\275xJ\336<\261x\t\276\020\220e<\312\006\"\275\200oV\274\016^\003>tv\210\275\362\335:\275d\352f=:\312\240=\214\273\035=z\223\264=\016\366\017>\030g\312=\254\\\004>\346dk\275@p\033\2732)\240\275X\215\234<\226\330\013>`\272\305\273\262+\255=|\000\254=\014\332\021>\326\010\021\276\200*\037\274\013\316\016\276\033\036\250\275h\356\026=,\337\001>@\337\024\275\370\336\271\275\304\353\022=Vp\207=|U\261\275dYP=\354?\352= \333\035=\315\251\242\275\376:\216=,\307\373=~\345\247=hZ\376=\220v4\274\026\311\242\275N_\022>\030\316\263=u5\372\275\027\252\272\275|\362\343=\017c\206\275\260|\223\274\270a\201=\232\'\225\275Gs\242\275P\277v\2758\025\366<\222(\306=|l\365\274\260\314\306\275\340\036\020=\330\322\347\275\204\3649=\300\227y\275 \276\220=0{4\274`~:<\302;\202=x\327\273=\230\216\346=\000\216\022\273\220\240\264\274P{\r>\240@/\275TsL\275\330\362\310=\230>\307\274d\310\n>\220\3751\275FC\017\276zP\013\275\300\005\375\273 \311\267\273\200(\242\274\020F\217\274 \371\321<\340\255:\274\240\244\352=F\302\006>\226\315C\275\024,2=PS\225\274\220\301\215<\000\r3:87w=\320P\033=d\337\302\274B\370\010\276\230\020_=mM\022\276\200k\333=\344i\035=\000!\003\273\343s\316\275\200N\227\272Sq\227\275\256\336\001\275\200\225\240\272\013\035\020\276V\266\260=\336\301\315=\032\033~\275\320\r\301\275\254\321\373=\010\354T\275\200N\303:\025\261\223\275\300d\347\275\235\363\324\275\260\346\230\2754\214*\275xX\300<\\\317\004=n\345\274\275\226\321=\275d\200\014> YO<\000d\237<b\225\020\275\332\033\276=\274\034\327\275,,\331=\220\206k=\361\200\016\276\000\272\3759\000o>:j\3636\275\313\233\010\276\3415\240\275@g\036;\275\243\206\275@\0229<D\357\211\275\253\221\004\2762\243\201=\266R\013>L\374\277\275\260\206N\274\340\313\026\275z\321P\275\310\323\341=c?\322\275\327\242\244\275\210\003r\275\0247\300\275\024A\331=\000C\342:(\254\217=N\2545\275\204U_= v\253<\210~\307\274@mv\273\020\246J\275p\023\002\275l-\360\274.`\025\275\240\036\232;\364\355\360=^\372\366\275\372\225\014>\027\000\200\275n\377\327\275\366!\017>\322\n\304\275\3566\t>\330\231\345=`\037\024<\260\312\031\274\376\373d\275\262\317\335\275\330\306\211\274\226\017\014>\210\302\227=\343n\000\276\300~\002=\004A@=:\037\302\275\362=\n\275An\374\275\344\004\233=Y8\002\276\020\363\023<\362\035\305=\364\n\025=\214\246\226\275\000K\336\272\240\035\007<<\035\257\274P\323\014<\362~\342\275\302\203\251\275U=\237\275x\307Q=8\246\251\275pe\237\275\274\212\017>p{\037\274$!\345=\264\362F=\304j\213=9N\361\275h\021\231<\360\242\336<\004A\244\275@\207\375<B\360\001>H\010M=\322\020\007\276\200\022s\274`\212\225\274(\030\250\274\004\305t=Pc\335<\240\n\007\276\020\204 \274\214J\307\275\214\017\247=\010\206\370=\010\2206\275\326\226J\275\004nL=\021\224\001\2762E\267\275\370\321\333=`\355\244\273\250_\304\2750K\001>,\017\372\275\312\206\310=;*\215\275\024\202\276\275r\016V\275\206y\016>\020\227\007>\030\260\361=T2\302\274~\373\314\275\250\365\213=\250:\202<\304/\000\276\300\320\257=\010>\030\275\327<\r\276@y\277=\\\366\336=\300eW=J\001\023>\000\217+=\260\346/\275\342Ka\275>\201\205=\234\250n\275t`\253=\300\351\'\275x\277\020>\260\016]=\000\257\':\014-\350\274\304<\340=i\361\236\275 \212\021\276\374\277\023=\020\341X<2\030\260\275\3340\317\275\370\326\325<\024\034\315=&\323\003>P\036M\274\205z\302\275\334|\330=\312\232\212=\340\221\271=\274\024\351\275H\233\367<\304\243\361\274\334\261r=\014T\366=\350n\321<\344\227\253=\266\325I\275\024\001Y\275\000\310`;W\365\014\276\340\245\225\274T\016\376=&\313\014\276\204\010\230=\217\204\351\275,\006\372=\2527\023\276\007\313\310\275\260R\264=\204n\244\275\360\220\010>\222/\276=Tj\316\275\0007\207=\030M\331=\266\345\370\275\200\346\367=\240;,=\312\221\354\275<J\275\275\2606\344= \357\251< \226o=l@\376=\342\250\326\275\005O\004\276\244\335\214\275\030\217\014\276\000\210\361=-\010\002\276\344d/\275\260LD<\350<r\275\240?\337=Xx\350=x\241Y=6\372\t>\244\274\n\275p\013\204\274\200\372\340<\014\t\014\276\304>\363\274\300@\013=\306\032\312=\370b\266<T\224\022>\311\362\243\275np\246=\204t\255\274n\321\021> \203\240\273\226\234\373\275\253\020\021\276\302u\311=\352\353\252\275\314\021\207=\361\243\361\275\240\366\357\275\326\271\346\275\003\327\264\275Z\234\302=\230\340k=\010\225\211\274\300\256\372=,Ea=\334\252\t=LQ\304=\263\205\354\275\374D\303=L\256\025=\206P\315\275\320B\001>\352f\010>\\\213\200=\234r\242=`U\002<@\347\017\276dq\356=0\315\246\274<}h\275`\277\231;\301\235\365\275b\374\206=\200\260\361\275\234\021\024\275\244^\215\275\354\243\007>P\002\230=\010\370\354\275\000\002\014>\220N\275\275\327\343\202\275\347=\231\275\374!\001\276;\002\365\275\030l\265=*\036|\275\000y\034\274.\265\232=\244@q=\000\253\333\275\320\331\272\275z\277\331\275\242\007\236=\342\346\\\275p?\235=\334\262\355=@\345\236;\332\342\240=\232\226\201=\300y\316\275,\rH=\000O\375=\210\215\304<\000Cf<\235\021\022\276\220\300.=Q\005\016\276p\266r\274\332\257\220=\332\337\206=\270\211\337<\024\364\351\275T\302\002>\000\023\250;\200\004j\275\200\033=;\236n\004>\\*]=\230W\014\276s\036\251\275\201\352\215\275-\002\013\276]\312\002\276\245\232\351\275\252%\001>\340\354l=\360\273\002\276n\344\303\275\363\362\247\275\373\325\376\275\036\361\001\275\2241\311\275\322\005\275\275\200P];\"&\216=\334\023\250=\300O\273\274\344\224L=\274\031\374\274@[\253=\230\377\000\276\203\343\013\276\tE\354\275tg\255=v\225\232=:[\204=\020\242\371=\240/\301\275\3243{=@\025\267\273\000\'\365\272\260\263\016=\214B\375=\340\2708<\323\254\256\275\216\360\177\275\365-\266\275`\236\337\274\240\227\372<8E&\275\240\020\265;\310\257\224=\326:\n\276\272\371\234=\236v\r>:o\217=tn\007\276\307\315\323\275\230\n\017>\364\330\366=(\n\033\275H\316\206\275\330\363\336<\034\272l\275$!\252=\022(`\275\340\206D<\222iO\275\253\356\t\276\2122\035\275\244\0333=P_\311<\300\353 ;\300#\230;|\216b=$LD=\322Hc\275h.\267\275P;m<\320$\365=\323(\247\275 \362\345=\240R\334=\376\006\323=\204:\315\274\240\256\362\275\340\231\304\273\0106\177=\024\212\257=\330\373\215\275\270\203\352=\010\221\347\274\370k\004>\344A\225=0p\261=c?\236\275@\241,\274\206~=\275\306\010;\275\276M\312\275\024\361B=@y\204\273n\320\271=\340R\010>H\246\303<\006+\217\275\013T\315\275\307\336\014\276\240\337\373;\376b\366\275\020\026\326<X\344\236= \334\217=)\233\370\275j\\\001\276h\350\270=,\232\334\274\344\275\361=\340\003\250\275\326&\\\275z\232\337\275\\M\225=F\242\232=\014}\017>\036N\340\275~\272\277=\340\342\363\275\020\335\372<\200f\231<\326=\324=R79\275\301\035\020\276r5\002>4Y\272=\256k\265\275 O]=J\264\303\275\204\216C=x\027Z=\251\355\010\276@b\374\274t\260\021>\3527\231=\254j\003\275\366\371\240\275\2241-\275\326\371\037\275P\017#\274\317)\005\276\300\247=\273@\220_\273PLn=<O\332=\334N\372\275\310\347\336\274\300\363\265<Z_\312\275)\245\263\275`\2272\274SU\203\275\032\366N\275,k/\275 \273\316\273\230E\256<@\003\350;\340\315(\275\000-O\274\244Ko=\203|\265\275\260q\370<\362\251\324\275\240\t#\2758E\307<\320\223\t>@8w<\030\353\363\274\360E\316=\304\036\320\275D\300$\275X\306\267\275\246\306\016\276\\*\303=\236\257\024\275|\331\324=\362v\302=@\230\206;\004\014\003\275\006\232\222\275\200\004)<\\Q\271=\2204\356\275\373\277\365\275(0\344\275\300\211)<\202\326Q\275\340~><pK\017\276n4\007>\231\340\326\2750+n<\336\242\002\275\324u\342\274T\344\022\276\000\245\177;\000\003\317\275peH\274F\374\243\275n\302\323\275\001\306\360\275 t\376=<+\"\275\246D\200=`\204x\274\200\314\272=\354{\014>0\275\200\274\270\354\351\274\360\006\335=\270M\376\2748K6\275h\205\232=\200zU=`Q\274;\030\232\356=\256\257\320\275\330\237\254<\376\332\306=>\212\317=\340\226c\274`\333;<0\361\036<\354\201\372\275,\244\363=\354\266\000>j\021\234=\360\016\007=\326a\004\276`\301\n\276z\374\017>\370\373\344<\366\261>\275\024\n\302\275\264\235\377=\346\315\000>\252\331\005\275\314l\346\275\'\206\t\276=\025\346\275\264Q\267\274\000\225\241:\320\350\263<\355K\022\276\340\033\256\275LXc\275`\024\016<Pu\034\275@\266\353\275\200c\354\272D\331\262\275P\372\027<Dj\251\275\347\310\231\275|\032\261\275\200M\267<\014\301t=*n\373\275\350\266\214=zk\341\275\330\tv=\020\210\206\275>\262\037\275Xm\217=<}\245\274b\001\020\276\300^\321<\344\366\317\275\340{\350;\250fJ=l\261H\275V\262\242=\013\332\350\275p\342#\274Z\'\267\275\030\007\336=\3737\370\275\310d\333\274$T\303\275\375=\222\275\250N\211=P\"#\274~2^\275\2009\014>hv\217<\311\243\010\276\340H}\275\010uX\275T\031P=\026\271\273\275\330\336\227\274\340<o<\246\"\360\275\006\345\310\275* \257=\352\245J\275\330$\352=\244\024\001\275\214}\322=F\312\317=LL2=\034\007J\2754\026X=\340i\267\2740\005z=\250\232\312\275\014\207\021=\022{\267\275$`\221=\200\220\362:\342~\213=\247+\n\276-P\020\276\300\023t<-,\213\275\000\325\343<\262\276\271=@O\365<\026n\334\275\342}0\275\246M\364\2750\261\252\275\206&\320=\270\325\246=x\321\214\274\3309\344=\342\356\321=\220\324>\275\342B\257\275\000X\274;\000\204\277<\214\337\355=\345K\244\275\3622\330= v\372<\364s\017>P\\\330<iY\r\276\246\t\307\275\373A\262\275\000\205\352<@3\373=\353\274\257\275\374\003\021>\340\323\256;L\230\207=\300\3571;\244\237\202\275PS><\300{e;\264\201\266\274\360\335\010<F8\n\276@\035\210<\264\362\227\275|\021M=\020\3478<\300\331\277;\254a\361=\202L\272\275\346\225g\275(\030\377=D\333\022>d\276u\275\322l\325\275,\332\213=\177&\333\275\324\221\250\275*/\345\275\213w\017\276\264\310\017\276\002\263\362\275(6\026=(\371\216\275\324\307\035=\234\230\017>\234`\367\274\0005\002<6\310\022\276\330\207\323\274&\202\241=\300\355\031=\267C\233\275\205\006\324\275<,v\275\304\204,\275\316\351\216=\340\372\035=\210U\305=\300\277>;\220\300K<\254\334\363=8\330\r\276h\302\n=\242\360\353\275\340X|\275&\262\234=8\007\013>T\266\342=\330\206\361=8\204\303<\364\014~= \207\365<DJ\010>\240\260\266\274p\205n<+\252\020\276\207\341\t\276\0204\217=\000\023\226:\nL\277=\354\256\261=\304\215\213\275|\345W=\250\232\253\2748\314\363=\217\236\235\275$\346\020\2768@\213=H\354\005=\212ro\275\330\264\276=\333\324\366\275D\353S=d\253\240\275\006\344\266=\276\013\334\275\340\314r=;\007\003\276\034\377\221=\211\025\220\275\360NU\274h\314\200<\350\320\356=\232^\273=\207\321\001\276\006[\021>L\334\267\275\220tX=\260G\242=\204HY=\254C\372\275\260F\347=Hs\020\275\234%N=Q:\270\275tJy=e\032\372\275\336I \275\302\220\010\275lm\301\275\004)>\275d\376\216=\016C\326\275-J\020\276\360W;\274\346\'\244=$\343\354\2758\003Z\275\372\336\023\275\356\313\n>\010\221\233<\314\251\001\276\213(\002\276\354\325\\\275Ib\243\275`\361\t>~\206\206\2750\007A=r\n\031\275\000\264\277\274<\006\331\275\370P\344=\220\250\030<vZ\005>\212\323\014>\354\247j\275\"v\003\276\2202\206=\256M\326=pF8\274\200\332\353=\034\370\247\275\350\370\342<B\323\027\275\376\'\335\275\315\237\314\275z\277\005\276\270D\305\275\342>W\275\214h\326\274\354)\250=\350^P\2758\265\330=P\372$<\244\036 =\341\000\253\275\250+\365=|\207\364=\312\333\013>\365\216\243\275\244\243\026=ZS\302\275\364O\013>\362O\267=\0006D\273\260\304\306\274\311J\314\275\200R0;\240;\004<0*\364=`\027|=\200\320/=j!\265=\352/\004>\310w\025=`\333\264\274\236.a\275\004\241\366=\323\320\022\276\264\211\020\276G\345\022\276\244\261\302=\260\350\257\275\346\233\367\275\320\004}=\300\334\267=*\027\260=\360\206\233\274\266\231\301=&=\314=\200G\226\275P\307\373\274\034,\251\275\023\271\341\275\206\351\021>~\277Y\275{\223\234\275\314\207\275\275<\213\377\275\324Z\003\275\334\261\022\275\222F\360\275r~\211=@\375\232<\210=\021>\320~q\274+\222\212\275`\240\332;\177\247\001\276\036\331\307=\330\227\365<\000\222\3459\344\232\367=\355\272\327\275\010\274L=\366%\232=F%\020\275p\274T<6\350\212\275\224\240\005=\254Vx\275\006[\226=\306\022\364\275*\373\343\275\346H(\275\024\034\273\2740\355\342<\350C\307\275\026]\205=du\271\275\000\036\200\271\334\365\n>\024\313\372\274\2243\177=\242\373\312\275\002?\207=\254i\332=X\006\341=p\222\303\274>\373\323=\334V\007\276V\270\230\275_\314\023\276\240\013\224\273\370\3757\275\313T\367\275\353[\363\275\2044.\275@\030\017\273XqH=\2040\312=\000E\032\273\036-\252= 5\275;\245\347\227\275\000;\202=|\016\216=\000y\213\2744S\245=\000{\020=\254\023\363\274\220y\204\274N\010\207\275\350\002\204<\262A\317=\030\250\025\2757\305\336\275 >\370\273\016w\254=\316\302:\275\246\225\242=\020\323\234=\220+\213<\220\261\010\275\274\203\306\274\370\"\316\275\240\205\270=\342\037\321\275\242\227\322=\025\360\217\275~\354\004\276\264\237\362\274\325a\242\275(Y\n\276\020J\256\274\360b\n<\3007\343\274\200S\325\272hi\345\275\000\253\025\272\221\227\334\275\000\254\004\275d\374,=0\235\215<\314P\262=\230\021\264=\3672\303\275\330B\263<@\221\264;\206:\330=\254+&=\304\206\t\276\016g\004>\245d\210\275\003\335\253\275\2701\303=\030\354\002>\320^\031=i\253\276\275(\252#=\370e\205<\222[%\275\264\215\260=w+\314\275\024>\000=\226\316\377\275^\322\215=\304g\343=\200m\240;\000Nf=\364<\365=\224E\275\275\264\316\216=\315\036\317\275H$\254\274\342\005\005\275\236\2563\275\264}6=`k\217\274\322\376\250\275v\302\266=\300\"\n;\250P\013\275\260x\010=\260\313\306<,\337\276\274({\022=\020\373{=Z\003a\275\320.}\274h\310\244=8\266\251\275\242/\316\275\274Z\314\275\220\371\021>B\332\311\275 \032+=\204\352\030=\346\305\217=k\377\366\275\360\023\310=y\256\005\276\200&x;\272z\353\275\202<\000>@\210\016\275p\224\222\274\201\260\340\275X<\324<h\026\030=\210\274\200\274\n\375\031\275P\034\202=n\202\037\275\255\315\017\2768\232\333=* \367\275\234\211\355=@\2606\273\310m\303\274\230?\215\274\320\274\327<P\365K=\220o5\274\200b\222:\320\2400\275\016F\003>x\214\250\275\005e\346\275\324\247\374=\304\022\354=,\007\324\275\242+ \275\373\357\000\276\376\246\022>\264\3002=\2710\242\275\312\\\342\275h\306\355<\214\235L\275 \307\335\273<L\274\275\020\353Y<\244\027\021\276\340\263\212;\020Z\023> \251\256\2730\373\005\276\3709\323\274\252\026\n>\274\342f\275\026\000\307\2750\277\340=\003\255\271\275\264~\251\275\034>\276=\202\356\322\2755\272\364\275\307\235\013\276h~\357=\200BM<\230p\013=ZH\034\275\325\013\005\2768a\324<H\253\200<`y\026<\300lB;\240\003X\274\360\250\000\276~\231\326\275\000\340l:\364\177t=\360\360e\275\0040\004\275\\\276A=\350\347\010>G\227\363\275\330^\000=\310\225\374<0\317\000\274@l\372\274\000(\3748\214t\252=\221\335\241\275\250\357\033\275.\312\260\275\000 D\270\330\033n=\346\r\241\275\304\333\220=\260\377@\275\240?\357=\322\236\340\275`q\247;\037\375\274\275\004\204\227\275\020xr\274\210\226\232=\340r\037=R\365\016>\340\205\334;`\021\357;$\321\257\274H\345\377=\316,\021\276\230~\357\2758\376\002>dY\000\276`\303\250\2750\335\005>p\256\022\274@\231\373=|\343\r\275v\240\253\275\020\250\346<b\017;\2759:\n\276\000D\031=\006\366\314=\372\337\311\275\226E(\275\230\355(\275t*\340\274\010/\021>n:\361\275\'b\201\275\300@\377;\324fO=\372\033\254=\360\211>=\014U\241\274\240\312\331=\00086\271^\2629\275\\#\253\274a%\221\275\314\274\036\275d\240\250=l\024\251=\035\036\232\275\204 \003\276\014}\225\275P\305\346=\325\205\223\275\316\010\340\275r\332\241\275\360\037.\274\250\225C=>H\n>\300\222B=\006w\031\275\316\024\205=L\257\314=\264\337\013\276\200\206\366;\224\357\302\275\362\357\004\275`\231\324<&q\355\275j;\230=\240\n\334<\254\335q=x\230*\275\240^y<\240\027\274\275\306R\307=\"\033\021>\320\250\330\275\274T?\275V\'\317=rr\271\275,\351\255\275@\315\307; \037\343=\000%Q\272\344\021\002>\376 \014>D\347\005>\360\244\244<P\322\177<?\241\201\275\340\253\013<P\231Q\275>K\t>\264\301\257=n[\327=\262k\261=\320\003\006=fI\205\275\033\230\212\275\215\231\000\276d\003F=d\234\261\275\362\365\000\276\3046\324\275\274\316\272=\244K\361==G\240\275\372\272\232=L\240\324=\016\300\002>\220\2113=\252\321\256\275\032\331\224=\267\253\n\276\"u\320=p\232\307=\310\353\032=\200\351\177<\034\021\006>X\013\306=H&\017>\232\t\266\275T\376\351\274|\342\314\275\344a>\275\"S\306=\000f\"\272,\214\355=\304\001\021>\026\313\321=\212;\317=\3405\262=\364]\005>4\253b\275\374\272]=\232a\325=2\336\356\275K\261\300\275F\031C\275,\017\\=T;\343=\026/\255=6\376|\275p\247\236<\207\'\306\275P\233\003>\244\261\341=\360|s=\314:\337=*\361\244=\034\252P=c\037\331\275\2644I=PM\220<45\311=\010\203\244<\210\002\335<.y\017\275h2\004\276\270\264\205\274\200\346\324;HD\r\275`(R<\325\304\330\275J\000\262\275\004\n\357=\344el=P\355@<\210\003\212\274\254\222]=\354\024v\275\022(\372\275\344LU=\204\245\343\274 \202\027\274\370r\r=\254E\303=\210\322\220=\252%\247=8\331\376<\250`\323\274\266\\o\275rO\t\276T\203O=\030[\375\275\220;\241\275\354-\014=@\237\302\273\254<\333=\000\232\2449P.\225\275\364\271*\275Z\272y\275\274\336\010=:\221\010\275\222\005\021>\020\357\370<]\375\021\276\000\312\352=\372\3001\275\242S\266=\000\005{\272=(\005\276\005+\023\276\312\342\373\275\246`E\275\004\242\325\274\246\300\276=\300=k\2736#r\275`\271\001>X\213\007>Ko\n\2760]\231=\277\256\243\275@\353\332=\"b\225=\030\263\224<L\255\n>\354\210\265=\360\210g=@\014\266\273iE\263\275\324\316>=<\302\000\276\371\367\377\275\366\242\022>\371\313\207\275hG%\275x]\"\275eW\225\275*\222\202=<\343\326\275\310b}=n\347\266=\020Oi=\220\270\344<]\346\261\275\224B\202\275\204]\361=v\224\272=\242(\347\275l6q\2755\013\265\275\3370\253\275h/\010>\024P\316\274\354\025\002\276 \224\275\273\0260\017>9\033\021\276\030v\275=\254\014\347\274`\230o\274\364E\315\275,\207\032\275`=\341\275\3702\370=\330A\006=H\266\311=0\310\323=\034.\276=\020\275\006\276\014\002\331=\346X\243=X\306\214\274\270\376\261\274\032\313I\275\234\316\272=4\377\317\274p|\001<\024\256\003>\212\2148\275\342\342\233=T\356\212\275\340/\306<\220a\336<\364mJ=\005K\260\275\320\344\343<8\342\357\275\001\241\023\276\261\335\237\275;\242\223\275\200\030]\275\034`\314\275x\003\325= \017z\274\\\204D=\204\266\024=\002\377\026\275\346\004\247=\020\036\267=\3408\335=\240K\330=\240\321\376;\000h\345\274\200,w\2730\365\207<\210\273P\275\000\376H\273\304\357\010=\364\244\251=\214U\355=\220\243B=\270\027\003>\300?\377=\343\231\240\275\340\001\254=\302\371\262\2754g\001>\217\030\232\275\240\225\321=/N\272\275\333\353\014\276`\036\355\273\2002\362;h\233\277\275\014\t\035=\360n\004\276)\022\001\2765\031\264\275J\246\021\276\224W\256=\350\246$=\300\376\211<\200\034\226\272h\3349\275\240G\363;\307\206\202\275\244\313\340=\376\017\204=\315\255\375\275\346\026\035\275x\210\331=\362!\272\275\010\270~\275\020\304\027\274\035\365\016\276\230\007\262\275\214\204\332\275plp<\210\342t\275\022\3016\275\336\036w\275D\377\372\274\250\363\266<\240?\001<\347\361\277\275D\224\251\275\300\344\330\275\306\004\244=\350Q\270\274\300c\366=\274\"\312=\200dj\273\260\006<\274\020-\245<\270\337\310<\377h\361\275Lx\220=\2546\202=\010\232p\275|\366\214\275\306P\257\275>\257b\275\2400\207\274!\354\215\275\260\250(\274b\360W\275\320v\327<\304\212\300\274i\336\352\275nn\216=8\360\263=d\264\020>\262\000\276=\244u\235\2754\353\342=\262=\250\275N\346\221=\372\270\000>\\\215\227=L\320\255=P\003\213=\0306k=2\370\207=\3345\372=$\017\271\275a\334\246\275\252\000^\2754\026\352=\330\223\352\275\231\003\t\276\223\263\343\275TW\331=\336\330\345\275\014I.\275\370\210\304=\0135\312\275Z/\006>\006%\200\275P\221\006\274\304\254\247\274\014(%=p_\360\274\256\260\327\275N\234!\275\340$\210\273\264\210\340\274\340\247\341\273^3\r>\340v\366=\277C\310\275\3200\213\275\356\024/\275\230\334\007\275\240.\272;\2045v=Dm\014>\320F\310\275\230t\265\275\024\312\001\275~B\205=\370\026\234=P\3105<F\026\215=\362\356\000>t\211&\275\312\n\000\276\360\331\t\274\200\304\265\275<Z\005\276\300\250t;\2703\363\275>~\313=R\241\271=\247^\005\276\210#\233=\337%\231\275\253\234\241\275\244\264\034\275Dv\375=\024\300i\275`,\362<2\240\002\275\340$\022>\034\223_=\210}\302\275\242\213U\275,>\263\275\204\326B=\350c#\275\\\001n\275x\"\250=\000\3718<\031\371\356\275\000\272\364;|\027\035=^\366\312=w\232\005\276\340\034h\274\276\313;\275\006B\206=\014\255\201=\376\373\252=n\264$\2752\014\032\275\004\014\341=\226:\234=\024QN=\240\243\231\275\346\245\025\275\300\340]\273d\023\014>\200\346\014\276\240\177\014<dB@=\260\320r\274\026\023\217=\324\177l=\324\207\314\274&\247\265=\216\357\246=ni\002>j\267\260\275Z(\327=\374P.=\370\315\017>f\351\315=\\\257U\275\3235\240\275\010\267\000\276\034\370\237\274 \215N=Tt\372=\357E\377\275\004\236\306\274\216\276\002>\020\217.\2747\001\356\275:F\004>$\033\362=\270I\261\274\341\254\013\276X\316\236<\216\275\312=\300\255\353\275@\177s\273\024`\313\2740%j=\004^\361=\022\220\006\27580\232\274\356_\223=K\376\355\275\304@\002\276\300\256\r\276\024]A=\350$\004>\276\036\t>\004fg\275\n\007\312\275\364\030\260\274\037%\361\275\3663\231=lfb\275\205\217\221\275\310\017\215=]\321\232\275D\314\274=\300\305v;\026\217$\275\334z\017>:\"\002>^a\305=\322\373\201=\353\233\372\275\370\365\333=\204k\003>.\271\300\275C\363\374\275&\311,\275\010I\247\274*\276\256=\000\016\353=\014\236\261\275\200I\311\272\310F\206\274\3340\317\275\274Kr\275\0048\250=\324l\261=\364\230\217= \347C\274\214\360&=\265\376\021\276\224v\021> \324\353;\026\306\343\275x]\330=[u\246\275\3569\021\276\000\267\207<P\226\344\275}\315\237\275\274\305\237\274\356g5\275|\272\002>\300\327\223\274\202\333\203=\200tW;\214\354\023\275\200/\272;\332\332\306\275t\354\332=\232\036\260=\t\315\235\275@\303\014=<\344\265\274\200Y\363=#E\374\275b\177\210\275\210D$\275 \222A\274\202\371\200\275\344S\364=\006u\311\275`\357\217\273\332\002\373\275T\202%\275\370\253\000>\306\024\324=\232V\262=\270Jj\275\364%%=\334\266\006=\330\363\367<\240\217\326\275\277\025\004\276h \202\275,=\212\275\214Y\014>\363\272\254\275g\'\227\275,=\360\275\030\000\332=\300r\232\275\000\360\022:\220\330V<\264?\005>\260\355%<\310o\325<V\233\327=\310:e=\2405\004\276F\246\260\275Gr\307\275\314\204\207\275PV\343=~D\265\275\006\243\004>\324g$=4j\245=R~\022>\202*\001\276\360\322\310<\300\317\303\275\352>\345\275bn\320=kI\235\275$\243\007\275\240\274\200\273PK(<\374\207\021=\004\332t=\224\326\001>\226|\020\276\340\315\004<`\222\311=\320\240\343\275\272\254U\275\356S\341\275\272e\016>\2606X<\326\236\365\275\314\307k=\244.\310= SH\274\232&\020>\370\327\210\274@\355\030\274\314\343\n>\\0\374=\240\364\373=`K\255=\310\236X\275\354t?\275\364\363b=\030\332\300<\204\\\024=H\021\214<d\220\014>\254\024\343=\"_E\275\000\271\363:\200\250\353\273\232\300b\2750\213\220=h\222\247\275l\316y=,+\362=\321\202\014\276bm\020>\244\350&=\224\3754=\272&\331\275l\337\035=8\261\233\274\264\374\003>d\264&=l%\263\275\240\023\235;\020\264\"\274\340\022-\274\000\367F\274\031\305\321\275yM\013\276R\303\010>\350z\227=\310\216\024\275\230\236\240\274b\325\342\275\327%\241\275\360\177\365=\0321\302=pdj\274\246\000F\275\334\r\r=\326P\274=\351k\227\275\300\2052\275\354`J\275B\323\n>p\370Q\274\344\'\230\275\352\330A\275\033>\017\276lX\254\275x\331\237=HN\212<\320\034\354=\236b\314\275&\n\002>\202+\267=\000\255\277<`\'\220\273`Z\244;Hz\277\2752D\022\275\"{\364\275t\010N=\326\277\330\275x}g\275\n\301W\275\270\010\270\275`\035o=\222(\r>\276\330\r>u\356\250\275\244\206\017\275\252\236\016>f\336\210=nn?\275\334\326\246=\317\035\017\276\016\312\201=pl\014<\222\204\253\275PE\221\275h\276\243=\376\377u\275\360g8<\312\365\372\275Zr\257=P\030\274=6\255 \275\200ed;R\257\324\275\330\372:\275 e\010\276\005\033\016\276\240\325\302\273\024\237\335=\234\315\'=\234T\001\276\255\026\306\275\026\366\325\275\340\311\325\273\360T\037=\340\225\202<\332\320)\275\336\232\r\276\245\021\227\275\022\036(\275\224\270N=R\372\235= \311L<\037\010\201\275\000\2163\274\330\326\252\275\350\273\217\274p\220[=\342\364\253=\200\243\357<\322Y\002>\252\"\005\276\244\014\320\274\006\032\330=\030\332\376\275\300_C=[R\277\275 \373\n>Pdr=,T#=\020z\350<\222\346\000>\334\312\303=\024\216\366=H\245\200<\332o:\275\004f\271\274^\016\213=\244>\362\274\300\3315\274\310U5=\250\266\216\2746\004\276=\306\213\t>p\237\t\276\204q\372=\300!\263;\0200\336\275/8\014\276\006\024\222\275|\337\t=\346\276\223=x-\303<\3629\251\275`i\204\2734\271\023=\364\226\002\276\354Sn\275\340\277\374;\202\237\303=(0\315=\346[\246=\362\255M\275\000.\006:\220\350`<@x\210\274\266\271\262=\220\312\r<\314Cz=k\336\303\275\000\307\360\274\350\355\375\275J\033\\\275\320YV<\364\240\313\275\200=\003\276\334Ee\275B\353W\275`\031\322;\362\233\206=\2308\311=\361G\244\275\0006\340\271v\242\276=\240Q~\274\000xu;`;\345;8\224\375\275\233\'\233\275|q\346\275\250\350\254< \036\304\273\310=\322\275\032\222\334\275`\275+< \274{\275\000R\344\274\254~\253=\344\202\017>\374\220B\275`\265d\274S2\204\275\022S\323\275\020\200\002>x\346\360\274\206\036\371\275\276\330\233\275@\244G;rU\010\276\204\031F=\254\340\326=\210C\202\274\034w\300\275\364\003\377\274\274P\002\276<\366\302=\240\273+\274PP\217<\004\260#=\312E\271=\244\032\275\275\204\272\377=\200\351\353<\273\017\340\275\264\002\335\275`~\330\274\324\246\340=,\033\264\275\217\027\335\275<(\020>\272\017_\275\225\366\375\275\3409\302=@\242c\274\236\212\230\275@jP\274\260\007\316=\300\247F\275\262kh\275n\002\275=\352\021\372\275\220\"\303=L\325\371=d\r\342=\340\"\211\273x\307\374=\200\034\372=v\031\314=z?\322\275@s\205\273t4\243\274(\325\351\275D\234\330=\257?\223\275\000\026\256\273H\323\030=\272\233\r>\200\3130<N\035\325=\022k\022>\274Q\353\274\200@,\275\0149\373\275\256\307\353\275\037\023\223\275N\263\233=\300\215\014<\n\340\271=\210\213\251\274`\334\244\274\240s\303\275\254\211\365\275x\201\335<`\232q<\307d\250\275B.\022\275(\311n=\3228>\275\222\023\305=\034\245\356\274\310\244\t>\360\370\277\275f8\023\276^\021&\275\220\273\227\274\002\366\270=P0\336\275`\332\232\274\246\372?\275\254\373\313\274\014\243\241\274\364\371D=\004\222\226=\302\340\351\275.\211\274=\326\235\317=\337J\006\276\320\376\375=\334\\f=X\214\253=\342\371\345\275.\266\300=\264\313\275=\320\005\214\274\324\333\361\274\320Z\210<\334\207\003=\302\367\230=%\253\007\276\000\276\312\2712\202\001\276\233\036\010\276\267;\003\2768{\307<\210\372\222=\\\000\n>\243\272\357\275\037\362\022\276f2\006\275\034\344\227=\303\240\241\275\314\320(\275T\\\022=L\314\243= \220\262<\370\270e\275\324\023\372=\014\222\332=\240\261u=8I\344=\000\206M=J\010\275\275\204\314\325=P\345\001>09u<\240\033\207\274\300>\342=@\213\000\274\210\307l\275d/\367\274\016\310\235=\316\207\314\275\224,E=\362\221d\275\360\220\317<RG\200\275F\373\000>\010\243\020\276-\323\212\275\300-\016<*\225\014\276XJ\317<PY\265\275h|\342\274B\372y\275\250\365\006>\260\267\266<\244\346\354=x?1=\353~\214\275\234\032\004>\250(O=\\\352F=\364\234\346\275\333\002\203\275Tq:=R\233\306=\312*\253=,\037\346=\344\307\313=\320\004\221\275b\024\365\275Ha_\275L\327G\275\256\r\272\275\206 \002\276\2774\274\275\344\243\255=\302\\\003\276@\r<\273l\272b=4A\257=|\022\241= \337\343;\010\204\327<`A8\275\000\\\023:\206\t\226\275\204\314\006\276e\316\013\276Q8\355\275\372\251y\275$o\016>B\264\257=^\211\220\275@)%\274\345\370\000\276\222X\202\275\010\342\201=\214d\251=\200?\324<b\305\003\275(J\000>\220/\007\275\024!S\275\300\230\027\274\000rP=\344/\321=\030\327\347\274\030[\224\275P\331\216=\000\370I\274t\374\t>\222h\367\275\334T\n\275\342\244\301\275\nA\005>\262[i\275\302\363\327=\2147\364\275Xf\307\274`\366\272;\240)x< \033\354\275\020\302B<\200\026\264=\360\225o\275`\265Z\275\210S\372=\002=<\275\334\251A\275c\257\013\2768\342\213=J\'\r>_-\222\275p\364\211<\000\3130\273\324C\274=\314\020^=\374\275\354=@\312\t\276\232\376\001>\031a\333\275\n\t\255=\370\005\374<\\\216\333=\000;\250\272t\363\276\274~\346\267=P\344 \2740-\331=\200\221\374:\346_\270=\004\216\354=P\360\304\274\250\352\230\274\246Y\311=\3257\363\275X5&=\\\\\016\276\006\234\250\275\223\242\007\276l\256\300\274\030\327\006>\302>\005>\022\301\265\275\214\250\346=`x\215\273*! \2756\330\303\275\214\274\203=\364\220D=\020[\332<nZ\200\275\354V\327\274h\313g=,\372\022=\200\032G\274H\376\001= `\374;P\364Y\274X4\004=\005\252\245\275\300\324D;\254\300(=\230z\014>xK\314=\366\220\r\275\356\031\004>*=\375\275TE\276=\322\254\004>\204\207\260\274\232\002\006>\377+\t\276\362K\245=\240\0072=\200z\330\272\350E,\275\266X\307=\270~\304\274F\241,\275\200+\t>4A =\232\334\375\275,\303\354=@\301\016\276X~\207<\376l\311\275\314\321i=\316\255\004\276\010\355\037=\351\321\207\275x\222\314\275\004\0308=\326\224\324\275\346\331\377\275\245F\000\276\276+\247=\200\334\202;\000\212O\273\247L\r\276\311\275\010\276\251y\345\275\366\247\206\2750\212\262=o\031\303\275\'\271\205\275D\017\343=\210Pj=\002\034\353\275\322\022\233\275\356L\302=\220\313\264<\356%\274=@\316\360\275h\036\333<\264\314\253=\206\345\361\275\304~\310=\204k\316=\273T\352\275\320g\361=$\334\306\274\360\026\237=j\357W\275\316\362\335\275\264\313\275\275\020\rn\274\377\373\001\276dq\242\2748\275\372\274\326\315;\2757J\354\275\004\212@\275\360\252\003>H?j\275d\207\317=\254x\205=\006z\002>\032\244\300=`\333#\274\340a\350;\215\205\001\276\352d\023>\000*\005=8\315\034\275B\223/\275N\367\263=\312>i\275\216U\024\275dh\021> \000\007>X\3655\275H\277\311\275H\024\036=\244\255J\275\262\002\212\275\\`\303\275\220q\217\274\004p=\275\010m\372<4\250\310=\310#\321<vw\201\275\000\346\365;\244?\351=\361\273\220\275\214)\363\274\250*\257\274\036\352\233=\234\243-=b\230\306\275\310\233\370<\334\375i=TZ\014\276t\334\220=\234\351\017>R\316Q\275\310k\213\274\314\220\013>\230\261\362<\310\026?=6\313\375\275\017W\007\276\250\271\226=\232\240<\275\243T\375\275\010)\030\275`a\376=\216a\201\275\314\001r\275\002\344\360\275\307t\243\275$\247z=\tT\217\275\235-\201\275\310h\212<\230\252f\275<\202\240=\332\010\021\275\240+\316<X\206\237=\270\307n\275\020\024\026<Y\231\357\275\320%\250\275z:\202\275lSz=\332\253\234=`\367\377=\374\2021\275J\204i\275Kx\205\275P\326\247=\013\357\002\276@\001\350=|}\256=\272\342\326=\014\2460=\010\301\353<\300=\374;\362\300\271=\266\034\352\275\352\303\003\276\362f\256\275\350\202\226<` 9=\354\013\010\276PI\006<\270\271\221=8+\014\276F\010\274=2\020\017>uT\201\275\016\013E\275\340K\016\275\020\301,=\333\252\005\276$\221\272=\320<7=\306~\242=\234\243\233=\240+\316\274\226\374\251=\316c\250\275\326r\223\275\240\273\232=\3741s=\314\350\377=\262\220\304\275\220\254\037<\234Jy=40\'=\370\177\341<\366+\217=\354\375\222\275\n\247L\275\314\033f=T/M=@\202\360=6\005\307\275\320\311\327=\220[q\274\364\302\377=\214$\334=\n\262\000>p\376\006<\260\227\375=\234\313f\275\252\014\233=l\373\211=\264\254\001>|\326\014>N\253\002\276\030I\210=>\207\255\275K_\017\276\32237\275\306\316\324=\030\240f\275t\315!=\342\005\266\275\024G\246\275\007o\303\275\250\002\n=@w)<\3005\236\273l\201j\275\016Aa\275;\256\022\276\000#\t;\264Cw=~\204\243\275\220t\273\2744t\223=t\256\377\275\210\024\207\274\300\022\205=\205\331\200\275`\314!=\020L\325\274\216\300\322=\202\211\010\275\310\205\023=\262v(\275\316\376\276=\240\005H<\310<\232<\340@\024=\01495=(\222\363=,\034S\275^\'~\275\216=\332\275&^\032\275\220\306q\274\000\347}=Z\026\254=\241\361\243\275\211\t\212\275|0#=`Y^<\244\303@\275\3701\251=\335-\n\276\270\333\255<8\242\264=\000^\t= \313\205=\210T\347=\220\212\200=\204\262\277=\334\345\226=\000\302\365\275@\360\r<\262\030\304\275\307\224\014\276\344\303\240=\nz\322=\031\352\261\275\3445\312=\244\3564=\375x\225\275@S\223\274\002\350\001>H\242(=v\211\257\275X[\343=:\250\001\275\004l(=\210\023\014\276\234\217\336=D\372\004=L2\301\275\334\352\264\275ml\363\275\314\302\363=\240\270\006>\240\351Z\275\037J\203\275\344S\016>\340\312\301;\314\230\351=\270z\337\2740\243;=8\276\254<\265\007\235\275\270u\276\275\310\236\204<\000\ns\274H\221\236\275\250\033\337=~\277\217\275\320\342\014\274XF\002>\360$\357<D\310\024=8\202\230<\356f\230=\330@\354=:\2357\275\207\n\276\275\260\367\026\274\240\255`<\211\021\n\276\014\252y=p\361\353<\240l\273<\373c\360\275\030\033\216\275\334\262\006\276N\372\324= \235B\274\330\312\253=\206\356\272=0m\305\275\035B\325\275\260d\013>\200!\362=p+\001\274\030\371J=M)\264\275\206\361\303\275\264\307\371\274\314\205\306\275\260;\002<\364\315\002\276\324\233\361=\2747\\=\330N\230=lPW\275j\346*\275hP\003\2768\247z=\026\030\255\275\000/{\275\266\216\305\2750\305\332=\264\260\n\276n\336\271=\270\310\375\274\000\032c\274\360}\374=\202\205\221\275\300]\336=\336\006\251=\"\273|\2750[\357<\260\273\252\2757i\214\275X\362\032=\026%\n\275\030+\204\274~\026\301=\344\333\026=P\206\235<\354;d\275 bs\275\310\036\004>\233\357\021\276\000\346\274<`\376!<\371n\005\276\352s\274=\220\364b\275\032\037\252\275VG\250=\233P\301\275\261\243\251\275\212N\232\275t\030\325\275\320\240j=\234\375\205=\340\214\310<\362_]\275~\314\204=\000\2774<\242)\252=6:&\275\370\032\260<\000:e;\222O\007>\253(\016\276L]\235=\\\010\211\275\364\023\262\2756\332\000>\270\321-=\300h\374;D\304\262=L\312k=L/\004=7H\214\275\010\343\357\275A\\\353\275\320En=.4\034\275`\214\362= \333\002=\340{\017\274\204\276\322\275\214G\'=0\003\014>\214\363{=\300J\354\273@\206\021\275\026\257\314=\000\002\006\272\220\323\377\275^\315\301=2\026\230=\000\234\002;\360\275\022>\300\345\354;\316\322\316=\200\304\r>\216N\310=\272E\215=k\030\355\275\026C\355\275 }\013\274\010S\346=\241C\273\275L\364\330\274\260|I\275\030x\354=f\237\333\275p\014\003>\\M\256=\244\r\200\275O\252\325\275\252\335\302=\262b\242=\340q\344=\372\020\227\275p_\337<b\311\001>vW\'\275\202\027\010\276\246\204\316=\016\232\251=\2300\303<\320\224\236<\3329\325\275\272i\254\275\320\212\024\275XV\030=\272\t\006>\304\316\344=\264kr\275\021G\227\275\206x\230\275l\322\255=v\301\022\276p\261\270<p\235g<4U\347=\370\326\223\274\360t`\274 \245\024\274\320}\005\276Z\241\013\276\2669\017>\324\255`=D\271\017=\300\346 <\304O\230\275\264\327\372=\310\356R=\360\036}=NJ\317=\200a\230\273\322\021\335\275f\240\206=\357\017\265\275H\213\321<@@H\274\300q1<\214\232L=\003\232\236\275V\301\260= \331\235\275\342\224\254=\2647S=\372\257\002\276.B\020>\360\n\270\275\332\210\r\276P\333\206<\000v\257:\324\311\360\275\370\335\021>\000\030\035\272\372\320\220\275\036\366\205=\220\3748<V\265u\275\360\035c\274\203N\362\275\330\026\355=\n\312\316\275\2263\313=$wj=\276\226\232\275\032l\014>\214\017n=\202{!\275\220\321\331<\322\354\257\275|\222l=\362\365z\275\306O\001>\200Z\313\273,\021\215=\252\207\350\275@z\216=\314t\n=`\242\307\275\376,\022\275\036T\001>H\034\206<xF\333<\340I\n\276\243?\017\276\340\363\354;\222\310\217\275\274H\203=\361V\005\276\244e\327\275\262\353\245=\270\273\252<\3104@\275&\010-\275\000\265C\274\034\tG\275\264\016\013\276\000\372u=\010\343\321\275\321\303\321\275h\240\212\274\000\002\264:\230\312\r>\240\340e=\tr\275\275\227:\325\275\000\026\311\274|b\251\275\334\207\302\274\273\371\t\276\243a\246\275\270h\311\275d\352\205=\267K\216\275t\277@\275<\311#\275fqQ\275c\345\013\276\010z\017\276`W}=(\002t\275\206\267\313\275\000`\341:\020@\265<\234\264A=\214\177\267=ha\270<\322\367\250=\300\246M;\374\\\304\275T9\276\275\024YW=f\215\016>\244PS=|\256\315\274\272\252q\275\274\031\332\274DK]=\000\000g\275V\275\001\276\210\032u=\222\r\235\275\200\357\246=\000&\267\273N\343$\275j7\316=|\2449=8\231\032=\226?\321=\342\377\014\276\316=\330=\\\235\222=\266\342\002\276\225\213\243\275\257\246\n\276\330\021\353=X\274\233<,{\025\275\010\030)=\376\266\010\276\023\252\360\2754\342x=Po\337\274\324\002 =*\314a\275\373\223\007\276\020\001\372\275\200\240\237<q\257\261\275\020\017\372\275\222\355\016>\266R9\275\232\3344\275h\356\311\275\334M\272\2750\036\343<4\010\014>\3561\270=\326\203\314\2750\242t=b\245\247=\346\304\315=\010.\356\274\326\357\260=\360\ro=\344\232?=a\232\362\275\\\343\n>\304\317:\275\254\034\353\275\334\275{\275\240l\357=\327\235\273\275\"\232\255=H\317\200<H\250f\275\230j\026=<)\016>\240\334\225<D7y=:\237\322\275\272\311\004>\256\250M\275N\'\245\275T\311\023=cU\214\275\240\037\367= %\372;\004\334 \275\354\372\t>\264_X\275\360\004\330\275\360\277\223<\377\367\021\276\001\207\016\276\000\262\021\273\000x\315\274,\252\347=\000%\017;\332\256\207\275\300\225\022<(\003\247<\360\354?\275\030\022\345=\000\017h;tD\316=\270\210\022\275\370|\207=0\217w\274|\277\204=\266=\210\275X\301\232\274\200\237\267=\374{\340=$\020\362\2752t\265=N\244\247=\004\365\261\275\250VK\275\364\303{\275(\005\342=\270\250r=\242\206\230=\016\240\271=\324o\321=\270m\342=\264\365P=\244v\251=8\351\001=tA\357=\\\265\373=\265\204\353\275\240N-\275\274\234\345\2758\231\372\274R\033\032\275D\303\221=h\233\013>\200\202t;\230\344\222=\000\005\312=x\027\224=`\262\264<l\034\233=\222\316\n>\000,y\275`\311\342=,\037\344=\0102\344\274\014\336\305\274\370\265\235<&\024\023>\274k\343=4\277\214=\304\204\244\274\000\254\224<\263\323\212\275\244%\005=\"\347\021>\214g\342\274\314\312 =\250)0=\312\376\310\275\302\305\022\276p#1=|\t\344=$gu=\300?\366\273\212\372i\275\034 \367\275\350\255\r=\2007\010<\374\351\007= w\327\273:\242U\275D\021I\275\254\033|=\236a\014\276\260\204Q<,\260\017>\227\251\302\275\310\206\006>\010\014\022>X\237\226=L\\\251=\216\246\330\275\316Q\312\275\210\345\313= r\273;\240\340m\2741\263\007\276\300\230\r>\3241\334\2754\322\016\276\240u\345<\304\206S=\\\017\'=\n\222\321=t\326\021\276\254\222\206\275\200\204F\275(\031q=\246w\277=\200zT\273\002\177\274= \317\263<hU\235\274\250\036\352\2740\357\024\274\364\201&=>}\016\275\262\313\313\275|]\270\275\254\2633=\200\206\357=*E\017>\212\177\016>>\377,\275\246\371\314\275\250q\010=0\376g=\000\345\325=\336\367\014>|\021\320\275 !\243<H\223\376=\200G+;\220\021\004>\300\226\356<\234?\357=\002o\276=\320z\345=\t\342\001\276@\020\005<\273\024\226\275\340\2148\274\276\353\003\276\324\227\013>\216\203\244=\"|\007\275TW\370=\204\024\314\275\242\303\201=\374\253X=\355?\014\276\336\227\317=0\304\306=\314 \302=\340\257\020\274\177\016\244\275\240\017\210\274\354\325(\275\270\302V=\241\207\271\275x\310\240<\310\r\014>(\226\247\275\260\352(<\036`\325\275\302\310\205=\232/\034\275\220\'\350=\350\341\272<X\216\323<\200\031\367=\231\345\277\275?\222\004\276\345\321\300\275\340`#\275\274OO=\362\323\323=\030\020\264\275\204\266\001\275\032\215\004\276\260\356D=@\031H<\300\275\267<\300\263\366=`L\313\275W\264\t\276t\032\206=P^\202\274\\\016\010>\000\360\032\275PM%<*\006\024\275\2602\350\274,k\263=\030\336\343\2748K\204\274\204P\373\274\340\243\332=\327\024\014\276\244\342\254\275\210F\035\275\216\376\312\275\267c\022\276x\230\376=0\313\017>\274mJ=\230\022==\364e\t>\360XA\274|\237\362\275?Y\016\276\000N`;@D\371=t \333\275\220\0232\274\366@\020>cD\212\275\257\003\r\276\220D\310<\000\372s\272\370+\371\274\220H2<\330\3703=\340Y\313\274\330\036\214\275\010\320\t=4\253\025=.N\013>\260;\253<\000g\255\273\234{\356=\022\337\220=\304G\370=4\037\332=\200\343\257;\313Z\007\276\212+\000>\220\217\000=\320\200\346\274\220g\222\274\220\n\004={W\251\275\314\n\013\276\211\276\276\2750\254#=\"/k\275)W\340\275u\222\214\275 \225\020=I\332\332\275\260\016\265<89]=\022e\341\2750\370\313\275p\211\366=\264\033B\275\366D\264\275@n\027;\020\264\003=\300qX=\200\247E;hD\325<@\n\346\275\030\274\265=\367\264\020\276\020\016\217<\027\327\014\276d\t\t\275`k#\275\260\3025<\240k\350<\320\345\n\275\2447v\275\2624\305=\304:\377=\016\376\000\276v\000\272=\340\341\324\273 \340\300\273N\266T\275\000\000\312:\032\010\313\275\377\217\233\275\364T\003>|\3233=\222\227\367\275\324\251\256\274\250I?=#c\251\275\002\r\023\275\324\334\000\276L\302\266=\330\354\362<\314\247\353\275\224\300\366\275\260\3444<P\352\000=\030\210\310=\010\345\323< \340\t>\226v\217=`\335z\275\204\253\003\275XR\026\275\253\234\357\275;&\257\275\020p\200\275\250\340\246<*$X\2758X\353=\313\324\022\276\214VM\275x\306\200\274\262[\264\275\354\301i=\356+E\275\207l\317\275$GG=\202\272\006\2764U\003=~\236\325=\257h\000\276\3241x\275\346w\005>\356:\204\275\262\346\215=(2\376\275\367\363\341\275\373s\010\276\254\211\333\275^S\253=\300a\332=\370\267\002>\326M\235\275\034\014\201=\310=\t=\240\270\265;\364\3109=\272N\357\275\\BN=H\353\245=\034\376\351\274\020\r\270<\240\337;=d\212\243=\240\000\333\275\250\003\007>\252|\211=\220\016\357<\234\316\274\274\300^\213;\230\305\010> \255\364\2753\340\241\275\020\\\362=C\036\023\276\262v\254\2750\"\321<tn%=\356\252\341\275N\241\236=0\2149<0x\r\274\320v\364\274\007\205\204\275|\234\n=\300BB\275hU\024\275\220N\363\274`{G\274X\370\006>\240\365\224=\320\014\322\274\315b\345\275\310\232\254\274\300\246\302\273\266:\014\276\224\204\320\2746\227\253=\024\362U=\232\357\317\275\224\367\322\275`#\001\274\244\210\331=d\350V\275\362$v\275@\335\305<\345L\256\275\020\366\370\274\370\250\272<\370:\334<\024$\377=L-q=\262y\260\275\257(\013\276\350\306w=\230\237\250=\032\254\021>\234\304\362=\300v7\274\200\'\025<\304.L=\347\254\204\275\260\244\224\275\030\025\323\274\014H8=\nO\006>\244\273\341=\230t\357=\210\211\340=\370\211\314\275\034J\013>\322c\r\276\3627\303=\260\364f<\330.q=ZC\315=\\\351\227=X\020\204\274\260!<=\020\362r\274>^\n\275\332\374\014>^\023\360\275$\017\235=\250/!=\t\275\006\276\006\267\233\275\330\036j=@\225\241\275B\034 \275J;L\275\300\2553=\340dW<\346\255\211=&\362\031\275\004\302\330\275P\261\222=@\351\372=\347\247\346\275xw\016=F\211\324=5~\014\276\200O \275\020m\262<4\375\376=$#\247\275~\244\203\275\232S\330\275\240g\310\274\230I\275<\214FN=\366?\260=\272\322\330\275Q9\004\276_\247\004\276\3360\237=@\021N=p\330?=n@\310=\210+\324\274\010P\255=2\372\316=\370\346\203<\376T0\275\220\2508\274WD\221\275\036\254t\275:\323\275=h&\003>\374\374e=>\362$\275\351\317\r\276\220\021W\274\3266\004>\274\177/\275\240\235\017=\274&\002=\270\375\321<\340\013\254<\300s\244\273\026\275\322=\260K\313=|\346y=\320t5=\207\371\005\276x\201\001=>\270[\275L?\021> \016\262\275\020\332\301\2740\366\022>\360e&<\006\r\010\276\375\336\351\275X\\\240<\264xF=`\"\002\276\20215\275\276\016d\275\266#\020>\200\2238<\204!\220\275`\023\263=\\{\201= \374\312;U]\261\275\330\010\316\274\260\221\364=\246V\017\276\272\325\232=m[\236\275B\303\275=X\006\220\275\340\255\"\274N\326e\275<\225\320=\034\227\003>N\214\271=x\363\007\275\206\203|\275hD\315<\260=\201\275\266\270t\275\340\r\255<\270R\217=\020;J=\010\257\321=\300\242\371\274<X\r>Tb1=\307\266\277\275\240\020\014\274l\r1=\226E\223=Hm\310\275D1(=\330_\324<\n\341\007>\347}\350\275\3655\364\275B`\315=\014\200\262=/\267\375\2757\305\365\275\302\261 \275@D\364=$\274\256=p\273\277\274\000\370\324\270V)\021>*82\275\346\315\346\275^\224\274\275\201\220\205\275\344\220\301\274\210\367:=\004t\373=\214E\306=\016\362~\275\2321\264={\270\373\275\034\357\252\274 Z\362\274\250\214+=\232\323\005\275\254\024\311=\3707\225=\2219\001\276\340|\344=\"\267\002\276\240*R\275\240\332\375=\304@\302=\254\003\244=\362\345\217=x\276\252=H^\016>:>\226\275\204\032Q=\346\236\310\275\362\343\311\275P_\031<\240 .\274\000V\256\273\230R\336\275P\215\036\275\230\255\007>h\277\255\275\360\301\237=\304\346\335=\322z\360\275L\342\021\275l~\355=\000\021h:\370\364\250=\026\257\324\275\320\'\275\275\276\034O\275\244\262\t>X}B=\340~\345\274\000\372\205\272|\301\342=\036l\t\275\306\\a\275\031\215\242\275\311\n\366\275\000\316\002\274\300\276\201\274#\374\022\276\213\222\351\275\014\341\n>\356\3004\275\364\224\336\275\327]\317\275@L\343\274\020\0172\275f\266\326\275\004\017\321\275\343\016\346\275\310\023\245=H}n=\314t\246=\031\321\207\275`\224\350\273\220a\331<\376\325\246\275\276\r\220\275 \025\330;\246_\327\275\200s:=\030Y\217\274j3\300\275p\220\200\274La\300=W\354\206\275f\321\001\276\264\216\006\275xE\034=\252\360\025\275\020\370\n\274\200S\201=\350\2177=\320\014-=\272\025\002\276\345\272\335\275\340\374<=.\006Z\275\366\356^\275BA\374\275\360\373\361<\260\223\021\276\322\271U\275\221\346\204\275\362\340\335\275\\\357\017\275\200\177\325\273\244\350\205\2750s\267\275\3741\270=\204\243\366=\360\tE\275\254\233\234\275\350\200\255\275\000\360\212\272\370\230\005=vs\356\275@\236\213;H\037D\275T\226\333=\366\033\002> C\266;\257\301\374\275\366VJ\275`\362\322<\324\206\261\275hv\311=\2009\226:z\200f\2750\326\002>\302)\243\275 g\016>V\024\264\275V\320\022>\030\363\265<^\274\022\276pe\004\276\310Z\013\2766\352\315=4#\375=6\247\304\27522\034\275\034\365\'=\263\037\n\276\224m\242\275zX\007\276\002\037\245\275\342.\326\275\262\005\'\275\266H\267=J\224\377\275\004\036\215\275\004:\361=\301\260\365\275\360\327\365\274:j\302=\367\367\r\276\332O]\275\234E\030=qj\r\276\330\247j=\340a{\275\370^\345<\322v\001>\360\243\320\275\200\360\342\275\'v\301\275\000Q\204\274\200\325\022\276 \356\250;HJ\252\274\320\025w=vQ\020>\302\375\005\276H\017\261=\344\227\006>x\037/=|\207\243=h\255\025=4\225\007>\0004\022=\264\337\330=\2609\014>\210\364\256<\201\261\267\275\324\272\317\275\376_\036\275\010\331\342\275\350L\315<:\363\017>Va\230=T\010\020=\206\301\203\275\002;\332\275PP\037<W\035\017\276r\357\212\275\016p\016>\300d\201<\360N\311=\316R\301=\210\215\340=\330\217\r=\254\273\334=\360\362C\274\271\016\226\275@\353%<\000g ;4\2620=\320j=<`\362\n\274\216i\270=z\305\206\275\250\304\342=F\352u\275\214l\007\275j\216O\275\250\005\213\275@\330\370\275\324O\303\274\266_\372\275\035\335\010\276\225\273\225\275^8\001\276V\024\207=\352\233\335\275\260e\020<  \344;(\325P=4\016\234=\306\023\337\275\270\365M=dS\240\274D\316\030=\372@\327=d\227\023\275B\353\242=Q\020\273\275\322\035\224\275\342~\013\276\201\273\215\275\022\320\326=e\023\231\275\030\331\221\274\332j\006>h-\303\274\304I\355\274,\202\255\275,W\332=\000\t\305\275X\320\014\275\224\333\237\275$\001\377=\030>\004=\270\024X=\354\327\330\275((\335\275\210\204\327\274\340\304r<f\313\013\276\324\016\256\2752\370\240\275\364\364\332\2754\317\271=\004c\"=&\314\350\275P\t\272=A\240\020\276\202\017\'\275\350z\001\2764\000\341=,6{=\250M\324<\230\025\344=\272\031\224=X\231\000>\034\373\032\275\016\324\326=T\243\221=\344qm=\3533\332\275\344\271\023>\344\215\326=f\223\327\275\256\342\313\275\354[C=\324\305\251=\212h\260=63\"\275(\026\340<\340\001\213;FO\222=\304\247\211\275\214\330i\275\010w\276\275\220[\332<l\241\220=MR\014\276\372\335\005>\340\177\253=\000\224\365=\346\340f\275\320 \332\274\250\306s=p\221\215<hZ\305\274\370 \354=\220\237\212\274\360?\005>)u\021\276w\311\004\276\300\315J\273\314\004\261=\310\rB=\300\265\003\273(,\365=\246u\005>\316\302\205\275\014\345\177=O\336\003\276\200\036\332=I\203\212\275\005#\013\276\346)\321=\324*\335=\020B%\274\032\\\252\275\236\203h\275\332M\305=\034\266\335=\374\314\205=Pu\374\274px\325=\226I\017>`\0240=\360\324.\274\244s\351=\360\221\335\275\010\262\361=m0\263\275\004`\005\276\223\006\354\275H\363g\275\316A\205\275\226$\305\275t\305\253=\000\270\263\271 \213\201=6\307\242\275p\003\245=~\016\205=\3408\255;\274W\376=\344X`\275\270\245\177\275\260\350}\2748L^=\316$\311\275\000\234\341:\224]\213=\2569\310\275\246\301j\275\000x\351\270x\207\205=<\n@=\004\034\226=\202*\200=\214&\016>p\223\010>\350\353\233=0\"\300<:\016\240=\360\031\221=\331\352\003\276\362q\355\275\\\276I\275 \207\224\273\200V\317\275>\351\363\275\030\275\303<$\2401=\210\207/=\304\237\240=\340\277\257\275`\nO=\"\375g\275\014\000\000>\314\312\203=~\322\217=RJ\234=\310E)\275\246u\223=\372G\241\275~\232\374\275\370\260?=D\t\002\276\336V\306=\356\305\322=\326\013z\275\200M\205\273\360K\256\274\030~\371=\000\026\377<\000\272\377;`\234\333;\321\336\370\275`\005Y<8\251\243<\375e\305\275\226-\000\276\030|\010>\252%\253=\340\207\347;\316\306}\275\2745\231=\032\275\r>\300\253\244=\300\260Z\275\2766\017>X\205\311\274iz\250\275\224G\371=\370\336\314=\024\364\266=\214=\000>(+\227=|\003\266=2z\246=H \202=`\350\362<\260W\"\274PI\311<\n\016\014\276\014\035\017>\267k\265\275\036\262\317\275 9\211;@y\231\274~\005\237=~\300\310\275@\373\021;\330\\\276<.\373\005\276\227@\n\276\214j\371=\263\330\022\276\230c\203=\262)\260=5\214\014\276\304\333\345=\004\031\301\274\333j\212\275\340>\027\2758\3061=D\214L=\214\222X=\236b\252=\0203\024=\334\247\010=l\035y=u\343\230\275\330?\244=@\315\255;\352\253\021>\200\304\354\272\300\204\367=f\023:\275\\\3459=\n\264\253\275\\\231\r\276\236\2300\275\002:\002>\256\032\017>\246\036\\\275\264\202o=\360Z\020>\324\256\375=\004\271\275\274\224|\002=n\262\222=\356\376\275=.\307\246=\372\214\300\275\372\232\327=\300\366\271=\264^\002\275\376+\272\275\370\266\020\276\375$\263\275@3^\275\234\361I=8\237f=\020\364\010><\n\000=\336\363\271=d\356l=c\022\203\275\300\216,;\376UT\275P\220\373\274\374\322\344=P\324 <\271\263\236\275\320\303\230=\000>\t\275J\276\312\275^\334\231\275(\234\217\274\300\255\306\274\274\254\003=@\330\371\273F\220\210=\357_\022\276:\\\306=\236\311\252\275X9\032=\225\013\375\275\000/\311:`e\004\274h\313\227=\021\033\016\276\274\004\207=T\023\205\275T.<=\334\026n=H^\'\275\217\027\304\275\272\302\007\276\320\013\367<\034z\226\275\210\342\212\274\350J\216<tS\004=VL\375\275N\212\366\275\336=O\275[\202\014\276\234\363\230=\000_^\274\316\352\206=\2200t=p\026\341=\253\327\212\275P\'\321\274\276x\313=\270\243\326<\020\376\014\274\240\337\360;^+\016\275|\300\001>\242\316\246=4e{=\356)\225=H\270\306= I\323\274H\313\316<\324l\312=p\270\343<7|\004\276\340\321\346=\200\236\324;`\013\227\274\316p\032\275\306u\277=\234pD=\264\317\236\274\000\240\032<(\nf\275\000\\89\000\217\255\2742\243\321=l\027\"=\350\003E=\360\221P<\250\202\366=\261\034\350\275\322\316l\2750&D\274\n\361\250=\030c\213=`\222\323\274c\325\231\275\030b\236<\336\215\262\275Xg|=\000HC:n\205\212\275T\341\023\275@\375\366=L\030^=\314\212\346=\252\206\222\275@Y\331\273ZH\001>\025k\020\276\030$\331=\2218\350\275\000\030L\271\020L\237<\334C\035\275z38\2751\220\010\276\226\351s\2750\272\305<\320)\302<Z\024\010>\200\220\337;Io\013\276\232\354\371\275\351@\250\275\000P\3059\014\242U=\246\030\203\275\266P\276\275\272\000\353\275\347\'\332\275\344\247\177=`:\315< Y\341;\250\265\240\275\276;\234=\016\270\244=VN\256\275<b\345=O\325\003\276\200\200\030\275\224\233K\275\360\200\206<JN\206\275@n:<\366C\301=K\373\234\275\336\320\332\275J\235\231=rP\305\275\370\217a=\022\356\007>\220\311\007\276l!\240=\200\000\027<Tp\256\275\362\360\216=\232\007O\275\010N\370=\n\242\227=\220,\025<\314%C\275\256$\023>\314\230\223=\000\001\233\273,:\002>\234.\354=\364\361i\275@\366\340\274`97=\001)\252\2750E$=`(i< \326\347\275\3004\366\274\002\374\245=\266\344\246=p\366F\274\010\002\350=,\177$==\234\300\275V \001>,\3040=\231\242\231\275\024:\305\274\204g\274=r\345\017>\370\r\202\275@\2519\273\246\237\245\275\244\264\230=PG\370=\030\327\217\275\032\341\243\275\000gM=V\230\325\275\362P\300\275\\\223\335=8\321;=\020\323\332=D&\010>`n\252=\230\023\375\275hc\r>\035\311\255\275\374od=\232\226\202=\200\322\334\272`J\320\273d\362\373=T\252$=.D\010>\364\225\000=\245\032\023\276H\000\352=\264\035\274=5 \231\275\210\2142=\300\300\232\274\250\233\271\275 ?\255;h\304]=\257r\242\275l\'\202=\310\254\350=\234\307\000\276\354\355.\275\010\027\226<\366\203\260=\353\333\377\2758\205U=\200\201*\273\302=\257\275\014\331J\275\254k\331=\232\030\005>\014\224\t>\270\220\341=\024\350\350=\210j\212\275d*\364=\304\271\002\276\364\237#=\334\200\360=3\"\357\2750\374\037=\\_\010\275,s\304\274\246\252\242\275\300\247\235\274\272\273\343\275\260\t$<\330\326\361=\340\256\\=\000\305R\272\340\256\020>\246\'\007>\254\214`=\274\331a=\265\022\023\276|\331;\275`Z\334\274\000\373C<\232\016\276=\004i\007=\010\036\032=A\000\315\275\236\311\216=\214\247\001=\020t\361<\370,\300<\016\217\254\275\200\027\020;~\325\257\275t\217,=\370m\274<\240C\335\274\302g\031\275\246\021\353\275\204\374\221=PN\000<\322\030\000\276\210@\252\274\354\020\345\275\354\365\241=O\317\206\2758\343\374<\260\267\303<\376\244\254\275\252U\200\275\242V\251=\030\310\306<\034:\021\275:\333\365\275\006\230x\275\374\tO=\250\300\000\276i\033\023\276T\266\006>4\363\354=D\222j=\'\262\320\275\260|*\275\304)s=\200\017\005>\246<\220=\022\007\306\275PI\270\275\276\274\317=\000\211B\273\222l\t>\224O\017\275\224\035\'=\"\300M\275\314r\010><\346\225\275Z{\226\275\311[\237\275\2640\016=\020u@\274D\004\367=\365d\020\276V\343\262=\272h=\275\242\013\254=Pm\333=@\3708\275\030V\371\275\014\261\375\275\261\231\357\275\3008\363=\244>~\275@\264\357;\240\024\350\275\270\033\347=\362p\314\275\246\356\021>0M =\200\337J\273X\225\353<\2366\001>\270eB=x\351\371=~D3\275\320\010\207=\204\016\211=\340\231N<\277m\334\275\350\244g=\254\334y=P\013\340=\\\006\330\275\'\"\230\275HM\273\275\317\302\242\275T\247\332=\232\342\244\275&\334\030\275^N\365\275\">\307=H\342-=x\236\243\274n~\273=(\306\225\275L\252\221\275\362\354\374\275q\032\216\275\022#\222=t\367\233=\231\341\341\275\326\314j\2750\352\342\275T\311\371\275\326\356%\275\330\343\241\275\254u\232=\346\245\230\275\360\\8\275\200\025J\273\310\007\n=rA\271=8\020\373<\022\006\246=\340\214\203\275\224\271\221\275\214\r\357=\000\310\3118@nC;/\375\010\276`\r\332\273<z\315\274t@P=\206nF\275\306\010L\275\250\366\234=85\024=\007\226\206\275<\366\356=\330\301\314=\344v!=`\260&\274^\237\t>8\211S\2750\033E=p\330\021>\2745m=\202x\320=*\007}\275\250\267Q\275\200\374\253\272\2005\225: \250:\274\230\260Y=\220n\377\275\244/u=\010`\326<\000~\324<\212 \206=\024\033\277\274@4\327;\230i\370=\\:A\275\266W\004\275\177\261\225\275\300I\332;@\355\323\274\270\256\341\275`SG\274\260\373@\274\312I\223=\346R\305= \360\224\274\212N\031\275\342\242\256\275v\233\"\275\342\031\217\275\363m\230\275\274\226\016\276@V8\273p\364\360=\334$u=\200\022\270=\024px\275\300\022M\275\360^\"<8\035h=\260\371\346\274\374\220\254=V\377e\275,\rP\275 ;\005\274<7\240=\207\334\341\275\340\252\020<\020O\021>\000\351O\272\212\323\003>\340\014<\275\"$\300=\310\024\310<\271\212\221\275\304\201i=b\204\270=\030 \021\276\000\230\265\271\304\017\026=~P\004>^!S\275\020\310\025=k\313\214\275\322\371\036\275\320\210\337\275\\^3=\n\255^\275<\315O\275\212\022\360\2754\223u=\320,@\275\240\240\340;|\3546\275,\206i=8<\234<\200O\t\276\242,\021>\2245\244=`\320\207\273\260Q\243\274\004\014\227\275\364\263\374=\270\237==\240\270U\274\350\022\310=\230\353\005=`q\236\274\000\202\035\274@\351\276\273xa\343<\360;!\274\362\007\005\275\030\003\365=<\242c=\200Q\355=@\237}\274\342\326\266=\330)\232=\376\001\r\275d\020\361=\330\376\303=\310.\310=\376\327\276=#9\372\275\000Y\340\275$\254\332=\300\340\241<\360\374n=hy\262=\260\244\016<\340\361@<\323\025\217\275j\n\315\275\030\302\016\275\254\300\226\275\034\321\004>\330\350\210<H\242\223\274\364\255\333\274@\037\343\273\301\002\000\276/1\312\275\216\263a\275\2461\224\275\230\201\"=\005&\204\275\262\263\254=\344D\021>\024:\312=@o\016\273\250\312\336=\345\177\251\275\026\016b\275\224\266\302\275\340\305\325=\337\365\363\275CY\323\2750a\271\274\035\345\305\275d\201\325=\260\032\335<f\001\277\275\330\301\261\275\324%\330\274\300bO\275\320\200l\275\350\021\216\274\312\271\212=k4\207\275PR\370\274>n\017>\216\241\200=lP\016\275\2069\273=\000\330\312\273\226\\F\275\204\324\r=\3601\362<\036\354\021\275\260D\270\274@\360%;T\027\252\274h\323\317=\274\017R\275J=\231=\262\203\204\275\034d\021\276\340W\010>*7\t>\264M\345=V}\305\27586\004\276tK\347=L\022\375\275\316G\250=A\336\245\275\246\373\002>\360,?\275\034L\347\274\271k\331\275[\303\333\275(bX=\234HP=\026\014H\275|\266\276=ZG\306\275\363\005\370\275\250\251\376=\000\036W<cw\017\276\020\323\271\2756\371C\275\032F\207\275\200]\013>(\310\214\274\006\3141\275\266\300\266\275\006\274\327=@|\021=\210\346\211\275\014\3437=\300\262n\273=\215\270\275\200\344}=n\322Q\275*s\r>\324\020\251\275\250:\202<\304u\031=\214\375G=l\225\216= \377q\274\210A\267=\240\323\210<\200\231O<\260b\230<8P5=\264\345\177=\344\272\007\275I\262\361\275h\274\325=\010\030c\275\210\177\250=\374%\351\275\034\315\021>s+\266\275\260\242\025=\262\310F\275P\305\023<p\312L<\346D\277=\300\332\"<\256f\234\275\2744j=\236\215\351\275\240\232\351=\2547\354\274h\210\243\275\356\r\036\275\302\361\305=\320Z\024\274\330\034\254\274l\250\310=\237\004\316\275\000\027\335:T\364\261\274\260\314;\274\314\341\200=H\240!=\244\021\361=\230\202\343=PF\221<\252\243\351\275\262x\330\275,\330\356\275F\375\311\275\374\004e\275b\201\233=\032\2540\275X\243\241\2744\3051=h\357\221\274\036\260\275\275\206\277\322=\350\321P=p\267*=zo\304\2754\303\352\275\3654\352\275\305>\227\275\000Q\371=\220\246_=\244h@\275(I\367<}6\261\275X\354\003>`\254\240<\014\255:=\300\272\355=>M\203\275\220\250\364=\256|\354\275\220W\332=x\253@\275\250R\256\274\254\242\341\274\3745c\275\344\177\300=t[Z=@y\350<p\215z\274 %\230<\322\261\023\276\250\366\233<\030\247\006=\272@\302\275\240\235\226\274\321/\240\275\020\231p=?\346\244\275xd\204<\214\3303=\022\017\325=\224-T=\004\267\366\275\203~\200\275\310Dz=\360\372\357=X\344\314<\214\264\376=\200\234\311;DI\017\275\010\017\214<x7\207\275\376\026\010>\234\301\373\274\324\003\347=\3261\001\275\"\317\324=\000\021$:D\244\303=F\375\257=\004N\232=\"\004\313=4\035\366=0\231\254<HW\300\275\334\\\253= \261\017<\254BQ\275\004\304\322\275\310\t\002\276\240^\205<\320\336\350<\316\000\221=\210\251\"\275\022\200\020>\220\330\270=\0348\334=\334\"\310=Lf>=J\231\322=\320\264\255<\007\371\362\275<\353\264\275(\220t=@*\251=\247q\235\275\360\252Y\274\000\010\353=\220!\271=\217l\343\275\004\305\017\276\275\237\217\275\244i\374=\010\351\331<\274V\377= DU\274\236\352\370\275\022[\002>\332D\320\275n\261\237=\314\213\325\275\304\027\323\274\261\376\014\276\316I\017\275\206\201\225=\270\235\006=x\334\024=\314H\337\275@\306J;\000S\356\272\374\340\337\275P\214\200= \010\007=\314z\263\275b\n:\275ex\230\275z\270\365\275x\246\364=\306\314r\275\306\332\276\275}3\021\276\000\311\006:\000\207\034\273P@\274\275\356r\313\275\250\034\376=F\204\007>HC\266<\304\241\307=\030h\206=\370\352\377<\270(\022>0\343!<(\364\215<\242\340\330\275\016\026\213=\362\251\266=\210\027\"=gB\241\275 \250\371;\204\321\304=\375\300\327\275hh\304\275\374\335\n>R6\007>PF\371=\256\236\310=\254\376\206\275\350\\\350\274LB\003=Bq\277=\225\222\244\275`\302\237\275~\017\212=\250\021\301\274n\356\316=Xn\273<\200\252\366=T*\264=\340L\221<hO\313<\240!|=\270r\215=f\2064\275\260SH\274~\020\264=\370\350\001>\256}\006\276\214\273\305\274\010\336\270\275n\t\006>\204\013s=\200A\262;$\213\253=\334\254A=\260\313<=v\016\331\275N_\357\275\010\3558=\366\270\332\275\262\317\301=\374\021u=\020\321D=\361$\014\276\242>\276\275\374BZ\275L\210\270=Pa\363\275\0363\314=0:2\275\001\204\211\275\274\223 =\240\317\247\274L\360\005=Zv\213=@\336E\274`\213\002=\010\364\222=\212\322\316=\254\226\352=\254\206\333=H\337\331\274H\313\377<00\230\274\310\033F=xP\t>H\310\"=N8\301=\007\327\261\275\260{\227<\014m\314\275\272@%\275\024\272\300\275\006\265\236=\3223i\275\200 \354\272\n\364\r\276,\253\016>\022\205)\275,A\345\274\234\375\337=\326\230\375\275\026/\257=\200\033\262:\265\240\005\276x<\245=\014\303\214\275\260\303\322=\216_m\275j\013\002>\360\302O<H\375\020\276@a\305<\232\342\333\275(\326\016=\241\265\223\275\366\254\000>\260o\357\2740!\177<\2009\312\275\330f\320\275\336x\231=\214\323\031\275H\200\201=\200\376\213<PQ\363<b\315!\275\360\032J<\017\341\014\276\250p\307=sA\247\275\3541\261= \006@=\000^\230=,\335\301\274\0203\263=`\274C<\200\366\242\275n\323\245\275d\375\317=ew\t\276\200\202\353:\227\212\325\275\254\266\255\275L%\023=Nx\006>H\214\021>)9\233\275\356\000B\275P\370\032<\373\334\373\275\254\001\335\275s\262\215\275\020`\274=\230\221\366=\335p\243\275\356\n-\275\204zm=\300\272\377=J\236\212=`\013\002>\232\325\003>~\263\t>\r\357\244\275|\013\360=\326\337\205=\304T\"\275\374n\332=\240\270\233\273\352)\266=vO\021\276L\263\224=\3765w\2750\023z<\254U\003=\322\204_\275\316\304\307\275P\322\204\274\256n\"\275\310K\351\274\337N\327\275\300E\373=\000J\350\272\344\320\310=0\364_\274\020\246A<\260\200\241<\241\236\201\275b\304\004>\023\265\016\276\260\027U\274*\275&\275r\307\n\276;\023\223\275l\232\263\275h6\324=\000\205\342<\260y\033<\334O\315\275\2125\357\275\014j\261\274\000HX:\350\237\362=\360\264\003>\274\357\365=0\332\030<\330?\230\274\260\246\226=\304jD=\200\332\327;\242\307\336\275XL\363=<~m=x\264\350=\r\310\343\275\322\004\000\276x\367\345<\352%\242\275\023\203\226\275\3147\022>\222 \354\275\000\n\373\271\020C\340<L\004\267=\014\203>\275\3005d=\316(\022\275(\330X=\343c\210\275\024\265\344=\340\304\320\274\260\357G=l\213\355=v\007\250=0u\020\274\220O[<\340\316F=\n _\275\230\030\300<\270\343\354=^$\366\275\000\t\311;\032\241\235\275\226\212}\275\014\023\026=.\371\014\276\253=\225\275\005~\217\275\240K#\275\255\245\016\276\0225\331\275\2268\034\2752\306\020>r\207\322=07A\275\230)\010=\244GC=,\243L=\234\315\225=F\310\242=\244G\372=\244\037\301=\330\002!=hz?\275VVS\275\240d\035\275\335\034\003\276\240\236\305=d$\362=\210\030\014=iN\014\276\313Z\351\2750\213\367<r\344\370\275\340\\\301\275x\037\216<_+\223\275\215O\265\275\344P\270\274\017A\256\275\200\002s=\024\036\361=\344\021\362\274\000\260<\274P\026\235<O\243\n\276B\232\252=:\307\241=X\'\251\275\3402\251\273@\375O\274\362T\013>\240\277\262;\307\346\n\276\014\361\352\275\320\334\362=\244_\343\275\332v\035\275\310H\014=\376\376\313=\030\254\266=\354\304\210=\000\002\021\273\260F\375\275`\322\006>\362\223\374\275\204\221\267=\210\304\\=\350\252u=\272\212\177\275l\310\337= H\245\275\255\251\242\275\250\200\255\275)5\n\276\000\300\207<\344}\250\275\016\017\330= \002\343\274^N\013\276\251\372\262\275\024T\351\275X\3034\275v\301\247\275\324\375\246\275nX\234\2756\200\260=t\002)=h\014\355<\332\310\204\275\364a\r>\270\232\t\276\304R\021>\241\026\004\276\354\307\344\274Z\334\264\275\022V\214\2756\316!\275\024\002\264=\020jH\274\320{\317=(\270\207\274\366\033\023>\200\031\375:8^\005>\334{\356=T\312\265\275J\200\272\275\020N9=\000\022\333\275 \303@\274\007c\220\275\220\360\275=\300h\374;\020\306\302<\264\365\316\274\301\205\211\275\330\001V=\3427>\275\232j\t>8l\347\275\330\346\300=\264\227\273\2754\302\002>6<\016>\251\231\253\275\227p\010\2768\225\212\275\005;\020\276Q\326\003\276\336\316\017\276\364&\226=\252\315\234\275"
      }
    }
  }
}
node {
  name: "unknown_9"
  op: "Const"
  attr {
    key: "dtype"
    value {
      type: DT_FLOAT
    }
  }
  attr {
    key: "value"
    value {
      tensor {
        dtype: DT_FLOAT
        tensor_shape {
          dim {
            size: 960
          }
          dim {
            size: 16
          }
        }
        tensor_content: "\300lk;>\234\222\275\200c\361:b\001\357\274\340c\222<\260\005f=n\216[\275,\231:\275{\364j\2752u\302\274\332\246\t=\016C\201=\200\256\266:\316\373\220=H\340#\2746\236\264\274\220s,=\264]M=`(K<\204Tt=\214\305P=\204FJ=42[\275`\033U\273~n5=(\202\207=\000\325\367\272\014}\230=\272\212\003=\350\364:\275d\233~=\234Q_\275x\267\335\274D\353\\=\340f\233\273\246p\367\2740+\036=\246\273\211\274\033\327\005\275\376\245\317\274\240\202T;0g\002=\306\225\n=\312\360\375\274p\305R=\260sm\275\201V\216\275B\025T\275\272\231\213\274\"\031\030=\274|.=\220{\347<p\007h=\036\275\032=|\371\207<\0264`\275\000.m= \361|=\334\353\301<\220\225\226\275\310\033\021\274`\317M<`\211\200\274\244\023A\275\227S#\275\303{\223\275\\\241\024=8\272n<t\311\311<\223\314\234\275\216\313\035=\212`\217\275\320\334+<\230\007\365<\036pn\275\030<h\275t\006\213\275\252)\222\275\314\027\231=\374\263\235=\232p\331\274 \3350\275\202$\001\275\341E\207\275\252\024\203\275Bf,=\210\310N<\360\361\367<>\331x\275\210d\237=va\273\274\330\235d\275\350\242I<t\333\351\274\342\271:=l\352\207=\220f\257<\256<=\275D\335;=\354\365\347\274\260NM<\210\203\031\275\274\022\220\2756Z\257\274H\371#=V\230d\275\014h\232\275\352\244\010\275\200\321\266\273,\001\222<\345\236\023\275\n\200\227\275\010`\033<\253\\\221\275 \302\303;\032\361\223=\360\212r\274\340\357\221\2748\204S<\376\336`\275h\313Z<U\231.\275\324\251\032=\314\256d\275V\272\202=\225\242)\275|\223u=\230\'\320<\200*p\274\200\205_=\310\354s=\340K\227=\205\371\234\275\320+\276<\033C-\275D\031U=\214\243M=\210wA=\264\314?\275\376\321\237\274`Q\'=N\2712=\222\363\305\274Dw\360<\376Q]\275*\" \275\330\317\251<\252r==\257\254\021\275\214\220\r=`du;6\332\223=\270\336P\275\204\326\013=\000<v\271n\336\337\274I\214,\275\320\365(\275|\374m\2758\263u<\330\030q=\0108b\274\341\324\233\275\030\246*\274\370\353$\274\256\364\026=\240r\225;P\020\\=\014\231\245<\264R\211=\346,\230=\024D\311<\334E\214=p\261\273<\3065\212=\334\006\363<\342\203\202=\360e\240\275d\346\204=``{;\343\304\222\275\260\236\032\274\306t\212=\210\364\t<\242\360\334\274\364Z\t\275\350\017G=\266\341\220=\274\223\205\275i\373%\275\340\320\375\274UG\227\275p\020\034\275\222L\345\274\212\317F\275\330\353\204=\310\303P=\002N\223=\333\037\216\275pY\016<\000\262J:\266\261\374\274H*\020\274p\002\366;\203\334\216\275\351\003\225\275\300U\005\273b\350\016=R\231\215\275\264\261\310<\200\030\341\273\250\301\205=\210p\265\274\312cg\275K\225\230\275g\255\023\275\035]\215\275\352\371\005=x\324\364<\320\241y\274O?\033\275\236\032W\275\000\001e\2742&-\275N\t\221\275F?\037=\344\361\010\2754!\231<\220\314p=<]P=Ja\222\274 H|=\n4 \275<LA=\020\313\344;\260\007\230<\206\2151=$5%\275@_\326<\332F\372\274\340n\210=\314\272\203\275`\3056\273\345\274\200\275$\374\010=\240N_=Xw\331\274L)\265<t|\251\274\360\345t\275\020\256\010\274\220\"J=\342Sj\275\0146I=\222\207\272\274\350\363v=\232\003\213\275\032\365\203= \023s\274\244G!=q\302\216\2758\224><H\306[<w\374,\275\210\270d<n\363\005\275\000\313\327\271<6\215=\250\206==\376\001\231\275D\221G=\024\226\215\275:\333:\275\214$\007\275H\235\006<\370\332r=l\370\237=\202\273\215=X\361\032<\244\367c=\220O5=\230\016\320<\270W+=`\370\342\273\364\360\221=\240\242\235\273\341(u\275\264\331\257<\320\234y=:)\252\274\202\225\233\275\020\353\307\273\252\215\214=\366\240-=\306\301i\275\\~\373<0\357\341;\r\233l\275\310\022K=\030:\337<\314+\333<\334Db\275,\241\243\274\0165\226\274tS\324<\000\337\326\273>\373(\275\207\265]\275\353w\005\275\260KQ\274\330+\233=P\362@\274\310\354\010<J*3\275\356\"\211=\3027\214\275\200g\210\275\000\224j\275\352\025s\275<\225\212=V\307\222\275\014^\025=\026\016\232=\240\001\n\274\274\352\323<d\221\355<\000\247\355\273\204\376\002\275\206\266\204=\007\341V\275\214v\222=\270\232V\274Y\321\t\275`\247z\274pp:=\020\276\243<\320y\307\273`\312\217=\354;J=;$\236\275}\013w\2756\232\234=\300\213\023;\346N\223\274a$\230\275\360tQ<q\\\227\275b4\373\274\300U3;|\367\013\275\004\026w=\010\362\216=\000I@\273Z\016\231=\024\321\226<^n\304\274r\264\207=O\264\234\275\260\212\210\274c\346\222\275\342\035\360\274\312\272\030\275fkq\275h\351_\274\222@5\275\000\376\213=\000b\2639\200\377\366\273\254O\332<H\307\207=\010\301b=\034\211\226\275\214\025\231\275\014\030\201<P.\310;%\240\207\275^=\205=\200\022M:\201\355\232\275\354\262\212\275\220\311\364; \021\246\274(\014/\274\224\357X=\214X\235<\004,\001=\242\331 \275\030\037i=\016\326k\2754<\251\2740\252\345;(\301\016=\344\375x=\221\t\204\275\376\001\377\274\320\357-=\010\025\331<\300\2053\274D\204\203=p $\2748\223\266<\000\370\333\271\206\020\234=L\020k=T\243>=B\275/\275\230\363\036\275\005\344\034\275\310\355\223=\200\262\010\272\020`t\275\31349\275pmT=&\275\211\275\300w\276<\360!\016=\036\031O\275\352\201\221\274\200\2614=x\200\230<\311\240\021\275p7\234;\210\"g\274\336G\332\274\240I\216\275\370\317c\275\2008Z;0g+<t\207K=\026\307=\275\000\350\022\273\366W\030\275\014\317V=\2303E<4\330\025\275RB\276\274P?x\275(X\017<\024\336\001\275nb\203=,u\206\274L\027\202<\273,\\\275X\360\351\274dF\254<<\223)\275\271\253\226\275n\321\022=\222\370\231=\374\261 =\211\230\215\275\351,\226\275\322\374x\275\017\021\233\275f\014#=\3146\224=H\014}<\300\001\325<45\211=\020\253;\275\303e\237\275`~$=\350\224r\274\352{-=5\360\027\2758\005\203=\354\316\316<\276\342\364\274\003\365\206\275\310\332#=\266\226\013\275t\327\000=\001\036B\275Sz\007\275\304#\223=0o\024<\304\234\246<\234\354\211\274\260\246\004\274\302\243\223=g\236\016\275,\362&=t\333\234\274\237\"\210\275\016\275\226\274\2709\213<\362\204\205\275\340o\014=\302\345\205\275\354Zy=\200d\006\272\300\200\252;\230%$<\313\237g\275{9\207\275F\344\220\274|\207\222\275\220\3255\275\331\246\222\275\3406\336\273\224s\347<L\236\364\274\"\'D\275\244\351\263\274\300Z\220;\216\201\027=t\373:\275\026\t\201=\312\234\343\274\260\016\325\274\232\364H\275\366\221e\275h\000X\275XsS=4\326\320<d\300+=\260.\260\274\030; <\256\010\226\275N7Y\275 \237\235\273H\004\227<\004u\363\274\330T\213=8\3130<(\032\235\275H\001U<\010\270\211=d\\.=4xJ=h\346 <f.:=\210\270f\275_\261&\275B0\217\274\210\264n=\246#\200=7\014\224\275\020\036\261<\000\310\224:\320r\r= \312\024;\310c\014\274\320Yg\275\300\236y\275@\343\247\274\206\n6=4\233\260\274\264\001!=t\340\230=\330\210&\274\204\206T=\020#\331\273l\324\025\275\032\374$=\260\376\234\275D\226\336<JH\220\274\034\303c\275,\355X\275h\256\227=\220L\332;\216A\231=(\2527=\354\374\224\274\260\366\227=\260\205\034<\340v\014=F\270s\275\374\214\242\274\250\255\277\274\000V\312\274\300\020\244\272\366l\205=\261!\236\275\264\245\274<\"\252\226=8\356\211<>\246\212=\360C?=\344\025\213<.$n\275T\223E\275\000\026\227:B!\236=\251\202\020\275\262\r1=\230\363\341\274\200\213H=Z\375\342\274\020]\374\273H\001\352<\2438\202\275H\343/=@\023g\274\200sB\274\310]\\<x\036R\274\004\022K=\014G\221= \362\212\273\233-\237\275\260G\024< \000I\2734S\267<\371\347\207\275\245\367%\275\253.R\275\010\260\214<\200\313\375;\346|\232=<-\352<\350\257\r<\036\2323\275\222%\000=m\327\200\275$\222\365<`\266V\275\020\272\240\273Dc\024\275<\367\004\275}.\216\275V:\024\2750\240B\274X\247\264<P\027i=P-\256;\230kA<\020\035\343<\320\264\346\274\310w:<\304\326\225<\234*\225=\230\022\215<\276\303\024=\2140\177= \331\301\274\306\243;=\253g\200\275hUO=\375\341K\275\264\357R\275|{\200=p{(\274\212\321\026=\006\363\237\275u~\022\275x\227q=`,\374<\"b#\275\"\377b\275\000;\377\271\274\244P=\270\250\033\274\230\212\266<\244\243T=0+\333\273B\333\274\274p3\271<\020\277v\274\200\231:\273\257\242\227\275\222R\232\275\320\ni\275\3540\232\274P:;=\202M\016=H\010G=\261H\222\275 {D\273\314\010\241<\244@\376<\000\220\231<H\324\020\274\334\003\005=\000\200\344\272|\306\233\274\364r\371<|\256\324<xW\002\275P&%\274\334\020\306\274\220\316\220<\236E\000=\222{}\275@Z\231\275\352\321a\275\266C\346\274\0363\336\274 {\275\273\320\257|=\246m\207\275\254J\224<\342\363V\275\356\250\231\275\000\007+<\300t\246:\200\336\\;\240\325\337;H\310t\275\200?\365\274\356\025\211=\300\337\341:\"\226|\275\010\372\\=\236\216\207=\260\013\211;z\004\346\274\346\274 \275xt$<p\207X<v\022 =\300\245\333:\350\337f<\270\261\230<\017\021\231\275\224,\322<\'\022V\275\362\021\247\274\333k\r\275`\330\323\2730S\220\274j\030\014=\000\036d:9O=\275\312\263\202=\270\372\013=\004UP=Ll\371<\253[Y\275\210\014\236=\240\200\277;\223\0331\275TD\212\275h\202y\275\344\215\254\274\230\230d=Am\013\275\2105 \274\346\032/=n\021\016\275\n\307\206=dl\376<?B\214\275\200LM\274\241\274f\275\014\332\274<\000\330\\\274\2324\014\275\216\342L\275#\320\022\275H*-<\31015<\210J\200=\026\236\236=\220\367\214\273fIH\275x\202p<B\237\314\274\247\000\213\275\000t\3048[\212Z\275\240\244c<\\\273\213<@#a=`\376m\273\350\377u\274\320\325F\275\260\020\226=\220I\212<\262F\214=\346C\205\274\337\376\034\275\312\020\207=.7\032\275\240Od<P\347\336;>\'L\275\250\025\002<y\307\220\275\2632\014\275\363\037\204\275\026V\364\274\010}y\275\014\362V=eJO\275P\301\217<\\L\307<\220\014Z<\357\245\210\275 \220s\273\211\027=\275\206\355\217=\371AH\275\342~\314\274>\210\034\275L\230\311<\273\320S\275\340\\\216=\346\361S\275H\323\327<(\317\005<\\\373l=:o\357\274\320\362s<\\\222\331<(M]\274&\224\203\274&\023\220\275\260\353\321<\240\221|\2734\375M=\300\255r=\230\347a\274\352\322\272\274<\262^=\220\271\343<\210\211Z\275\200\367\002\273\350\302\212\275\t\312:\275x\031F\274TA\371<@kj;&\254\320\274fJ-\275\300fX;lPd=\020\231\303\273\370\373\t\274\000\311\325;\370x)=\260 \322< .g=\310\3016=\004\271\225\275\334e\035\275\3149\305<^\342\357\274\321/\230\275\266:.=\250\365c=\320\033\345;8\362\177<\320\354\252<\222\276\231\274\330\010\004=\210\025\014=\232\232?\275\200?\250\274\300\341\374\272\221\031`\275`\010\263;\270\341}=E<<\275\035\314\224\275\3468\214=\370\254p\274\377\250C\275\340\214L\274n\227\010=\212\367\211=\314\204\370\274`\315\351\274\330W\212\275iK\231\275\\J\247\274\304N\233=\324\022\203=\366\210\202=B\236\220=N\2041=\004p\216=p\257\272\274p\035Y=\332\255\216\275\270.\010=V\031\224=\204\'\202=\321\370\006\275PY\333;`p\205;\252U\212=\020\203a\274L\241\005=\210.\321\274`\343Y<\346\2259=~<5\275\260R\224=\336\026\223=\2228\212=h,\201\275\276%\214\275]2\205\275\247\r\240\275\000\207?\275^\004&\2750\327T<\240\266:;H\201\337<\000\350\235<\000W\3439\350\216i\275\350BT< \272T;\354\346A\275\037\223z\275\246U\"=\230\225\310\274F\337\270\274\3541\265< s\212<H\202e<H8E=\214,\226\274\016C\032=\000\231\3229\263OA\275\354\245\202=\224\262\225=\300\250\025\273T\177\321\274\340\357\276;\372\302\224=\000\314\233\270j\377\206=hiC\275\320{.\275>\324\351\274\261\205>\275\314;\343\274\240\263m=\270;U=\264\0205=P\317@={\233\024\275\307I\033\275\330\366\024\274\200\265\255\273\346F\212=(\374r\275@N\027\273 d\234;\030\220u\274\206\204\343\274*\0039=\2549\221\275y\335\034\275\020\300\021\274@\261\224\275D7a=\000\tJ<p\336\265;\357T\024\275l$\321<@\272\240\272:g\031=v-\215=@\315:;\224b\370<\200\2614\273\352\266\262\274\244\2230=\264u\237=5K\210\275\222J\320\274Tn[=\004LQ=\240J\212\273\270\023\320< \316K<\260H\226\273nI\375\274\016\016\017\275h\313\326\274\260\3272\275\340\004\302<pL\370;^\177\005=\304;g=K\333\007\275\204\311\370<L\326\214\274\370^\211=\254\326a=\314\254G=\257!\233\275\352\212\020=\240Z\276<\264\375\017=\000\256\033:PE\334;0\263\312<\016#J\275\364.\364<\215}\t\275\200\230\003=\344\204`=x\006~\274uVn\275\352\237\023=@1\200\274\240\364\330;m\253(\275t\2571=`\\&\273\000~m: \3036\274\222\255\224=\002\0108\275\200\366\224\275h;\017\274\250k\216\275\020\3259\2748\025\221=V2\004\275\270\260x<\320\331G<\017\311\220\275ll\216=\254\350\\=\314\332\213\275rT+=\022\363\206\275\230q;=\304#i\275\250lY=@7\177;\010\023c\274\276\240\233=$\006\251<z\026\231=J\334\225\275\356\300\256\274\037\224\027\275\354\321\274<0\231\361;T\250\006=8\324\221=J\2255=r\025\305\274\300\037\234;\352,4\275@\211\212\275\360\340^\274\326\305\005\275\274j\354\274\330\336\005=x\340\311\274B\352\n\275\000\241Q;\240\336g<N\263\233=\004\"\311\274;!k\275\336\314\275\2742(\"=\305D4\275\234\225\271<\262Q\006=\204\307S=\020 \030<\300\300\250;xq\223=\310\033&<\372\253o\275\014\210\267\274\310v\004\274\260\233]=8.\226=D\373>=\224\316\212\274\\mf\275^\303h\275\324\002:\2756\246\235\274\262\315\231=\200\002\376<Y\300\230\2758\021|\274\000\326\2619P\370L\275\332\201\215\274hN\235\275\3434V\275$\352\212\275\370\351Y\274\230\007`\274\271\016:\275\264\257o=\344\323\262<\346;&=\370\256P<\2167\221\2755\026\020\275\330\326\266<\240\253\360\273\330\177Z=h\361\177=\234*C=\300R\350\273\007\027y\275$mh\275\224\352d=\204\324\274\274h\"`=\010\274c\275\210T]<\200r\264:\244\021t=l\271`=\024\'\214\275x\213\202=\334\202\346<h\244\014=\020k\325\273\246\336\221\275\244\206\005\275\240\'X\274<T\220=a\337\\\275X\311v\274\247\321\236\275\300\352\346<\212\371\344\274b\307\005=\240\375\224\274\300\371#=\\,\370<\260$b<H7\215<\260\367|=\002\342}\275\317\315\206\275`bg\273\244\232\010=~\261%=\364\367\006=H\001e=W\367\220\275\272\325,=d j\2758\333\246\274\252{\342\274\276]\230=\267<\207\275\326\363n\275\356\273\001=\0025\205\275S\365z\275\000X\303\270P\351\267\274\010\204~=B\216.=\314H\005=d\342`=(\022\017\274\200\231\240\274p\036a=8\313p\275\020\016o\275\364\242o=\230G\025\274\333\204\033\275\354\241X\275\377`\215\275\026\235s\275\224L\265<\014\022N\275\350k\237<I\221\225\275\240\275\221;\310\215\031\275\024X\022\275\304\353\201=XTb\274\3309\007<`\177\025;\037\350\214\275\325\264\230\2754\032\233\275\025e\202\275\234\002X=\324\355\224=\220\227\007\274:J\254\274\010\274\205=\230\362F=\342W\014\275\234P\225=\202\013\221=\326;\303\274\030\025p\274\310\342*\274\260\017\204<\374\264\216=\240*}<<\323\357\274\254\273\270<Z\227\365\274\212\212\034=9\270\007\275\240H\232=(\335\330\274\330\221\202\274\\\374j\275\300T.\274\"B\203=\004\346\215=\206\377\260\274\304\376|\275L\344a=T\006\266\274\200\306\231=\3069\337\274\352\204<\275\244\035\232\274*\321&=\304\212\326<\300\002\010\275 \266\223=\026\332\227=\230\017N\275$\246\306\274\214\332\235=\256\241D\275\0007\'<\000\264\277\271\354\014_=\246\236\233\274)N\207\275(w\354\274\266\362P\275\210\246\376\274\220R\331;\366\336\014=`\374\000;\370/H<\236\244\036=\235\311\227\275i\324\212\275\022\313\025=\320\2210=\204\006U=\232\376m\275V\3530=Dz\363<\006\347\375\274\340V\260\274j\252\202=\202\021v\275\212b\252\274\300}\277\274\356C\222=\354e\236\275XQ\232\274\220,\023\274@`6\274\256m\027=\250V\371\274\210\377?\275Ax\215\275P\310|\275lZ+\275\264\010\246\274|R\215<D\233*\275\001\321S\275Nh\326\274p\246\351;\234.b=\020\223\006\275(KQ\274F\022)\275\300\207\351<\260\227\302\274\340\336.;\210\214\223=\200\005\251:\034\313\220<\000 S\273\300J\264<\030~U<l\345\346\274\212\216%=hF\377<\221~\217\275\216O\001=\010\375i=R\237h\275\2006\357:\302a\223=\226\266r\275\026\350\216\275\014\277\271<`X0\274\334\271\233<`G\\\273\210\r\177\274\206\320q\275\240M.<\305H_\275N\363#=\354v\330<|8W=\357\230\214\275\260\210\365\2746\336U\275\320E\365\274\250h5\275~\014\010\275(\206\232=X\224\035<034<\322\021\235=3L3\275\306\365\007\275t\317\202=\223\240\033\275\214\204\004=M\002\030\275{\334\206\275\023\275m\275\311\3606\275\300\345E\273\222\313e\275\316\376\036=\310q\241\274@\305\021\273\260 /<\210/o=\014d\334\274\016u8=\\\022\212<\214!\275<=/\212\275\313bl\275\350o\215=\366\367\222=\2000]\272:\3653\275\370;y<`\001\206;\210j\265<\242A\272\274*\265{\275\336d\202\275\350~v=\260\003\256<\2617\211\275dlM\275\200\313u=\361\374P\275\317\231\233\275\300-\350\273\020qM=\2704\262\274\240\2551=B6\235=\270N~=\250\243\326\274`H\333;\300p\233:\360\352\211\2752:x\275\307\366\231\275\200\030\231\272B%\371\274\370q\023=\340\311\345\273R\265e\275\000\300~=d\001\202\275#\352R\275\t;\220\275@\302\315\273\022\017~\275\245\016K\275D\371{=\311\300\210\275\364Y\223<\216|>=\016\3463=\000\340[<4\002.\275t\277I=v\275\035=\306\354\324\274zOH\275\356q\003\275\020\203\200\275\256\234\203=\246\360&=MQi\275\024\252\020\275\260\033\366\273\222\365$\275,\033\245<+\3633\2750\350\202=\312\254\004=\200[\267\273\326\017\025\2754\370Y\275\274\241r\275\254Y\253<\2346\275<l%\370<z\225\200\275x\2176<\000\351!<\320\001\300\273\300K\177;H\305\000=p_]\275X\371\217=\030\355w<n\223D\275/\010\222\275\032Pu\275]K\213\275\200\361\372<\260U\207= \313\236\275q\344\216\275\356\256)=:\201C\275X\367j=z\226\220\275`C\026\273\336\0168\275\210Su=*\313\214\274\3718\235\275\327b.\275h\3266<\032\207\"=\374,\024=\260Sp\275\212u\237=\370@X=\330\3305\274,\203b\275\336v\206=\\\267\200=\262\003\233= <\255\273\244h_=\316\271@\275\262qE\275\242k\314\274\245\305\032\2752\261\273\274$\220f=>\240\237\274\026\177\235\274\014\346?=\300\242\002\273f\323\021=\340\276E;>\233\260\274\240\020\250;\347\301\206\275\226\022\217=T\345R=`c\216\273\024\001\355\274\023\313\237\275\316\341\026\275\250\006C\275\020_\021\275\007\316\026\275\300\3678;\002\226\005\275`\247#\274\016\006~\275\210\222`=\344gb=d\021*=\035\367\215\275\352J\375\274\260\331\200=\354mm=\274\237\264<\3405\224\275Hj%\274\026\270j\275tyc=\020\315\213=)7l\275\254\207e\275S\006\211\275\357JR\275\n|W\275X\"h=\254\r\001=\265\274*\275i\373F\275:\347\210\275\254\326l=\240\265^=\366/\026=LB\213\275\315T\010\275\264+\222\274\210\316\202=\320Jj=\200{\004\274\320\325\000=\246\032\205=p\326i=h}k<\304a\335\274\000\346\3729\tE\235\275\202\245M\275\037\257\217\275\000\013\002;\375\037\033\275\030\214\300\274\332M7=806=\216\240\204\275@\002M\274\310\362\000=`\213v\275n\335\237=,$\230\275\000\372\023:\342\2309=\340pP\274\230\322\003<\351\327%\275x\353\227<\260`\331\274T\014g\275\320\276\272\273\220i-=\016X9=p\204\023=*\224!\275*v\037=\"s\275\274\330K\007=f\034R\275\227\0333\275(\234\232=\213\020+\275\344\343\t\275\3402_\275\306v\223\275`ci\275 ?\316<d\306\200=\200\352\360;\300\027[\274O\033\024\275\300BO;\255X\225\275>3\024\275~Z\331\274\214\307j=\226C\217\275\370\233l\274\352\334?\2750K\230\273Rh\211\275\0071\210\275\300g\255\273\244\004\213\274\270\250\204\275l@\215<\020\332n\275\334\2020=\000<\274\271\034\345J\275p\361\223<\2100\201=Z\216:=r6\217\275e\350&\275\344#x=hX\231\274@=*\274\274\216 =\204\032\177\275,\251|=\032\227^\275|\322Q=z\203\223\274.\223\215\274o\275[\275\2741Z\275\360[\374;\276\016\237\275\300Pi\275\230\360\220<&\200\020=(\372O=\244\2374=\024\200L=\364\236v\275\200\370E;P\210x<J(v\275\230y1\274O\r%\275v\260j\275\260\371\357\273<\213b=y\314>\2754\\^=\022\335\375\274b\336\201\275\356\177\232=(6B\275\346\334e\275r\020\004\275@\231\013<\2602\312\273J\2334\275\306?\027=\\\r\210<d5\225=\022j[\275\254\261`\275\342T.=vu\202\274\340\2175\273FQ\220=\014N<=\360\013\003=\300\320\200\275D\352l=[8r\275n\356\377\2748\264R=u\235\212\275@h\214=\253\332\'\275 \325H\273\270,H=\220\2630\2740N\302\274\330\021N=<\340R=\366\2328\275J\356\254\274\360\245h=\374\236C=\037\0223\275\3643\373<\000d\3468\354\014\003\275\340\246\271;V\3615=\317\344%\275P\236\333\273m\301\233\275\210.\275<K\332\022\275\310p2\2750\332\367\274\240\215M;\332;\207\275\311\247X\275\362\340\217\2742H\016\275\340}\013\275\020\331\323<\377]\r\275\340\371f\273\2700\036=p\035T\274\344\354\312\274B\326\227=\027\302<\275\332W\215\2756\337\225\275]H,\275\214\036\344<Z\232O\275\374\327\302\274J\254\201\275`/\177= 5\216<0\224\322\274\274_\207\275x\372 =\000\010\3139\222\344\033\275V\257\266\274\330\257\020=\360\033\355<\330(o=D\031\217\275\010\230\030<5\026<\2758H]\274P\n\320<\300<\271\273d\334\261<0\n\377<\206\002\237=^A\205=\336\225\210\275\3145S\275V\351+\275\250Pe<D7\264< N\240\273\270\255\216=@[g=H\354\022\274.s\n=\2051\213\275\272\252\217=*\341\004\275\360\332\361\273\020\322B=\2446\205<X\221M\274\306J\213=j\260F\275j\234\213\275:q\214\27486\202=\274\023\231\275\204$H=\240\273B<\214^Z=\323\360\225\275\344\250\220<\220\342i=\2709N\275@D@=\264\203@\275\344X\020\275v\2266\275\200\224\224\272\200j\320\272\030T\333\274}\357\223\275b\243\227=\036x\334\274>\274\214=\264F\004=\344\326\315\274\344V\342<\3009\355:\026C>=\262\010^\275\223\263)\275\206q\323\274\362N\230=\360d9=.{\213=\254\244\222\275\216\025\214\275\202\020\333\274\250n\206=\351w\202\275v\221\215\275 \017\021=\241\326\221\275!]\211\275\244\217\374<`\341L\275\250h`<\200\305t=b\316A\275d\0363=\235\241\n\275\354\243\210\2750\025\032\275\210\037\302\274\276\243\221\274\244\370\370<\2309\374<\350\030\234\275\001f\020\275X\375><&\356o\275E\225f\275\350=Z\275lm\360<H\207\250\274\200\334p<\360P`\275\000o\002\272p\353\232=\254\310\026=`i\260;\240\356$<\324\265\203=\006H\031=\370\0043=\240\246\312\273`\2526\275\340\004Y=:\032K\275\210\026\264<\\\300\336\274`\237I=\010\1777=\374\030\243<\241[\"\275~\234\027=(M[<\010!,\274V\205\271\274:+\341\274 \363\232=\246<\217\274\334\215E=\250\001\032\274F\344\013=\300\373/=X\325k=l\356\264<\305i\235\275K\263]\275\320\004\371;\254\013a=\277\375\236\275\214\364\225=\372l==\242\262\226\275\267\274\207\275\264N\251<H\264|\275N\347\202\275\234-!=\257v\223\275h\033\234\275\304\t\317\274\244\032\240<@\365\213=L\t\303<\262=9=0\003?=\\\321H=^|H\275h\257\211\275\212\356\205\275P\031x<\204-\204\275j\240M\275\277\213\223\275\310Aq\274\022\262\001\275\244g\223\274\034\236P=\324\235A\275@\245\300;\336P\227=\220\315d\274\266\001Z\275\276r\226=\336s\207=%L\027\275F\271V\275pU\262; \017L=~\255\025=LR\371<\370D\222\275\005\335\027\275<s\301<\262\213B\275,\312Q\275\224\327S=\0008.9\240=u\274P\023\236\274*\032\000\275T\363\234\274|\326P=\270\'\203\274\034\243\365<#\216\226\275\314o\207=@3\223\272d\341X=p\027\206<\321\021\204\275\306\014(=\374\277\357<\240\253\005;\340\261\207\275\345\253\215\275\224\364\324<\364se\275\254%W\2751\2776\275 \030|<pQ4<\000\365\241\271\010-\325<Le\307\274\000kr\272zr\231=TL\305<X\304\214<,\202f=~\351F\275j\253m\275^\0345=<\211\201=X\035-<\376}\222=6\215\306\274f\024i\275\232\203\362\274:\303,=\376Z\016=LQG=\244g\353<\350\344\220\274\034Y\216=\340/\265;\222\003\306\274\"\270\216=0`\010=\224\031B=\354\354&\2750y3=>\316\n=\t\025\234\2758\211D=\240\321A=\034r{\275\210Z?=\360\331\365;\250\016\033=\344\306\202<\255,|\275\026\'\233=~R\023=`\037};H)\320\274\361*\226\275)\227\237\275\010\331L=\024\205\223\274\374\236\372<\366T9\275\021GN\275\224\372_\275\352\235\036\275\240\252o\274e\216\230\275\030\217*\275\2519\201\275\262H\331\274p\310\021=\330\014I<|\311x=h\026\223<(M\205\275\214\367K=\300\207>\274\3108\254\274je\335\274\3140\204=`\334=\275\246\214\003=\0304\336<\224)\203=\016\307r\275_\211:\275\220\373\231<\340\022G\275d\316L=m\215\004\275\335\214v\275~\250h\275\344\\L\275\260\203j=\035\240\235\275P}[\274\271\303@\275\210X^\275\360\"\212\273\000\nx\272\260\004\317;i`\027\275\304;\301<\314M\201\2740\265R=j\257+=\03433=\214:W=\240o\220;\364r(\275\300\020\217=\270\275O=V\375\031=\230*>\274\261\360\213\2754\030s\275>M\001\275\004\301\221=<5\247\2740\314m\274\360\244i=H\017\221\275Xh\226=\024\270b\275d\375\367<p\320\227\273\310\374}=h\262\023\274X\006d=\372\222k\275\314>\273<T\364\354<\230\331,<\027\306\033\275\364\233P\275\020\342G=\265G\203\275\350uV\275\344\\w=\336\2118\275\256\323\367\274\204\270\326<\320+\341\274\035T\213\275\270\032\201=\354\312K=\300\033\020\273Q\205?\275x\213\010\274\210\221\004\274L\232\026\275\360t\231\275pxJ=\004\223f\275\230\211\207\274\"*.=\000\253v<\220!I=0T|=y\317\201\275\036\022\361\274.\251\265\274 /\352\273\362\336\362\274\003l#\275x\372\225=\300\364\260\272\010Pf<\322\n\207\275\370\323\177=X,<\274\300U\243\272;\353\201\275\371\273\206\275\316\031\237=\230\025\276\274\000\343\236\273\354tW=\032\334\343\274\0107q=\232\354\035\275Z\321v\275\2104\003<\324\202\231=T<\323<\030\351\237\275\300\313=\273\0201\336\273$\374\275<\332\362\352\274\010dM\274JLA\275\221\3700\2758\212\r\275<\223\217=\034\230\347\274\230\234U<\000\'y=\326\032}\2757wx\275\200\330\230;o\204\226\275\363\220!\275\244\3747=\000\253m=p:\230\275\"WP\275~\264E\275\320\256L<B4a\275\330e_<\370m\216=\200\327\231<@\277-;M\310i\275\242\344 =\320\035\021<\251\224V\275\214\343y\275\266\325\033=\364\236E\2758>[=\232\232;=\240\262h\273\324C/=\200\007A=: \024\275\265T\035\275\200!O=\234\221\212=(\265f\274@\256\221\273\350\036\004<\\\006q=8\315\235\274(F\240=\355(m\275\234\007\220=\344\017\343<\300t\227:\346/u\275h(~<\240M\275;\255\273\035\275\253\305\200\275\316\250\237=\244x\'\275T\333\202=\260\364:=\224\342\366\274LR\224=\217\037\025\275hIT<Z\352\220\275\301\364.\275\346D%\275\200\277\263<P\301|=,\230\200\275(\355M\275Y\266\026\275H\024d<\224\3733=3\022\"\275\177i\224\275\360\336\326<\204\354Y=\240\237@=M\2664\275l\000\203=\374\324o\275\3040\377<|\026\207\275\212K\200=zn\200=<\325B=\270:u<\0206\333\274N\264u\275\220)\233=\3209T\275%\213\226\275\n\\\204\275\235\234\205\275\360\010R=\000^\377<\264\360j=\000\372\201\271\262\027<=\242S\207=\252\324\251\274\316g\205=\240$8=v\333\206=\330^c\274\344\376(= \211t=\300\n$;,*T=\320\320\254\274\364\211\005=\300bZ\273 \300\007=\300\263\253:D\213\255<\360HD<\370i\214\275\212\345\206=\254K\360\274d\245\377\274\364?\026\275`\205\243<\2145@=\360\020\200;O\252\217\275\236:Y\275d\025H=0\303\202= \230E\274\330\315O=\300\221\206\274pb\247<$\033d\275 \006\"\275\244\r\233=\201M6\275\006\200\276\274\360\226q\274\260\223\340;\324\222\227<\344\005(=\224\336\\=8\034\204=\352]\201\275@\251P<\226\033\212=\310\316w\275{(*\275h\241\267<\306o\346\274H\023\007\274\370h\210\274\244\201,