module attributes {tf.versions = {bad_consumers = [], min_consumer = 0 : i32, producer = 1882 : i32}} {
  func.func @main(%arg0: tensor<1x240x1xf32>) -> tensor<*xf32> attributes {tf.entry_function = {control_outputs = "", inputs = "x1", outputs = "Identity"}} {
    %0 = tf_executor.graph {
      %outputs, %control = tf_executor.island wraps "tf.Const"() <{value = dense<0.000000e+00> : tensor<16xf32>}> {device = ""} : () -> tensor<16xf32>
      %outputs_0, %control_1 = tf_executor.island wraps "tf.Identity"(%outputs) {_has_manual_control_dependencies = true, device = ""} : (tensor<16xf32>) -> tensor<*xf32>
      %outputs_2, %control_3 = tf_executor.island wraps "tf.Const"() <{value = dense<[1, 1, 16]> : tensor<3xi32>}> {device = ""} : () -> tensor<3xi32>
      %outputs_4, %control_5 = tf_executor.island wraps "tf.Reshape"(%outputs_0, %outputs_2) {device = ""} : (tensor<*xf32>, tensor<3xi32>) -> tensor<*xf32>
      %outputs_6, %control_7 = tf_executor.island wraps "tf.Squeeze"(%outputs_4) <{squeeze_dims = []}> {device = ""} : (tensor<*xf32>) -> tensor<*xf32>
      %outputs_8, %control_9 = tf_executor.island wraps "tf.Const"() <{value = dense<-3> : tensor<i32>}> {device = ""} : () -> tensor<i32>
      %outputs_10, %control_11 = tf_executor.island wraps "tf.Const"() <{value = dense<"0xDBBA193EC41A62BD99123BBE00C01939E4B47E3D5E4FF53DD199283E57C6243EA4DC523D6FFB313E14C8FBBD0E75D13D4691DD3DAF132ABE6E8B07BE3FB2EFBD748736BD7F8B293E342FC2BDA2AC48BEF76B3BBE1E8A9F3D33F258BEAA56A23D58DFCABDDA37843D47971EBE2E18AEBDC274EF3DC88DF93CC05002BC5860FC3CD4F32FBD9A8FBA3DAA4C12BE942186BDE754133E4AD827BEB0746C3C4E07F1BDAA56B53DC85E55BD8609903DDE82B4BDBADB12BE1933403E8EC4943D83375CBE428CEB3DC9140F3E6AB0CABD279ADDBD681759BD4051C03CA73B0D3E1B0330BE0CFF54BE54E46F3D00C032B7EBB24BBEC0E8663B5CE504BEA19A073E78E6E7BD421AB8BD8372133EF72A0E3E80B2C1BA503008BEB02095BC9C515CBD98CEC9BC944EFFBD8331563E84D8593DFAE735BE5ECC3BBED04463BC64D77F3DEA170DBE9B340B3E008D6ABBC26AEF3D58F155BE1A6FCE3D4C753EBE6A8D28BE203599BB30B3673C725A25BEE49021BE97E8113EC3345C3E933D303EAF9C303E88E2CC3CAB06643ED81CBBBD35B6023EDC5B64BE9DE6323ED7EF343E146739BE79B54BBE6E5244BE84E42EBD5688E53D90CE22BE481AA7BDC1843DBEC04655BD5D2F2CBE"> : tensor<7x1x16xf32>}> {device = ""} : () -> tensor<7x1x16xf32>
      %outputs_12, %control_13 = tf_executor.island wraps "tf.Identity"(%outputs_10) {_has_manual_control_dependencies = true, device = ""} : (tensor<7x1x16xf32>) -> tensor<*xf32>
      %outputs_14, %control_15 = tf_executor.island wraps "tf.Const"() <{value = dense<0> : tensor<i32>}> {device = ""} : () -> tensor<i32>
      %outputs_16, %control_17 = tf_executor.island wraps "tf.ExpandDims"(%outputs_12, %outputs_14) {device = ""} : (tensor<*xf32>, tensor<i32>) -> tensor<*xf32>
      %outputs_18, %control_19 = tf_executor.island wraps "tf.Const"() <{value = dense<0.000000e+00> : tensor<32xf32>}> {device = ""} : () -> tensor<32xf32>
      %outputs_20, %control_21 = tf_executor.island wraps "tf.Identity"(%outputs_18) {_has_manual_control_dependencies = true, device = ""} : (tensor<32xf32>) -> tensor<*xf32>
      %outputs_22, %control_23 = tf_executor.island wraps "tf.Const"() <{value = dense<[1, 1, 32]> : tensor<3xi32>}> {device = ""} : () -> tensor<3xi32>
      %outputs_24, %control_25 = tf_executor.island wraps "tf.Reshape"(%outputs_20, %outputs_22) {device = ""} : (tensor<*xf32>, tensor<3xi32>) -> tensor<*xf32>
      %outputs_26, %control_27 = tf_executor.island wraps "tf.Squeeze"(%outputs_24) <{squeeze_dims = []}> {device = ""} : (tensor<*xf32>) -> tensor<*xf32>
      %outputs_28, %control_29 = tf_executor.island wraps "tf.Const"() <{value = dense<-3> : tensor<i32>}> {device = ""} : () -> tensor<i32>
      %outputs_30, %control_31 = tf_executor.island wraps "tf.Const"() <{value = dense<"0x40C3E13B7E18FF3D9A40833D7101063E605DC33B5A5FDF3DF0B1D0BDA85FE23C80EE7E3CF478BB3D2716F1BD4B42073E2899C0BD601584BD104211BC64D3C73D8022173D9E459D3D59A6BFBD00B3583BD8BBAA3C869FF33D4EF19F3DCC7FB93D144521BD6E1313BDFE33DB3D9D73083E802C143B9CBD7E3DBE4024BDDBF4EEBDF617B7BDAF96003E50CF663D1127F4BD1CB07BBD2838EB3C8E64A33DD480E7BD00CC8BBD8001623C8DBB043E181DDDBD2B3401BEC02C8E3B00C2003D954082BD50A270BD2458553D56E68E3DEAB8C33DC20EF03D5C8F61BD6DE2063E3A21EA3D7AC4A0BD2879083D00C4983AC2F9F23DE4FD7D3D14F0B43D686604BDE7ECA7BDE5B807BE7CA7D6BD6440C63D97C1013ED26568BDC6CBFC3DA0C71CBD38029E3D5C8DC53DD241F73DC0EF7F3C268B02BEAC3ABCBC00D2E8BC2442143DEDB8FBBDB0B94C3C3F50083EE0EF0D3CFE4AD0BD003FB8BDBD4E91BDB02378BDA472733DE405253D125D23BD60B9C6BDC0786B3C8066E43A300DD13CE62597BD1C6ACEBDDDCA8BBDB03524BD7096163C9D3DE1BDD506033EAC674A3DAA0BEC3D28BA353DCC59D4BC4FF5003EDE9360BD1352013ECA998A3DDC1F8D3D7AC4E0BDC46B5E3D108F773DD8347D3DA8DE3A3D0054A339F81AB8BD848F0D3DA91B033ECEA9F3BD20BEE53DA83FB03C10D9D7BCBEE8FF3D6640DABDCE5AC93D000DC13A403A6BBB3694FD3D8A5AE5BDB2A7C43D7C345FBDEA2DFA3D1876CBBD40A4F6BDC23E7DBD8057963B09AF073E44D807BDFC333BBDD01D2A3D3C113B3DA59902BE8079C43CF67AB83D3A322ABDD158053E706BDDBD180AC23CC07FFC3C805F493B89C4033EB65B04BD5A7007BE049E013D50D26F3C1DFB88BD5896623D4C0AA4BC607C773DD089EDBCFE3FEFBD626DBD3DCCBE793D384A813CDC765D3DF2EDFA3DFA0673BD86E3F6BDD04DC13CA0FAE53DA8CAF53C00F6D6BA75BAF9BD12C6B43D7877A63CFA9B8BBD0F5D083E34C84EBD46567CBDD8699B3DAC45E33D00E8FF3CB9DE053ECFBF8CBDA7CCFABDF45C8C3D5A0FB0BD3AFFA83D769FF33D804C85BD4C12C3BDA4E4313D4094AC3DCE2069BDBA5BDF3DC60A06BDA044AF3BE8F4D83C486233BCE47738BDA22313BDC106DABD649BA23DAED4C43D3082443DF7FBE6BD30D41EBC1FB005BEC4D65ABDBEF486BD00C0B33A90B4463D6363083E1CAFAC3D6235C6BDE0896FBCFA7F84BD7883D5BC900A293C64B2B8BDAAD9AEBDD70706BEF65DFB3DCC5648BD1ECFCFBDB0E2A9BCD68098BD4A32F73D166BB53DB9A3F9BDF2B5AB3DE855AD3C78B9D0BC4A269A3D3CC3FBBD789BC23DE6F3AC3DF0C8123CCEC0E8BD00BA213A523AF8BD267BD6BD646DA2BD5C1FC43D8020F03B98692EBD4075C13C57D1CFBD549E613DDCA6D53D80B382BB4E04843DE56BFDBD9047273D2016943C6058AE3DCA92CB3D567186BDA325CEBD80CDDB3D200EF83CE09B9E3B34F4383DBA4BFC3D00BBC43BD00301BD406C4ABBFC73503DC8C8D3BDCACFB33D1C5EDFBD04B0B13DB61BFA3D7032D6BD087D76BCE8B6843CAEE6FBBD108A063D30B77A3CD0DF033DFE379D3DC83B5A3DB005903DC0EC233B80112A3B509A01BE10261ABC505DD93CE80EA43C50558A3C8BFBDEBD360F27BD1A14FD3DC36891BD4B75043E5BAFCCBDE2287EBD4ABD813D1CE50E3D3A5C933D5802ACBDE486C43D90ED7F3D529612BD300A8B3C98752E3D5888C33CA4CC81BD260E86BD6CDB913D803C003CAFA1D5BD78CEAA3C92AC65BD049EBCBC2253983D7221F7BDD0A3323D781E323D545C1F3D07A8043E22EBA1BD8091703B4229C73D586B18BC4C5C80BC68888DBD8871573DF6882BBDB4C103BDFC64B93DA2ECFC3D1CD0053DB66D80BD46690EBDB440A1BC4A426CBD185CFB3C18C58D3DAE8DF53D8D5981BDC4B4A93DA3F5C9BD2E1F78BD002D693A006C4CBA98BF8C3D2910053E3038153CC0D824BD80B292BBC633DC3DE494BBBCACD673BD422A853DB8A313BD00E9F9BB29DE033E10ED47BDC4B6B8BD8FE0E7BD74CE5C3D0C8303BE4CEFF4BCB023F8BDC8039F3D86141CBD8E12B4BD1C937D3DF255CF3D009EC33CF08479BD0EB07FBD88CA353D40BBC1BDC0CB00BD506CA63D56F4A6BD2883973CB80BEDBDE26688BD8AE089BD5AF41CBD90A176BDA869B23DCA085FBD09F6023E64E22CBDBC1D253D78268F3C004EB4390024D4B96C4B72BD6CE2103D1D8F07BEB80250BC1CE6F5BC404EA6BD4A8C9BBDA09AF83B8F18073ED4BCAB3D5859B93DC017DEBCA56BB7BD5841E3BD2895E83DFC3092BC32BE30BDE0118B3B3A9DB8BDAE817DBDDA889E3DD1B400BEF8A4C7BCE800183D10087A3D42739F3D36D185BD9004A03D50EA7C3DC2A642BD7868EC3D4C84223D84806A3DEC2824BD843908BDD8402E3D501A3C3C40DF3EBB520013BDB54C9FBD26CEF73D92B9A53D1F8EECBDE424273D307588BCEA5DD53D34B2AD3DD08A7E3CD38DA7BD306CC73C1C75E43DF540003EC0CDB93CEC10B03D744580BDFA46EABDFD25E5BD703E98BC326DB1BD7E0429BD4018433DAA9B59BD104ACD3DBF6DBCBD43C5FDBD94A51A3D8476823DE8E6F5BCD622A13D964DA2BDC0980F3DB4A3893D66F9C4BDCA52D33DB18882BD6C543B3DC8A29F3CF08D2EBC62C8C73DC9C6A7BD94412E3D7EC0A43DD5C901BE804B14BB7433333DE6CFFE3D5A1BA63DECB5DFBD802D863A40831FBC0205DD3DBAC9803DEEBAAFBD562CE6BDD82AD83C963ED03D448F1F3D22FE04BE08F39B3CC209CEBD904AD03DC0E1363D103EE63D40BA833B14EA4E3DF0238ABC4474BDBD64D8B2BC4CE52A3D42F4853DB0501E3CFA8F9ABD1CFC41BD382292BCB4C5F3BC1807AA3C00942FBB7E2AC0BD10309A3D360B933DFC706A3D0005CB3BF4D6323D4CB7B8BD2A158D3DEE889ABDBCE5743D3490C1BDC02029BBD06E62BC75FAF0BDA831B93C1EFE8E3D3082E0BCB3D5033E30FC893DF6ED76BD67B8EDBD90BFCEBD26BF95BD0722D3BD179D8FBD9A82EEBD8C50CCBDBC1CA4BCBD2400BEEE6D4CBD4A06F2BD4EDDEFBD6C3DDA3DE887AD3C80D7ED3B3C028BBCAA12ECBD20CDB6BDB008303DC686CFBD5839803CF8BC1FBCACEF493D24C93A3D0044B5BA00003D3B2D7183BDF8C667BD4400193DD64BC13DE89F29BDEA5A97BD1E14B1BD80C9BD3D718CA8BDF0CDE73C3C4CF3BCF4D1093D285A9ABDF6C71DBDB2879CBDAC87613D4EDA99BDC8DDDCBCC45760BD06826ABDE8D5763D62E58EBD8722FBBD74F24CBD5ABEF13DFAEF953DCC99F2BDCD65FEBD9BE392BD6871BE3C301D6A3C2046973B2097EBBDEE86E43D62DDBE3D28A3ADBD00E2B23C6A2260BDA84BDABC9850D83DA0643C3D84D2EA3D6093BFBD14E40B3D9ACEE2BDB0C2C8BD00866EBA79B0003ED8E156BC4361C5BD54F31F3DCA1980BD4F9B80BD783037BC08DCE83D4238913DE2AE5BBDCDCF82BD7467703DC464BDBDBEE97DBD00D25B3CB49A44BD2C04EFBD5072C93DFE3BD6BD8022463B60B0CCBCCC74B3BC1C9DDB3D4826D1BD8C4CAE3D60FECF3C8052893AD854833DC0306E3C64748C3D10F8D63DB4E0DDBCD0E5183D2898AA3D20493D3C20D18E3C280CE9BD147949BDB4A1C53D28B4BD3DE00DBEBDAF26DDBDBCD23ABD701DB2BD88B872BD10CAFBBC40D7013C9EC8A53DB4DACBBC7435763DC1E5CABDE0368D3B6233803D007C133BEA3FA63D98251CBD0295F13D209EE6BD12BCF23D5489A13D36352CBDE65A00BEE62E853D74A5123D9702013E02D8C03DE0EFB2BD788798BC0E7EECBD7488C6BDF067893DDCE1A1BD922C88BDD8B248BC57E387BD2220F43D3E0FC43D24DDFABCA8259C3C8A11FC3D305387BD801FC4BA9C98AC3D4036933BE0EC053D251400BE74B03B3D586B18BCA09E54BD6B878CBD4060A33BE416DABD093507BEB486E03D96D6F53DD05ED43D98D6EF3C8E2892BDFCDC3A3D74BD96BCAC2792BD283AFB3C843C28BDAE48CD3D2AC807BD7E1CD0BDE24B34BD682B6B3D646447BD94CE283D70F5D33CF0E1ABBDA8AD173D55FE073EC0BBA83CFD5585BDD0A5A83D34DCBFBD6CB28A3D5486BBBC827370BD05D805BEA492DD3D3856D0BD4C039BBDE4463C3D5E05D43DA07E96BDD27BF73D78B2243D18F6E5BCEA1034BDC054F3BD40D4593DF758C1BDC05CD6BDBADDAF3DA0C484BBC044853C008B843D300C0B3D6A438B3D681CD4BCB841A53C863AF73DB94AFEBDB4015FBD187618BD900BBCBDC8CDC93D40ADC0BBC79B03BE5C16313D60AC7A3C00399CBB1E09FABD0C6DA6BD48CCAC3DC84CE13CD08B01BE73A5E9BD4E72FD3DE41CDEBC4820283D0019493D552DD2BDB0F19EBDA8A47B3DA011B43CE84EB83C22244EBDC45951BDD46552BDAA84B63D2C5580BD1A0E3DBD486737BD167AD73D0A71EB3D5EAAA03D2838BD3CF4B2823DB28DC6BDA04A5E3C82D055BDC889C93CB4B4523D58C6C83C023BB93DB23B68BD6002C13CB875DF3CA415C53D4CE864BDAC72C7BD2AE246BDC02A813DD0A5CA3DE05DB1BB9549063E9FD1ABBDE02DF03B96A663BDB86D013D5082FD3C74D9253D0060E4B92E71963D95EECDBDD0CCCF3C4CD290BD00A9CFBC92BF91BD6676A93D70E3A83DB87E6B3D20E44B3DD20549BD18FC983DE01F96BBBD77ECBDC636FCBD093A073EA44E523DE2E718BDB036183D872187BD0C7ABFBC60F8CF3CE292B63DD450A83DA89D1B3D70ED123C6CE3B6BC6088EC3D4827FEBC6002B2BC4266863D84C9C83DAAF18ABD2A79C5BD1A25D33DB0FE613CA06FE83BE409513DA0779F3C48432FBCCEEEB7BD88C7A83C1AD2883D46E4EFBDC0C48DBB80EAC6BD827102BE604F6B3C7836623D878988BD00F727BA1816AE3C8247DEBDFD23083E3635CF3D964133BD48FDBFBC9057BBBD10E123BD586BD13C3011B33CD8F8823CA6D0823D340099BDEA8C02BDF8C0C03CDC2EE63D60D6E23C6012F33BC036383C0A8398BDCC28D5BC8C4297BC3A51D13D00895B3D5362E0BDF2F97EBD74E6D6BCD46AE03D402F913D48F7393D08B1EA3D9A81F93D7831D83C04FBC93D608DB23BFAC279BD7061203D9CFCCD3DBEC6993D882AEBBD00CA763CCE1AA2BD4ABFE23DFF77D7BD4A4FEE3DA036013D72DE40BD6CDE443D225BE83D488DC6BCA85B34BCFCE1593DCCE8963DC00A1D3CF4C690BD120E61BDBE3BF23D464FD83DF053873D40BB3ABD9CF52D3D80DB97BD40DE91BBC824483D00EA5BBA707530BCDAF5A5BD7E2158BDC246F03DBA5E59BD06FA5DBD0C549C3DB01B35BCEF15F6BD113C92BDC0152F3BA886B53C00CA87B9E2D75FBDBCD8723D10D7CDBD70757EBCB2E5A93D4117033E142095BDCC83A6BDD847073DD89948BD4AA5D33DE45851BDF8676C3DBE729F3D9E9DF5BD88C0873D0853333DDCFA223DD04B333D119603BE4E2F97BDF0BDC1BC7EE1B33D6894AC3D0E7FACBD2CAB383D3F9585BD2E02F8BD403ED93C48A4C0BDF682F23DA056BBBCE5E0F3BD3693C1BD8063A7BA1DB981BDCEA530BDEAAB5EBDB055533D2C2F173DAA09A03D723DBE3DB2A39EBD0A4629BD82FCBF3D43E603BE5A5BB5BDBEAE9F3DE0C3823CF8012F3D8180F0BD10D7933DF5F0043E9429D83DFC95713DF1C0DDBD8073BDBC60E4823B10B4383D5227C03DD242D43D00FDEB3AE8929C3CEC68A5BD601AE1BBA0E4633D8543F6BDDA3F8A3D708D6D3CCE199D3D52C2823DB23042BD3437E43D8A0CBEBD9E7FFD3D48F101BE6C0DBE3D7008BD3DC5038BBDA0F0BC3DC07DC13D5FE5E8BD50AD383C40541ABBD209E83DA047943B9426B83DD4D1BE3D68A2AEBD7434D33D2C6E67BD7350EBBD84149A3D6C52BC3DB8C7963DF8DD40BC1A82E33D7041983C161D7DBD98D51CBC1DAF03BEE3B0F9BDA0FB823B38709EBDD6BA9A3D3261B3BD6E429D3D5C6CA0BCBE381EBDFE21F83DA0A3023C507807BE1C49973DA6DDB73D768FC53D2EA607BE80AF1CBD891A84BD4465033D668F963DB68AD3BD586ABDBC3C77C23DA8A29A3CB828CA3C65EE03BE003264BBFE92C6BD3CD375BD803F5E3DB0C7F83CD4C8063D4B098EBDF2FCDD3D437AF8BDFA7EE93DDE2DDE3D4A0A3CBDE7C4053E60FF5ABC0874C23D8C7184BD181172BD44BA7D3D7DE3E4BD4EE9A53DE2B5E93D089BDCBC889319BD8968B6BD8295E13D802C52BCD097173C625D953DF0C5EB3CC175EDBD7008663DB8B69EBC201BE8BC96BCD2BD00048EBA92E0EF3D84DCA3BC9699E2BDCAFB22BDB71BCEBD0ABB2CBD3C5A3BBD408589BC703AFEBD30D6033D8007973DBC9FD83DD654C03DBA1EB9BD8445953D281E2E3D40F5783C383CE5BD20C0023DCEBAC23DA9E0E2BD0A3CE63D2C909EBD62BBE3BDDA58F83D1AD23BBD6CF8A4BC1095DF3CA4C73ABD2802A5BD0CEEE4BC4EA7B03DA270A93DEA2219BD2293C33D40BB17BBECFD703D1C6B243DDC0EE8BD6ABD0BBD504B75BC08E368BDE066B83C5875CC3DB65706BD0D86F6BDB2C7B63D6416573D00BCB43CAC5BEABD3C54D5BC2689D53DDE0A7ABD576CEFBD546286BC08C736BC30DF443C00D74C3A2E449D3DDCBB60BD06EB803DC8CB9BBD434C06BE14DB73BD18AA413D7E6AF2BD6EC4E2BDAA57B13D6B96043EF0D59DBD8FA0F0BD58D95E3D8B6DF5BDC06EF63B14E75EBD8057B8BDA0BAA83D704CDE3DB43EA33DCFF8D4BD3C30D53D028BC0BD082DFBBD6B75073EAE9A76BDB279EC3D64C51E3D92F0C7BD8A71F0BD40C2933BC635CDBD089CA3BD70C8513DB938E3BDE011A93C0ACED7BD5018713D29B898BD606CCBBBB642EF3D9E25DE3DCD1FAEBD53D9E1BD90EA0EBDE447903DD50EE4BD2E75EB3D2C56573D7040EB3C10CB783D12259FBD9827F6BCFEA0F93D5E0EA53D625C04BD906FB03CBEC9ADBDBC68E5BD0260ADBDB6A6993D076FE9BD4E210CBDE64777BDC8E6B53D08D2DDBDD8F7963C389BD0BDD84D253DD02A9E3D2EADAEBD023252BD2654BEBDE45EBFBD68B4A4BCF81AD6BD8772043EF8F6873DD349043E20A0983C8079473B2AA004BD7092A1BDE2E31CBDD093873CD428F7BC428CA8BDEC0ADC3DF79B063E24C17C3D80D5BF3DA8CF0C3D3E2FEB3DC485D93DB9BC073E12A290BDF212E53D388DEF3C33669ABD42A8F5BDD0A2FEBCEA145FBD303EC6BD24C4CE3DF0AC213D00C53D3C5264C5BDE05D693DE06AA33BD40A3E3DA055D73C3782E7BDA05B2CBDCA9863BDC0468ABC100862BC3E0DCB3D1A202DBD80D6843DCB9EE6BDCC4EACBD74DD843D81F9B5BDB096DE3CFFD687BD8CF82DBD20F1333C7028923D7CE2E4BC40806DBB88D7F13CA0EBF83C4431A53D36B801BE40DD72BDF8A4DA3D68BAB23D905A28BC83DBE0BDA86C963CE6A8EB3D024ACABDB0C766BC65DF85BDCCE0A5BC8C208E3D0EC399BDC02BCCBC7D6A033EF3ADE2BDE0F8413DECCBF6BDC830A43C2045833B2ED88B3D58DCBD3DF085D73CEC0801BE110D013E00E86ABB30345E3D78D33ABC9CB801BDAF1E083E60CD873B3047BD3CB04C133DE855E23C9ADD6DBD7AF0963D4895923C30D7DCBD6950D8BDC4D6503DE0FDA0BBA214CF3D6C43943D8030F6BA7890613D30CAA6BD1877AEBD0068AEBC1CFC9DBCB0EFC2BCA2322CBDEC7302BE0AD5863D50CAA8BD6658FCBD189D4ABD67B4063ECAE73EBDFAFFA03D661DDE3DBC833FBDD70AA9BD94BA97BD7C146B3D10D4B93D68CDE5BCD8F88BBC7DE0053EEA21C2BD144286BD9A718CBD001897BA8077523D64073C3D28A5D5BDEA7308BD64C86F3DC9F1063ED4ED603DC87684BC4ED4F43D087D07BDD13CA9BDD8AE663D284056BC2243B6BD00EDAD3D6D83C7BDB07702BE6E8617BD80D9A43D48A9BE3D098506BEEAF4F6BD86058A3DC685833DEC8C543DE49C783DC250A13DC093B83BA86971BDB026BBBDCF5200BE00DE28BA725FBBBD150C00BE86A3EEBDE45E3D3D9CFCD8BDA832BEBDE8DBB5BC38D4D63C3EA07CBD7EF313BD48B8903C088092BC1E6ABBBDEFA895BD5A48F63D92BBB53D7AD9953DC0EEA33BE48024BDFC7175BD54166EBD7F0785BD4478923D80F78C3D5CE59DBD246B24BD2585013E50E09F3C34841CBD6410833DC4BEAB3D24A74A3DACF2D2BDF2ACBE3D5A7DDF3DF0E0313D70A083BC3D9CE1BDA0A0833B8A644CBD207FFEBD0014BE3C8CFDDE3DC882513D44A8CA3D9E0C08BD1014F03C74F9173DD8CAFEBCCA3A43BD6826BA3C40A78B3DE0E9B23B154FC3BD4088F1BB54C9653DCA1A21BD8C8B5EBD00633F3C7621F13D0719F7BD0848E03D8ECCF03D8AE5F33DD838EB3D581DB5BCD814813D1D1EBABDB6D4943DC43493BC24ABEEBDC41E9DBD45BFB3BDBCA3CF3D611EA8BD2FA9043E4EAA5BBDA02E1D3DD68CB2BD02BBA83D22F7C6BDA002D43C6890993DD6641DBDC8AAAF3C2CD3F6BDF641F23D5230AFBD32F8F43DB012AE3D80198E3A34C0613D8E2FDEBDA07BACBCA031FABCD424053D283BEB3C0A38D33D8827A33CC0B0883D805520BBE0C7F8BB5F2787BD3A8994BD2E8184BD26375CBD0FAA073EA012973B6084E53BD4EE51BDC4CA1CBD98292FBD40E6C73CC721BCBD94184FBD4CF5933D33C9DFBD4201873D1639EF3DD0BD20BC2CD75CBDF6FBC03D12FE893DFC12F8BDD89700BE004A3B3CC600B8BD3C92CFBDF83C57BCA091E43D56B21ABDD26C29BDA43494BD34AB503DDCD8EDBD57F2EABD0C6BDB3D80A907BBD4B508BDAE10ED3DBCA62FBD9018763DE024763C1AFEA5BD36DFFE3D6070723D592D97BDD6B1CABD6015B93B80E4F2BBD091CE3D6E2B04BE94C83C3DB0FC173DAEBA91BD66D9FABD20CA3DBDA8F948BCC02C02BB176183BD7507073EA05A443C1436D53D5026983C705DD1BDA81CBFBD00E66F3D26A32ABDA8DE95BD08928FBCCA0FC3BDE369A4BDC445333D0084033B084C43BCAC67D3BCDAC1D43DEC90003D3CE1C03D8066123B55A2F1BDE7FDB7BDFEC3DB3DC16D053EC66F06BED4626E3D30A3533C1936FFBDB238813DA08F0D3D841746BDF82D2F3DE56D07BE88BA55BC20DB213C50B761BD7AA7A03D34B9393D044AB5BD7872D83DDC47B0BC0029DABB3024A13DC660C9BD00669FBB781B61BD9EC0C33DB8597E3DB26D81BD10F955BCA8474FBC80D0C43C0013143DF07FC1BD1A2B3EBD508BB13DF6FDA13DEEB68E3D45B804BE1CEA723D149A453D80CB373D00A0743C54D7D2BD1C2FA4BC45A1E2BD20CCB73B10ACC73CB0ABAC3C3071233C886FB33C168E18BDF4BB6ABDF8FC3E3D403773BDE85804BEC45FC13DF4DEBD3DC2B5F7BDE0A7D0BB500BD83CC8B9C43C8E9315BDF0733FBDBA6EFABDDA0EA5BD0C5B4BBDD02FB1BD006901BDDC0F383DC08D60BBF0F7ED3CF0B13C3DCB70F8BD247C383D9297DF3DC03F5EBBAE84E53DBECBEF3D0A8C16BD7617CF3D82B3953D187C4DBD181FB8BD28F0923C008D623C305B883C50490E3CC05E053CF655BDBD52A1E33DC41AF7BD63A2FEBD2DA107BEBAD1A7BDA8DC82BC3ADEC13D0E34FEBDEE87913DAE8084BD1C1A1C3D4817AEBC78C498BC6181D5BD0042E83A2C6C313DB8EEC73D803505BBB8A9C93D27E9013E700AF93C64D6413DDE2606BD727CF13D1200C33D46BBD5BDC3DC053E004C0D3D48376EBC742FC13DE7A5B5BDA0BE54BD9C5E30BDD046A53D725092BDD0D7D0BC49D2C1BDBF27F8BD2F52AABD0CF0293D4C67EB3D36B3A7BDCCAD613D9A4C45BD1875CCBD8C5766BDD6C0F33DCCCEF5BC98A7293D62C0DFBD7CAF173D304D03BE3671F3BD64E0AC3D7E074BBDF00E21BC841A653D8770A7BD86B7AEBDF46C82BCF4EBFFBC4C7604BE9052C1BC98311C3DF6B800BED305C5BDCC09323DF8C0C53C505AE63CE081F33CF25EE33DC8E2193DBCCDF9BC0D36D7BDBA3CBD3DA8EEF3BC1AEEDA3D44AA09BD38EAC5BDA0875D3D80C6443DA59D063EFA0060BDCCF68C3D16E678BD608D38BC9D1BBCBD222EEFBD1B8B073E8324F5BD9EEBB2BD10AF483DF0C748BCA01510BD2A6ED3BDB48B97BC1459B5BC93DBD9BD7EDD6BBD522D20BD20A1EB3BE8E0753D46668BBD902D01BE00554CBBBE5DC73DD00AD93D526EB2BDD02E9C3D800CEE3CD24D9D3D9647EF3DE6E2FE3D001690BB7044873C7043633DB582043E6CC6123DFA0A35BD62CEFF3DE897A43D46371FBD98CF5FBDD9CE073E50F00A3C5EEFB6BD8082163BC291EF3D740EACBC80ADA33DCC6FCCBD3827193D69CCC3BD8C8DA43D549DE8BD206503BE9DCA053E6E2C86BD2CAFD23DDC39313D10C23D3C6CFF713D5C5DCDBD3ADF46BD304BC43CAA999ABD80D9763C604A763C318803BE1442E33D2393F9BDA6A103BE9C4A0FBD7A668D3D0FB3043E8EDD973D606EB3BD8450183D50B5943DB8DB1FBCCCA0533D1CE8ADBD5C69A63D78F3DD3C261DBB3D68EE413DEAB3F13DCAF9EFBDBE0100BE3C4FB9BD24C7C03D1687A43D3A9B62BD647FECBDA4BFA83DCE408ABD84A9323DABA39FBD6EC1933DFA9AAABDAC30C13D9C351E3DCC12353DE088E43B80DA4D3D701EA63D263AB73DDEECCABDF0ABF2BCE8193FBCDC6E91BD92AEEABD4FACDBBD10037E3C82B6F73D709BE73D00C2873D4A0FCFBDA030A03B604B8EBC23AE023E1065E53D8876AA3D78442B3D6AE7FD3D1A5CA3BDBA27B03DBA0282BD54B27F3DB0A506BD98C99F3C4415BCBD42A7C23DD83297BC186D633D7286EFBD384F3FBC4020493DFCDF8D3DBC85CEBDD259D43DAEE8CABDFC937D3D1146EEBDE26316BD28B6CE3D32E1DCBDACB3033DE8A6033DD0848A3C2825DF3CC90396BD35FDB3BDBC8C433DA263F23D727F9CBD488F75BDDC5A9B3D82329D3D10730C3C001AFCBB2D00DBBD993604BE20545BBCAEA3AFBDE01096BBE99408BE7047603D88E6F0BC149AA4BCEE88C9BD0375053E36185BBD531590BD8ADA35BD3C32ADBCA0E8E6BDA0FF013C46D518BD235A9FBDD9508DBD72E9F23D6E1CBCBD500C653DA0BA79BC64CAC33D026EF03D304A513D3E2DF73D88F2E7BD3746F9BD0267E23D880AB0BCDC1C8ABDE0D751BDA872DF3D044002BD107EC6BD978F02BE1373A4BDCC2A803D1076073C9E30DCBD98E308BD5036A03CB082BABDCAD701BE6BC6B9BDB5B6073E5029C13D1C9700BE18DABEBDAC97543DB834E13CDF359EBD725F06BECCAD583D139391BDB4B5003D4093C3BC00B63B3C6944053EA84BE93C9CFE1E3D5210CC3D742D2C3DC057E5BDE0873E3DF92B84BDD07C6B3D600DB03B71F607BE944A7ABD6013643C408CCD3D9622AC3D88469ABD8063BA3D0E1158BDC8EBF2BD96FACABD100686BD900487BC04D7DA3DE4DBE4BDD57CE5BDB888783D3E2F9ABD40910EBB380ED53C9CFD62BD7A42863D64EC5DBD60E6EA3B9E32F7BDE49B10BD5842453DB0B8393CEAD7A9BD907F8C3D90AE57BC013EDEBD477F073EB6E3DB3DB87C553D6634E93D06E387BD58A6CA3C500CB0BD4A68893D7B8598BD3CA1BFBD6422E3BD10CFA43CE41E67BD7817AE3C50450ABD5EDCD0BDD5A9A5BDAC0D89BDB075903D40170BBB98FF74BD92C0DB3D427EA1BD71EE90BD0138BABD00A887BAA113EABDEC7E023D9559E4BD9B4FD1BDB0D3CD3C4CA7CEBC58BCD53D4C0A77BDEC258FBC68D884BD5EC0ECBD1B5CFCBDC610F03D7C20BFBDBE7BD2BDF83244BD4E10B53D049FE2BDAC67B2BC0E84DB3DD8C4B83D7874CABD0E03E4BD83E7BABDD2A3A53DD4C0FBBDC5BBFCBD80E2783B30A780BD58CB5D3DFE074ABDF62A69BDAC6DC6BCA8EF4CBC0ED0A03DDCA806BE9143D8BD14820A3D0CD5553D5892A33D7E806BBD524FADBD40B8EDBCD818CF3D00C1B9BBEA63C9BD64570D3D54E4063DC6264FBDD41C9D3D6F6CD6BDEC9E30BD5BCE083E16667FBD5963A7BD10F19C3D885001BE3740DABD35E78ABD9E038F3DE0019BBC6295F03D2E3BD7BD0A84843D05799EBDAC558C3DAC1E9E3DD11DC7BD62209D3DA01AF13B0275C1BDE0C4EF3BDE1C48BDC0D6BDBBB65BFE3DE453823DFD2F80BDD6576CBD484351BD57FD84BD9EC2813D0013103C1453E9BCF89BC9BD52898B3D0080113D80D99E3DDCDEFFBCAD5E06BE3077B13D3720D6BD30B4D9BDDA0FBBBD002BA9BAC01A063C80E0823D744F123D38976D3DC4434D3DD60DA0BD352506BE8412A6BC0475CEBDE83AB73DB66E923D2A999F3D4F0C86BDC8D624BD2A85C63DFAE1CF3D0E21D13D907ECBBCDC8C913D5056FE3CCE035CBD70CB5A3CBAEDB93D1019263D988F3FBDAA4E7DBD364DC3BD1892483D00CCCBBCC660EF3D510003BE7640DE3D20F61A3C8625A7BD366D04BEBE3DCD3DFC54D6BD0425803D283BA63D805FF4BB0C34F5BD92F3853DA818BCBD86EF72BDDDD5E5BD6856DEBD903B5CBD3805DD3C0077823AD802A53D00D28CBCBCE6C73D6C1A02BEE219EF3D6030C0BB9042AA3CC0441C3B046D943D3E9C96BD46C2D63D9502013E827BF13DD734DABDF3C7073EEC8787BD801EE3BD3CBA2A3DA0FFA23CC482BF3DCAED8A3DDC0EAE3DC09008BE9602A2BD40336ABD32A55CBDC044B43D2D5A063EEB0C83BDEE47B03DF0B0183C1416DC3D18C7D23D9C50673DF64FB0BD2456BA3DD0C7263C1A0B4BBD7AACF43DE273D53DE8B7C0BD70DBF43CD01C21BCEC3204BE3631B0BD4CBCB9BD482498BDB0360BBD3436433D1847813DBCB7D9BC607FAEBB507F69BD903CF6BC572E083EBC0EDCBCB469C83DC9DB053E3C9E433D108933BCA42B9CBDF184003EC206A63DAB6B9CBDA89364BC15FE073EFC67EBBD6C886E3D309F6DBC200B893C09F9023EA87B873D387F943D40A6963DF2834CBDD0784B3D18374FBCB12EE0BD4DDEE0BDC4266C3DE21C9FBD1070203C205792BB00F5F03BA05AAC3CC497843DA6CBC6BD5EDE54BDE082EBBB243DCFBD727FF33D98F5EB3C6C10E43DEDFE033EC007CB3CD8844BBD72455ABDE05C883BDF2907BE823AA13D00990BBC88BCE0BCA8E6EDBDAE4123BD849AC23DF80742BC4EA72FBD64EE8ABDD8DCFBBC4077EEBB5E63B93D10D4D63DF6F4BC3D1D61F5BDA05973BDD6BD56BD4DDEACBDC845DA3C981AB5BDC07778BB5A44FD3D9D8FD6BDC4C85ABDA8662EBC00A5E83BA062CFBDF096D4BC80C0AABB1C46C8BDC09CBCBD3EE9FA3D38CEFFBD508DA43D7619ECBD1059C63DAEDEEA3DCCB3D8BDE4311D3DF540F4BDD037593C067DAD3D30DF693D40C5CE3BEE79B73D88114FBD80BE713CC0E060BCE6178C3DC666DB3D58BFE53DC861A43D974488BDE8A3F3BD68DBF0BD7403DCBDE0C1B8BD544C233D1292853D400F02BC80633EBDB2209A3DA0B5B1BD16AC883D6286FCBD38E1953CBCFDEC3D10C606BCFA49FA3DEC3E8D3D485E6C3DC73E08BE0CD916BD9AE3AEBD3CBAB73D96B512BD87D2CABD42719ABD40028F3BC421EC3D9A80AE3D62E8BC3D24435D3D66CCF73DDB23073E8021B8BAB8AE96BD501B35BD6C1AA23D8CA1B03D3A65B0BD401A463D4870CD3C400AE6BBD076FBBC201EC93CB0C39EBD56BEA93D849A93BD2F8F00BEF87DE7BCA26203BE0AEAF03DD2A2DB3DF4E059BD1EBBC63D1869973C8C02AD3D88B7683DE0EC00BE4EF4843D4CBA803DEA159E3DA6491EBD20CE233D6698F73D20FF5A3D741508BEB032303D788E093D283384BC7E19F83DA02FBB3B765A15BDDBADB6BD2E6C0FBD1C0C4A3DF2B6DF3D905C433DFA7412BD00D7EFBC1609A3BD0226BD3D6A4B8B3D0AB9F53D1095963DE6C02FBD00AC4CBA009D8EBA069B62BD3AA7B23D3666CE3D28F6D4BCC21CD1BDDA6DCA3D76B2DE3D6E9CD1BDC4DC013DC86799BDE87BB03CE0FAF33C500C39BCC8691DBCC0AB413C1E7CCF3DEE8D9D3D8A20E4BD80B685BB0098B43D9A0AEF3D40C012BC6DAD8EBDC254A03DC2243EBDA08C8D3CD8385BBC7068033CB0A2AFBC96B9A0BD98D4223DF89CAA3CB68199BDE0890F3D5C617B3D90B3983D540A2F3D5AFAF43D40DC523CCCD6643DE0E8873C28938C3D6204A1BD9AD32FBD44424B3DC4B6D53D50C79B3C345DF4BD1884E33D9C06163D067A92BDDAF9C5BD36CEC73D61F8D0BD4E8013BDB86E03BDC78BDEBD60C0663CE0E09EBBB24C2BBDC488DB3DDCBD813D54ED603DDE4B30BD1089E93CF8B60B3DD269EE3D5812263DC412ECBD14E2843D51D7E0BD8A44F93DF05B743CB832E33C58F5D2BC0081AF3B521B853D38CC5ABCFEE7B2BD50B632BD9C5A343D76F627BD809CC43BEE35B43DDA5CC4BD6899513DCC80103D860457BD0042443BB803103DF5F3023E000453BBAECAED3D0A7AC2BDEC98113D0459E43DD0750B3C4CD00B3DC85E18BDCAB7963D4C52BBBD80DE013D0CD09EBCFEF2BCBDCE6D90BD9E6829BD40B491BC1038553D33CC08BE4C24D13DDC37393D6E9ABD3DC0DC763C9B5DC6BDD4ED9EBDF810B53D28BA04BE4843C6BD7256AABDC29ED43DB043E1BCD34BA0BD8AADAABD4ED3813DD0CFFBBDC2273CBD14DD643DE61E51BDDFE5B3BD3EAAF4BD0A269A3D441EEE3D00F96ABB0CBDAE3DB0A17D3D0059CEBD44FF6ABD301DCEBDCCF34E3DE971E6BD6878543D30796F3C943BCC3D8012D9BB0872E93DB47B163DC49FC4BD04CFFDBC1C325F3D7ABEEABD78067DBD54518CBD4C5ED53D00F3DCBAF0271C3D0B3F81BD6A94CCBD44DC543D1EB2E53D66B28D3DE1FE013E626E60BDCCB32E3D40F0363DDBF3DDBD9A51E63DF8ABBA3CB51887BDE2A4C0BDC0F2833CF859ED3C5C39983D24116B3D5EC6A7BD789DBA3C8C78273DC81EA93DCDECF2BD8CC6B2BD60C9833C8DBDFABD1898C03C88216FBC36D49FBD1A9FC73D04AFC4BCB678C4BDEEC905BE4001C53C46A719BDBC91F9BDBEB4943D746D62BDE918053E70E5D63DCA6EFC3DB46CB23D62E0C1BD9A2C07BE2EE5C2BD9F8CA1BD624B913D36F39ABDEBAC8CBDFC1F123D8A2C8F3D709DE03DE23D97BDA398BABDC9A0063E06E4EFBD7C9B3C3D686B6B3DF028B4BC950706BE78D5DC3D50320A3D3E9FDA3DFCD9753D40843A3C347C96BDE65FA53D40FE2E3B00863D3DD42A763DB2CBF43DF678FF3DDA77BD3D8015BCBBA79FE9BD0C397B3D28CEBD3C00FF303DC05049BD18F4A33CE4CEF6BC2C25133DC6F005BE97D407BE30206E3D78AB923CF4C4143D0C3EC33D3608E13D8CA17D3D0084DABD005D433CB8178A3C3BD8023EE0B0D6BBCCA4BF3DC0ACD73D10BFC33D1845EE3C30293DBC3C75B1BD1813E23C40A89DBBEC180E3D98A0B6BD3EE277BD7A2D1CBD37CA023E16E8983D286E15BC7174003E96DEDB3D7498333D6603E1BD98E18B3CFB4104BE904F863CF060F13C1C0FFFBDA02D903DE2D3D1BDB466483DF6F208BD1CB59F3D7B62053E58B7543D14E498BCE015183D7066063DA259BC3DF0AC85BCA0EFECBD2EB601BEF89A2D3DEA7268BD58E4B73D92A50EBDD27671BD36F401BEEAB1B73DDACAD93D9425D1BC700E08BEDE5BEE3D3CB58B3D6BF7D9BD0E8BF63DDC2FFDBC52791DBD84F186BCA494ACBD8D1A04BE18779D3DB0DCA4BCE615D9BD2078F9BD18FECC3C247AF1BD93C2F8BD60ED783D009F573D327FF53D40B74DBB20F7543D75DE05BE0AF4CBBDD47B1FBD60E0D8BC44E36A3D5EC4EA3DAC5A493DA0384DBCF7E08CBD2017EABB3488CCBDBC7BD03DA0E88E3B72644EBD1C78B23D2477053DC0531ABB242B603D842A4D3DDAE7943D39F3053EF0BFD03D6860FA3C7FDC06BE588C3ABD9D8598BD6090CE3D740B09BD00F09CBA5452AEBDA442223DBA6D80BD585F173D46A5A53DA4D4EA3DCDE7D9BD5A58D4BDB0F5543DCAE8F83D6C34D4BDEEFE8BBD8866913CF229F6BD54A639BD947B18BD202B6F3C88384BBC1803DABD04CA47BD4C45B23D366EF43D56AEF63D7C7D9FBDB003423D8EEF71BD3F2BC1BDB8D1B53D00ECD6BBF66AB73DF68CD13D210B8EBD8A36D43D4209E5BDA09934BD1D06013EE6D8CD3D562EBB3DF267CBBD4AA45ABD4C765F3D606483BBFCEF703D84B9833DD856D7BCF07E3C3C46219EBD800D55BBC8F5223D8CACAFBDFA2318BD22A5C1BD108F063C0A0CBA3D62BAD83D7BAF03BEB45F703DDA467EBD60A1D5BB217A073E241FA03D1E78AA3D485644BD26F5C33DB151ADBDE0194DBD9667ABBD0048A53DB687F8BDBB25083EE48B4D3D002B21BC1085B0BC96B0A83D48A74C3D80DE7D3B82B4883DDB07ABBDD682843DD88A3B3D10DB79BDAEC946BDAB44FBBDA0A2F73CC459D2BDAA7518BDC09494BCC217EF3DDC7AC93D3C8D2ABD56FB8A3D9045D4BC3A56803D808D69BBC882C43DC5F2043E48314ABC90A0C93DB476BEBD3C05443DD8479F3C307970BD00DF8EBBFAFEED3D587114BDD6EEF1BDEE84A93D8AEFFC3DDE41ECBD7D94DBBD00D109BCE9C7E4BDE017DA3DD7CDA9BD8C783D3DFA3CBEBD4008943B169B77BDA0A01B3CEC20BABDAA02D5BD449C823D7A152EBD10D5C33C9EB7EE3D98BDECBD00C2BF3C5C2AD83DD4BFDEBD5894353DDCAE08BE91CB053E75A18CBDC09C43BB10C8AF3DEE10FA3DC07E923CB0E5523CB0F4C73CD6B3F03DA20A79BD5D04073EE1EEFBBDB4E2A3BDAE21B73D0C5E1A3DE044EB3D803E86BAC0A4A73B4C736BBD766FE93D9C48563D02ECA9BDB1DCEABDD220F13DB0E2793C48B3FDBC90D6CFBC6CE137BD44CA1C3D34FACABCFC83B23DDC4CF0BCC0592CBC40AED7BD9830653DFCDB05BEF847343DC006DFBDF0C4E0BC3E0AD83D668D06BE1205CF3D7731E0BDFB50073E643C5ABD880CBDBC4EE622BD38715D3D5099BDBC84E8503D9767CABD9C1BE33D9DC4E1BD0A48A33D98DDBB3C94F6973DCF9D073E0E07E53DB0DFF2BD00C0633B7C1F6E3D620B0ABD766DB6BDDC67BBBC7EDF9C3DB58193BD10131F3DFEDB76BD2DF78FBD2CB29BBD606CB53D0E6BFB3D8C3F48BDC20830BD00D3D8BD166BDC3D0237C8BD98D757BCEC8E473D40D404BD9A288A3D5820003D21D800BE7C86063DFC12BF3DC666C43D80D0ECBB0287FF3DF67F07BEE0FB4A3C9089D23C4AB9F73DD4905F3DD618B4BDB471383DE8EBBF3C28AAE23D3EBEF7BD1BFE003EC86F223D520CA1BDB05D263C8570073EE2A4B4BD208C0EBCEA25F93D922B79BD887B503DE37BD6BDCC3386BD802EF4BBA263C63D44FE523D8414233D040D643D1354C8BD20D905BD40D0683B30ADEA3C462573BD970AF5BD8045DBBA043F3D3D77C906BE600ED63CFCFF353D0E3E8D3D6CF953BD708C0C3D282B9B3D4CFE523D780991BD40A12D3B6CFF203D9033FC3C093BFDBD2447913D781B9D3CC461643DB0B04E3D2FCE84BD780C473D60FAD6BBBC2FCABDC15C083E8C3FE0BDFEBE3ABD20A6443DD418573D04AC01BD00607139722515BD10629BBDE8008D3DC8C4A8BD64B4433DB6498B3DD4177B3DC2C6EE3DACCEE73DDAAFB93DC0FB163C9D06E4BDF4B78A3DE0FD543D0892CC3CA33E023EE01730BCF09BB6BC4886C03DC0D2FD3C200F803C449D413DD8B0CD3DFAAAB4BDCEF2EA3DCE1595BD1044143CDA39A13DDA3C1DBD2881C2BD6CB8C53D9427E6BD8024B03A2CA07D3DCECA983D4469A5BC3AABD13D75B8053E78D8CF3D2AD0AF3D5877B93D68A0413D4E1A34BD78E41F3D002B6ABD8AAFAA3DC023A6BDF4C28C3D003A1A3B3C68EBBD866BCE3D9C51463D7845C5BD81EF053E6BA7083E3488173DCC393CBD3EFB9E3DBA79ED3D42C0D63D72C5D03D42C039BDF0A47FBCBA10DF3DE80DCF3DD1C600BE7255873D4612AFBD34483D3DE8B504BE1B3BCFBDDCA8583D9E708C3DA018C8BC9A2AA53D4820FEBD5CE12C3D7CEA843DD647CA3D9EE3C53D76F3F13DBEF0AD3D8877503DB2ECDE3D32772EBD86B8CBBD8E4A993D4227EC3D7C5E3F3D6B62B5BDDCBD833D3EA1B5BD245FE83D0795C5BD908EA83DE812DE3D0C4E9A3DC05C7B3D586EBBBD8094213B42F1EB3DD4EF85BD40EF99BD599B87BDEAFFFC3D800E553DB47288BC847BDB3D807064BB348D13BD4E30A2BD2CAE1C3DA9F982BDA328BABD02145DBD78D7C83D5E560EBD8F79043EF8C08E3D709DABBD423B2CBDB4527BBD98E4F6BDFC38513DFACBB23D4E0B28BDDE0E01BE990B073EBE9DD03D3A44F63DA509003EF0B9973C0497EEBCE0FDE7BDC6F9E4BD4780D5BD4C4D04BE011ECEBDCC572FBDD403943D8609E63D802009BC884A6BBC2B7F81BD4CCE773D40B71F3CFE0702BDB4E8583DF4C3CD3D761ED0BDB62D32BD02B9C53DEA6ABE3DB913DDBD0A544CBD009B71BAA8DE7EBD9831103D34086E3DC25E57BDBE56983D38F63CBD83B2043E4E4AF23DF409C1BD210EF5BDC0E26FBCA4BEFDBC00A2A93CD87786BCA8D88F3CD67EBD3D0C2ABC3D7EA759BDC855E6BDD2FC9ABD7CDBADBDF823093D803F083DB32D86BD5653C1BDB679FD3D809FCC3DD01348BC2E6A843DE2BCC43D5466EFBD9C4C8FBC320F69BD3F78FABDAE9ABBBD4002A93C6890383D3C37953DDFA0DDBD802AB83CDBAB083E1C2CEDBD0F65023E408F08BE2038B73BE85932BDCC9C7A3D410987BDF632BF3D4047FFBC38F7AABDF060A03CF4754E3DF8C0EE3CA099813CDC1E09BDCA5E97BD2FCE07BEC4F05F3DB3CCBFBD9A99F3BDEE3695BD6A5EA5BD1C13F6BD5D80D6BD923BCE3DCEF4FD3DDC30B63D11CFECBDEA99CF3D00B6F73C1A19803DFC5DB9BDE238FB3D5EC5E23DAE33EA3DEA2FFE3D0080F3BAB314CEBD1C0B85BC40207CBC98D0A43CD2DFB7BD70B2533CB28EA1BD1CABE2BD7101073E9E8DCD3D571E013E68D4693DD4080D3D302AB9BD6A86FD3DA85ED7BCAEA684BDB834EBBDDE1CD4BDEC615FBDA0AB233C9A06F13DC8B1CEBC50BD513C1C1B6D3D8046ECBABE2CB3BD9A8D9A3DC877A03CF0B0B8BD7D19A9BD417397BD68F3A23C9A8AED3DDCFA07BEC0A1953D0A6F4FBD14442CBD4360EFBD2F21D0BD729136BD0FA7F7BDB231983D9C2E6E3D9AB0D6BD64340FBD48A7AD3DAADA973D208C10BDA8649A3C1E3739BDC0864F3B6E72C93D7E46EF3DE0EEC03CFC55743D76C5F8BDD887FEBDBE9463BD405FE73DAEE1B93DC0E3EDBC0814433DB31B073E807B2B3D04096B3D80562DBB250FDCBD6E9247BD468D04BED4C3C5BC609BC03D5EE5C33D59CEC3BD629E39BD00B4C53CB68541BD3043593CD8FF9B3C20B1BC3B3659D63D1AC103BE6230BF3D2AE3B9BDF11FA5BDFCE4903D1EC2AF3DDCBBB13D3A3BDDBDB0F3153C38AEDC3C9AECCF3D7059703C7825ABBC5426E0BC5E571ABD0044283D3AC080BD2CDC1C3DE0CEF93C687BF93CD0AC9C3DE08E353CB004283DEA79FA3DEE1CA33D781AF9BC20EED13DD8E0B5BC98D792BD7565A9BD2A5F933D38ABD13C901C04BC1C679E3D5396A6BDF2FCEA3D38CDBE3D18A767BD6ED9A83D08898A3C20CCA0BBFB2A073E50250BBD4286E83DD0B37C3DD8249D3C66005DBD7EC1A93DCB61D6BDA87793BCD2A4DFBD08CDFEBD4A73AF3D39CCEABD578E9ABDC02002BC842F96BDA0D0A1BD610F073E1C1EEE3DA21CEF3D48F4E13C00CA05BB665AC0BD3923D6BD66B8E6BD804307BD80787E3BCD8402BEFA2DCE3D3C015C3DDC98C2BD988EF03CB40A923DB4BAD43D453885BD98522ABC200ED53C52F4843D6E64ACBD3FC103BEB0E1B4BC32624ABDB8D4AEBD7C2E8BBD00206FB9BC9D42BD0A888D3D1C2A353DE09FF53C661E3BBD68D0CF3C0A7B0BBDB4088C3D88B4D1BD6D2F073E73AF053E50B7BE3DE0893C3D401F37BB839800BE1AA5FD3DA204ED3D88164D3D602CA23DF69269BD14AB163D10E90FBD101AEEBC6CFFC2BD0C89893D96E462BD349DEBBD3827F7BCC673973DE02311BC7C2231BDE80234BC04EF7B3D085F93BD604B32BDF0B7973D9E00B43D4D82053EA1B504BECC9C573D0898003DFC937B3D421EECBD1C43DD3DA16FC6BDD45D8D3DF22496BD39F4A2BD6995B9BD80464BBD0412A9BCC874B73D325263BDE48707BD9403D3BD1C42C0BD3453E3BC5D1C87BD615AB9BDE8727E3DBA58EEBDA6C900BDB24308BEDCC0EBBC84F07D3D44622B3D9CB33EBD808DE43C8956BEBDA83AB2BD5061373D103CD03CAAC4AEBDA0305DBC66E3E8BDDF09BBBD36F5853D54A323BD3668E93DBA06CC3D88098B3CEC0F2B3D005493BA168A6DBD4099FE3BFE070EBD4894CD3D364CF83DE0549FBCC0F3A1BD525D843D802F3F3B5268D5BDEC061D3DE1EDD2BD7428E23DFC17A83DC2279E3D5017B3BDB648F73D08BB143D30BE8BBC4F8FD5BDD02F273D5A2DA93DC71E033E9089333C36864CBDF8CA87BD6C39F2BC28EF893C64697C3D4057083C716DE3BDC6BD8DBD6C784C3DDAB342BDB449A5BD7472DBBC741583BD74DAA5BC9C322F3DA2C1A5BDD6F2CA3D6C51E0BD580D34BDA496DF3D824DBCBDBC99523DB04A88BD009EB3BBEA08FD3D59F2E1BDA6F7A93DECA10A3DBA2192BDB2424CBD"> : tensor<7x16x32xf32>}> {device = ""} : () -> tensor<7x16x32xf32>
      %outputs_32, %control_33 = tf_executor.island wraps "tf.Identity"(%outputs_30) {_has_manual_control_dependencies = true, device = ""} : (tensor<7x16x32xf32>) -> tensor<*xf32>
      %outputs_34, %control_35 = tf_executor.island wraps "tf.Const"() <{value = dense<0> : tensor<i32>}> {device = ""} : () -> tensor<i32>
      %outputs_36, %control_37 = tf_executor.island wraps "tf.ExpandDims"(%outputs_32, %outputs_34) {device = ""} : (tensor<*xf32>, tensor<i32>) -> tensor<*xf32>
      %outputs_38, %control_39 = tf_executor.island wraps "tf.Const"() <{value = dense<0.000000e+00> : tensor<32xf32>}> {device = ""} : () -> tensor<32xf32>
      %outputs_40, %control_41 = tf_executor.island wraps "tf.Identity"(%outputs_38) {_has_manual_control_dependencies = true, device = ""} : (tensor<32xf32>) -> tensor<*xf32>
      %outputs_42, %control_43 = tf_executor.island wraps "tf.Const"() <{value = dense<[1, 1, 32]> : tensor<3xi32>}> {device = ""} : () -> tensor<3xi32>
      %outputs_44, %control_45 = tf_executor.island wraps "tf.Reshape"(%outputs_40, %outputs_42) {device = ""} : (tensor<*xf32>, tensor<3xi32>) -> tensor<*xf32>
      %outputs_46, %control_47 = tf_executor.island wraps "tf.Squeeze"(%outputs_44) <{squeeze_dims = []}> {device = ""} : (tensor<*xf32>) -> tensor<*xf32>
      %outputs_48, %control_49 = tf_executor.island wraps "tf.Const"() <{value = dense<-3> : tensor<i32>}> {device = ""} : () -> tensor<i32>
      %outputs_50, %control_51 = tf_executor.island wraps "tf.Const"() <{value = dense<"0x3E5D00BE188BC0BCE6A7933D163DE23D942405BE80C503BEEECDEEBDD9D3133EE02F103C50602ABECFD9103EB4191FBD1537033EFBDB0C3EE6D2E63D4DEFC8BD68020A3D28A4653DC72C103E5D752B3E374FA5BD9062B53C5481433DF0C99C3CE848853D2EDDC03DC6818B3DA0B0E3BB00E5913B46D6E53DC652B03DB6E0BF3D5FCC043E7257813D3EC407BE48016F3DA0CCE6BDE33128BEECBC10BD89811E3E8E33CEBDA81888BC80FC8C3C9458073D5E35B93D4009263D449031BDF0CEF8BDF4DC413DE0EB7A3C4BB230BE90F327BEFC194DBD432B333E845409BD8E59A93DCC2A0EBE749D34BD5B29323EF02171BDCB9BB3BD12B5B93D1D13203EA84DA0BCC7BA0D3EF84B47BD9CAF5E3DA90633BE50DF623D19DE2B3E3593253E3A961CBE1FCA8FBD1E1CA53D9A7522BE526D08BEB8B4F73C406646BC19A1293EAE5CD23D54A789BD51DA0B3E510DAEBD86D7813D2066B83B244C0BBD4059BD3B4C8022BEC6848CBD70928F3C5CE91C3DA615C33DC4D520BE205FB1BD1AF90DBEE8BFA1BD9E96C5BD78AF87BC08558EBC3762293E40769EBDE3191A3EE2B5E83DAA12D8BD4CD82E3D4CB6573D6034E73C9D828BBDC29EE83D241D43BD2F880F3EBB21113E6EEBC03DC09562BCDEC5E1BD076F023EE07E703CE2D1B0BD83F1A2BD409332BB3BA8C5BD7D432EBE0023543D404CD1BB211C0D3E60A637BD026FB63DC8AECEBC18DAA9BDEF1C2DBE1600A03D20DCABBBE0AD3E3DC02A60BB438F2E3EB688F9BDB9AF01BEB807E1BC9269D53DE0E519BD4A9F1BBEFD1DE7BD1D0F043EC8F308BE259B0D3E96462DBE12FDC33DF4B21E3DECA40FBE0CDAF1BDD362CDBDD9D4263EF4DCDABD281B633DE6B7A33D93330B3E9C372B3DE60179BDD1AB033E803BC5BAB79E063E7CE839BD05FE0F3E2444613D3EE9EF3DA4DB643D7C4523BDB8719ABD2EE49FBD5FCCB6BD61C0D2BDC84DDF3C06C4CEBD404751BBCA61B3BD20F4D7BBAE326EBD7E277BBDACCF6FBD8031CD3ABF360D3E80CFA63C37A1273E201C933B00D161BC1ACA2CBE105FB5BD3D581F3E4137223EDE1F963DE8CFF53C44D1283D74C8FFBDDCD710BEC930183E5CAF133DC2E0A7BD8059E8BBD8EBC1BC044732BDB188153ED2418CBD26B4A93DA885313DF89226BE13F428BEC02AC43BC69DF83DD01BF43C386122BD2600A23DE061B83B2E7920BE7C1B4FBD86A231BEF6F1BE3DED852B3EA8E5FB3C6F25073EBAAEFCBDD8CF6F3D4D4534BE80CCD6BB8848EDBC223D9D3D3E1CE7BD3FDD243EB867FEBC007EEE395EBDF93D94CAEDBD0DEB253ECDBDD5BD403158BC9CED53BD33A0293EE6517FBD62AA32BE4CF9063DA9D3123E4BE02BBE4AB1DB3DB56A11BEA3FFCFBD3D51283E66C58E3D28CDFBBD5F42253EC00EF2BDFD9EA4BDB3EF2E3E000CF6BBC468593DDA63A83D40F4D13B30F61BBE7C24DABD2815BD3C8A2CD53DC5601B3E00A94CBB20E4B33B0847B7BD48C104BD6912D2BD824C31BE152C2B3E3FD8343EDF59FCBDF2FAC03DD63F903DA84ECCBD95F71D3E94744ABDA76981BD5287ECBD99CB0E3E9EF6D4BDC0D60DBE6061823CFBD0223E4C2C30BE72BADDBDE021663D9723C7BDC85E493D607950BD50067B3D7D60283E89A4093E20F9213C6D9E153E3EE8E7BD000431BD3717313EE6C8EE3D14F8843D2A4608BE20F389BC0AD9DF3D6C234EBDE551193E9F9304BEFBE8333EC738023EFF640C3EFB071B3E100C53BC48A67D3D2EF6ED3DF65EC73DB29DFABD22A769BD443B0EBDF0C7703CD0639DBCA8131DBDB219A23D862AA63D6349133EA279993D068DD33DBBCC82BDFD0CE4BD0B542BBEBB5C113E98D07C3D7EADF33DD834E6BCDBC7DDBDF45FC0BD9B9A80BD0C7026BD86DB993DF4E10ABD39F6F5BD68C6FD3C58160F3D5FAD333E369EBA3DDB5112BEC888523D3C16743DC0DBFFBC10B1733DE99B2B3EFCB50CBEED4D1A3E4EC9973D18802FBEDB7B2ABE7855673DB5FF0B3E613F2C3EDE2216BE84BEA9BDA6AC973D58DC573D8056AB3B2D05C9BD50345D3C1C3F8BBDC6F28C3D6481103D8966CDBD4466FCBDF2B408BEBFE92EBECF1F91BD776A1D3E3DE22FBE3846E43C8B4487BD02DF863D601DC33BECF0293DD09EE9BCBB750A3E90B3403D201A3DBC81109CBD8A05983D991585BD40EBEF3BA6462CBE752B303EF2CBA23D401D91BBBBA8273E4C3D4F3DC70E10BE70DF7EBD3765113EC0E2FD3BDA8DC4BD746C11BEE90189BDA3B4003E339A0A3EF27397BD3981293E577424BEE1EA2B3EC0DEF43B0BF501BE007B2FBE59F807BE7E64D3BD092C293EB0791FBC209BC33B9151073ED87E843CE0667DBC08680FBE504199BDF0BBAE3C28D9A5BC10F9543DA825E3BDD1271C3E19F095BD10408ABD29B8003E1094233DC99C8EBD36A1F63D7CD1573DA0C407BCADC2323E4494CFBDD3BC123EF0CC4CBC3269F73DBDAF193E606D3D3D10363B3D4AA186BD986D88BC94FB443DE818513D695FCBBD301D913C40AD1ABB12A3803DB9DE333E48231DBE7A91843DE0B6663C566AFC3DB6AC22BE4891CD3CBBD40F3E8246F83D4099883C727FDC3DCBA8123E361D993D2441353D00722C3D31E00C3E703765BC5A08D43D4CBB2DBD0DF321BE88053B3DA0DB8A3D6AE023BE2E29B83DC04A943D30551B3C763AF6BD843C60BD3970153E47952ABEC067283C08FC26BE0035ED3A58DB16BE60CB8C3B3C7F4D3D1B6C273EEDC5113E16EC2ABEB13AF8BDB468863D9DC520BE6625D53DD99E2ABED207E73DB8BA4ABD9618963DFE87EFBD3F41003E0A5D13BE75E9B9BDC0AF273D5EB1B63D1A28A13D30D325BE1862023D50984B3DA80CB83CCB0395BD148A633D9900133E63062A3EA6ECAFBD9063FBBC8E48C73D4A5AEBBD1E468F3D48617F3D609C0C3DC874BB3C9CF14D3DAE525CBD6C9805BEFA758B3DB0BDD8BC9EEA1BBEEC42553DF0C0C3BC6E0EE63D9C7439BD5BB0123E83AA2FBE5BDF33BEC8E86A3D59B114BEB0F33F3C7D1E303ECE3AF03D8483F1BD522AE73D97431E3EBEA5DC3D6A37A03D64AF18BED754FFBD408D043B8DE6313ED53D32BE0C7C32BE440B283D4017523C8C633CBD8F80163E6367083E5A659E3DA62FA3BD32ADF13DC053E4BC8463643DAE69BBBDB80D23BEB0678EBC22100FBE496A073E10C4D1BC28CFAFBCF5D6E8BD9D318ABD2DAF11BE95B12D3E9C813ABD4F75213EE278D83D7722163E26BF813D86D4A53D020FB53D1E20A2BDA23D8E3D526A883DF8DE503D6AC103BE24EC04BDB33C2D3E473C0D3E6BC083BD985E90BD7ACBDEBDA861923C865BBA3DD3B3263E40C9C5BC52F5F43DF0E7F2BC97D9013E6295E6BD2778143E643AA2BD2084383C000325BE189F3FBD407F9BBBC03E573BBEDF9EBDFCE7723D7C0FFEBD5545153E65ED12BEA4F41FBDC5E22D3E5C9C28BDFCF511BE5C5E0CBED96F0E3E7BBF283ED72E25BEA7CC2A3E087DBA3C97A2F0BD8A56D83D2ADD903D7CB11B3DCCE032BEBD2BFFBD40618D3B20D397BBC0DE54BCF1441EBEF21AB33D7A67E73D80EBEE3C245D56BD68A9453D500B0FBC14D101BED0AED33C2B93A8BDE5D71E3E7E8B08BE1AA2DC3D468AD43D6BC2203E1D96163ED8E4B8BCDC30633D9015C2BDC9ED33BE48319FBD602B8BBDEC3DC9BDA2C6E43DDF1E303E9605A93D985B563D00CB8C3D28D6E5BD940383BD1714343E0AE32EBE37A91F3E61E4123E987FD4BCFAAEA73D649C6EBD8C95EDBD00C305BB0F61343E822F7CBDA65ABF3D3013483DAA6263BDA054883BB09E0BBE7232903D788210BE7948003EAB830C3E60B0E73C10AFE7BC50A4F9BD56B32BBE4E5E54BD38C0E6BC39DE233EC182D1BD4CF0F2BDEF970E3E8F3FC4BDF9920CBEE9D88EBD75D60CBE2D7F303E162ABA3D70F9B8BC2657E43D8CB7D1BD32F7D63D8C735BBD3678F33D70303A3DC0854FBB003DEEBD78BDAFBDB832F0BC4ADEF5BDDED4A23D8D581A3E788195BC248F98BD0E7AD43DEC7C12BD207EF1BDD072D9BC2B18233E90E034BC521C99BDFAFFFF3D3115153E8603FC3D871F90BDC235ED3D369B9B3DE86895BCC190203EC9DE0B3ECFC929BE987E0A3D74300F3D0C42243DA265D93D9AA37EBDCD4B1E3ECCC11E3DC61BC23D2C30F0BD00DA6F3A017133BE4B752CBE512C033EDED0A3BDE9D0B8BD18A3873C17D213BEDA5CDB3D4B8D113EFC1A763D0A4ADB3DDB9732BE7885DABD82979D3D3A5EEF3D76161CBEB8C7FEBCBE6D25BEF128293EE653D73D92E2803D72EDAD3DEE22BD3DC012C5BC6A389B3D9442A8BD8837ACBDC04CE2BDDB7629BE4196173EF298993D060FFE3DD5FE333EEA21EC3D18920DBEC0642C3BAA2DBE3DE9F4FFBDC6B05CBDBAE17BBDC36B163E004BCBBBC88867BD58CD1FBE4E3592BDE4CEF1BD1CA24DBD5209BD3D4AF5B83D3CEE51BDE5E624BE26DA12BEB545003E2CDF42BD207AD9BCB66FEF3D467FEC3DDCE94E3D247410BD0B3E043EDC34EBBD0C6ED2BD609BF9BCB9E50FBE250EACBD0D2E333E105F8B3DFAC49BBD9801E5BC235A08BE90A27F3D2CA38EBD983D3C3D454E02BEA0661D3CEDDD10BE1A939F3D08B3353D1F291A3ED4615EBDC833273D20B43B3C02E4D13D10F6FABDB46528BE7A6CF4BD9285FEBDE06E443D646623BE007458BA519CD6BDDA9BE63D680432BD102F07BCA66BD13DEAD6F03D15EED5BDC304033E003EE8B9E0C7A7BC0EFAD73D171230BED8956E3DCBE1C9BD5E53E53D644224BE78AFADBD04601FBDFD8618BE99510CBE5A25D53D9A7EBF3D6299993D71BA14BE6E22D63D26362FBEF1B41E3E82C5BC3DA63A67BD41E7333EC6ECD53DAFC717BE93BCB5BD68852ABD1461E6BD04A111BD7CA0FEBD40EE0B3DE0C5C73B1B58C5BD3260C9BDA9C715BE448A41BDDA4AAB3D00AEE03C80D2DCBA6C5F29BE16F2AD3D66F2E9BDFD46E5BDCC8B8D3D709635BD90E910BEAB50D4BD1347E1BDD5E7C8BD603381BC522983BD25EB003E3BF52FBEB23FF33D003A5F3AC0C4B1BD6AC4F53DED8F18BE8050C5BB7941183E0D2C00BE0FCD333E9AB4C63D986C653DD59B04BED82D2CBE6D79193E15CB2D3E52CF12BEA0DF25BDCD26243E9C32043D6AE3A33D78A29B3C0056173CAB0B26BE6C914E3D7C94103D1FB205BE40735DBC107C30BD4988303E30FD14BC9C7775BDE608E33D4BDEF9BD9236E93D4E0BFABD2EAC57BD89CE08BEF0AEAB3C915C193E8123043E4E98A6BD80682DBC3F01213EF173153E4085B6BCA2472EBE7A05E53D0EC530BEC8CE1CBE00DAD1BC80BB73BD4E46BF3DE09ED6BBE6A5A1BD9205863DEEFA9D3D8005033B79EF343E46F6DE3D70E0F83CA28BE83D36A1E43D80F16BBDDE07F0BD163CAD3D72D5FC3D3DE6BCBDF835E6BDA4B7C3BD27DC0BBEB0CE903DAA78CF3D3CA929BDF0651A3D7C6C33BE20AA39BD5F8F053E5E0615BEC295CC3D9E08DF3D2E6AFD3D443417BD70517E3DC5AA86BD6C3C19BDB44A6DBDBEDF8E3DF4EE0EBE64B4323DB5D1303ECC0C6E3DF08E483D75680A3E7C3422BD289FFABCDD64343EB328223E0E4FE53D8CCC7DBDCACCA93D55822CBEE435753DB29379BD33330D3E86BDD63DE0F9CBBC46B1803D9618983DA23FA53D362FFD3DA09A1D3C427CDF3D3CDE07BDBDD4333E22EEC23D0185B9BD11889DBDB21F05BEBCC80ABE828BEE3DB8BF3BBD5CC911BD80A5E93BD067263CFDD22A3E32FCD2BD12A8FD3DAE57B63D94857D3D2F31303EC50B06BE7815E1BD9E0AB3BDDC9F77BDA6A52FBE966B903D0CE589BD7115093E500D23BD8094283C00A3C9BAECED8E3D292A1E3EE849A4BCF253E03DD9FC95BD999F0A3E70E078BCB35217BE13D620BED024893C5098313D0133D6BDF2F99BBDA76A00BEAB15303E3E13A1BD196B84BDE2A5823DF76D203E68268D3C397987BD7BF32EBEA4364BBDE4981C3D50333A3C9BF402BEFE93813D7D982F3E358E1F3E4F7D01BEAD97203E417819BE4F7C2CBE42C4C73D91B226BE18A9E23CFEC407BEE1AF16BEA065F0BBCA65CCBD5870013DF7F40C3E17C82E3EE4E134BEC8FC1ABD00B8E6B99A69A53D40E04EBBF3AFE5BD906CF4BD7ED52EBE32AABDBDA738063EC76A243E4A4965BD815E153EE86A40BD5EAFC5BD08F79ABD3CD136BDB620C43D0AACD8BD75B7203E381E99BD60C4D3BC44E106BD7ADF1ABE57B423BE2CF7A5BD45C7B5BD00997C3D54EDF3BDB4060FBD38E63BBDF46651BDD8B8C8BCB09540BD3F6D033EA77097BDCC632E3DFCB6ECBD8A33EA3DEF0C1A3ECE1FD83D1A8107BEDA09DA3DD866EDBCF02427BDE63BBB3DE4FB703D8825CABC1EAFD83D305A473DE2A065BDC8AFFDBDE286FC3D0D27343E6B27343E7C028DBD84B1413D59BC1BBE28C3EF3C46BAE93D004FDB3AE0EAC5BD76E3C63D44C7903D00318D3D3026723D86CC79BD40E110BBCBFEAABD7219993D122AF0BD1072413CD3950C3E7434673DA3BF193E3A02CB3DC0ABC33B71AE323E5053063C0068E7B800558CBDBE1AF43D3A658F3D095DBCBDC87E91BD1A7FEF3DA6FC84BD7B10313E20863E3C8979213E8026C5BB408F0A3B3317BEBDC7061DBE8416A0BDFAE8B93D2E9D17BEE3921D3E00A014BE470B233E5A992BBE86F4973D201BAABBF033A93C806A99BBB6DDA6BD63AE1A3EB452533DD1A6163E3254E13DA3532C3EE83906BE8CB82FBD29852E3E37132E3ED1D912BEA8D2A73C38DAC6BC5881853DED99E4BD34760D3DC625D53D786A7F3D6A5DC83D2621A93D212D96BD1E29F13D987A983CEABBF33D7A5E76BDF07AA5BC4341203EE87A8DBC7B121D3EBB17103E91BE023E7E5AC03DAA4786BD42200CBEDB2EEEBD05C4BEBD5C57253DD0E62CBD0E17F83DDC477CBD01EC203E87812E3E06B8C33D257E173EC61112BEFD140C3E6DBA21BE8FC221BE706332BDA0A42C3C440F533D543F2DBE388BFF3C601E28BE2CC3553D00814B3C8E4F12BE6E5E0BBE4AD7F5BD108076BD283A2ABDC8615EBD4C6E69BD000F22BAC1A7F1BD47A8BCBD024FAB3D70014EBDC0A8DA3BB869303D32F7D63D782D79BD205C47BCB630D43D6C752FBE9A2521BE10278C3D08ABF6BC82E7C13DD6ACE9BD921A813DF77D263EF8959F3C180612BE95F61E3E523509BE1C0430BDA2CADA3D7AEF0DBEB052523D2AFDF83DEE919F3DF2D4FA3DC0D340BB8078FBBAD8E3683D74157D3D40F31CBBCE6BDD3DA05AE8BC006B903C902C6A3D34C91DBD252286BDF674F4BDF443343D58498CBC86AACEBDC77C333E46429A3DAB8FF1BD08991DBD4EE818BE708B1CBC00B2743BC2D4D83D89C79CBDD272F3BD52760BBEC2BA19BE570595BD601103BE206E4CBDA87323BD8893893D674B2B3ED0E81D3D80F2623D55D215BE840242BDC2EB1BBECC14933D520697BDD39A00BE140C29BD0EADDC3DE685BB3D8688C93D008DD83A6313053EC05A28BBAAA2D9BD00F4E53B331E9DBD6847A6BDEC82263D586B743DADB833BE3659B83DD989103EFF40DDBD523AFA3D384994BC5B89CABDDD3591BDA1F1C2BD2E76973DFC144F3D002C373A9E69883DA51900BECCB853BD47B82DBE1028F5BCD03889BC254607BE20A9A33C000F863CB066693C2003C43C960ACABD3D23B2BD65DFAEBD50996FBD6096BC3BF05B203C5486F0BD883040BD21141C3EA83308BD0A5BB63D83950A3E4C3EDEBDEAB6C63D2A87ADBDA22221BED83EFDBD04F0E8BD8F432D3EEAD9DC3D25F90BBE0072AFBC4D99043E10971B3D833D1B3E647E21BE119789BD50F16DBDF6BAF93DC6BDB13D5EDA08BED091923CA583E9BD1E81F7BD3771203EEA33B83DDBA4093E030ED6BDFFE7C2BD81D21B3EC83AF5BCC952313EE652D03DDEEFD2BDA0F6ECBDCCB74FBD10D3053DF0750DBC60F4F4BB9E1ED73D407FA63C72FDB13D00F66E3B02409C3D0867E9BD3686C03DC8416D3D80C2EC3A345729BE455BD5BDAB73263E7934243E956003BECB59133EE0A29F3C0AA4E5BD21E3283E2001413D705C5B3DC0BC293CE0C113BD704FAF3CF263C13D78AE00BEC2A59B3D908DE7BCAA38E73DA7162CBEC8743EBD58C9A5BD43C42BBEA197163EEA5DFF3DFDB2203E95C2093E9C4710BE30A82F3D8749313E007DEF3BC6FAB2BD6E6603BE6297F83DF6B0AA3DF85ECABC8CA438BD022D7DBD30D1CBBDFAE4FF3D97642E3E62E3DEBDC86C9FBC0AE719BEA4E4C1BD80CAA9BB6A550BBE2123043EAFBF84BDBDF480BD1BD1073E6002083D407504BE4037A7BDE0668EBC0DD5C3BD18423E3D44EC35BDD8939C3C899FE4BD44BCDBBDE60B0BBE7316203E0EE5A23D145487BD11940CBEBE6B0EBE944F2F3D55AF2A3EB0A4873D1E44E9BDBD4C94BDD221DA3D6BA5183E809260BB8CC30ABD804854BC904B953C005BB73A46E2F53D328CC8BD30CD9ABC964AFB3DD895E13CB4BFBBBDB444DEBD5267E13D5D782C3EF176193E80C9D3BDCC7B81BD506453BC8CA14E3DBAFFFC3D284D9B3CCA6FE73DE7F9343E57B3003E1105073E008CB3BBD0D5CEBD42642EBE850F05BEC10C003E5B952A3E5E04D53D8044C2BD6C48CCBD2409803DADDC04BE541B19BE1208F33DE04CE3BC98D0D3BDFC16233D2E31963DCDDA213E234CBFBD80C6D43B7C244EBD044E2B3D2FB6023EE46D703DF38204BEEDBB2D3E2161193E9C0D1D3D02D70EBE4AF26DBDE0DCE2BCAB242BBEE2C6CC3D8B831E3EC47F033D5843BCBCD8D80D3D40C1DBBC60903EBCCDED303E1AB3C83D48BC9B3C18FF0B3D527A983D602904BD0253CD3DC0C007BD8E0FADBD906824BEFA44C93D06BD32BE65C6C0BD988557BD777A97BD597E093EA0882C3D4A8A77BD349530BEE88D713DB277D73DD045413D50B752BD804B893BF073293C7849533D6805433DB4F955BD021C953DE057843D5DD611BEB24F953D81D81ABE7A0EA83DF13D193EEBCD1C3E96D2CB3D3ADACF3DA0D9383D2BC815BE6278973D7107303E64F37F3D547F1E3D642526BE206A6E3CC84E3C3DD7FE213E0096173C787D23BD00DBD7BAD8C432BEF4B265BD501F8B3DD87F99BD005F62BB2C2B94BD45E8F7BDC634EFBD1B2934BEE032EBBBBAF1E53D4801C33CB004373C75D2213E4022E13C5CCBDBBDC6A8AE3D405DFCBC8666CBBD177013BE7AEDE43D487ADDBC70720D3C0E69853DE5EC32BE55C8193EB476B5BD14FD4EBD7D9B95BDBDBE0C3EA2EA0CBEB1AD103ECCDE4BBDB026113D1776DABDC04C293B00127ABB7C3C463DED04253E3873FCBD9E7CAA3D782409BDDC3056BD0018383BE964023ED594093E9897E2BC36392CBE0CCB833D104E38BC3BBB003ED019E53C9C4845BDDAE7AC3D0780253EF668E63DDF9E0F3E887815BEDC562C3D702F733C4262FABD81CA9FBDEF22233E137134BEF816B9BCECC81BBEF1E5273E785CB1BC888B96BC06E3C23D02B5CD3DEB38013E0342203E688F2DBEA04AE5BC3851B9BCA57CBABD0300243E9A82E6BD1DBA2D3EAF50C4BD1335033EE1202BBE8C9946BD21312DBE2C3A2B3D9816013DF03D12BD5D33313EC58C293E8CC5063DD0894B3D433D133E6036DEBC9D1B1B3EF616E3BD0802353DD05A08BE490E85BDA4E32A3D43101CBEB6EFAC3D3F01EABDF1A584BD9424663DD0412DBE883D91BD4097AEBC79E3053E232326BE162927BE9ABBA03DE6D913BEE2ECC93DA046C73B585FDD3C740F2FBD59C1003E8070DBBB6850333DB859F3BDD8287FBD6A49B8BD9067A33CC06DBABD3668C73DF85E083DF855A6BCA838DBBD5069BD3C8710073E9BD2203ECEE6F73DC0701E3D48769EBC03C42A3EC783053ED232D43D77E8343ED146183EF699BF3D35AD023EF0DF5EBCDA05FA3D5B40093EACAA5F3D34B327BE4E5524BE74C21EBE095C17BE08E70F3D9257A03D2293ED3D36B9F63DBC16563D45BFBEBD834B9FBD6DE530BE1F61B8BD38BB72BD4D2311BEBFB015BED04945BDEE3EF83DF6EDC2BDB817FEBC8379A4BD4110D0BD3969ADBD7D5FF7BD000E2FBAE0A886BCC87716BDA45704BEE858893D8B1E0A3EF81F46BDA57C193EB21DB93D16EFE03D307200BE241105BDA0DC69BC7AB9EDBD9E42FA3D42E4B73D1179213EF49D923DE20E24BED99802BEA8E296BD25A32C3E7C98533DC4F7803DAC406DBDA8288F3D53E1033E378C243E2DB3323EC7E7A4BD18C67DBD30D0F8BC49C3FABDE44110BEFCB61C3DE6DDCD3DA0EE1C3DBB5A8BBD6C482CBDB1121A3E5856B9BC9AD623BE04F221BD29E10E3E938F2DBE308E613C6173223E7944B2BDA0CDA2BD95F82E3E1661893D62B3E93DB4B442BD005ED13B15930C3EB47CAFBDF828D73CC0C335BBF8D8433D590DBDBDC37628BE22F402BE5EC3F43DCD69A8BD4865B23CA6FDA03D31482F3E9060EEBC37CFA2BDD679CBBD13D917BE5BBF23BE6843E7BC821BDBBD7CA705BEE07372BC39C0CABD639F2A3E38A7B5BC68DF40BD4467413D07EDD4BD4D761B3E1BC0173E51161A3E00027EBA6C926ABDA29BBE3D5699FC3DC23CA6BDD67917BED2B0833D80F1DC3B2296CE3D4F98B2BD8CD66BBDEC3545BDE235EEBD0C9457BD10141EBC749621BDE6F2D63DC8A47B3D6A65C83DBAA0AA3DFBDBDEBD12C6803DF7C19CBD6C8D2D3D7C6403BE28C2A6BD221FF03D9B04FFBD0F390C3E067903BEC0FC933CCC1F49BDE5D0A6BDB805023DB6E99A3DE04F7EBC82C611BECD509DBD2FD91B3E2AAAE33DFC23B3BD6265FCBDF2A024BE9443423DB2ACB73DF4053F3DB8D401BD192E9FBD9D33BEBD8F9FF5BDA8C6AA3CE642A73D0098E0BDF1D59CBD7A30C73DC742313EB218E1BDD0DCE83C8A9510BE3608BBBD3311123E8BDEA8BD55D2F6BD005F9C3C484E19BE66B7B6BD9032A2BC1CC820BEE4D4553D1EFE5FBD47E2023EFFE632BE0E3608BEEECAE9BD6C1DF2BD00B1103B9BE12D3ED2E3B9BD25F72B3E6F140C3EEB81EABD5EADE83D30252BBED4D47EBDEB5EDDBDE80D123DFF15AFBDE3B8173EBD7207BE375CB4BDCA51C4BDA2D95BBD402058BB5DFF203E8C3D563D9FC727BE3EC2FFBD5C08863D1320033E7EEC0BBEA33787BD7C90403D2C662BBE5CCBA4BDA0671DBD1DC4D6BD61840C3EAFEE003EA7B287BD6CF7413D213D0E3EBF910E3EE8C532BE404191BCC031EABDB8AF48BD209B8F3D52902EBE188FBCBCE07384BB32BEA7BD0639EDBDABAA283E6753123E307EAABDF0E3DCBCE07338BCE0F54EBD86DDC13D40778A3C4297EC3D686526BE34241EBDE1F7C7BD0838D9BCA66C833DBA65BA3D3C50B5BD302E47BC21342E3E46E09ABD00B84FB9D1D586BD78E3D6BDE6418ABD18695FBD20CC1D3D14C46E3D4D4BCBBD18AEEABCA0FBE03B02C0A83DCEC3C43DC22DE73D9F91083E7DA4143E04B990BD7759013E6225A53D8085B1BC16D0C53DF42E3E3D1EFA28BE04FB103DB9280BBEAA04FB3DAA0B8F3DD115D1BD71AB00BE6A831DBEC862D1BD541834BD8236CFBDD6A6BE3D489703BD09FB333EE509253E10B297BDF6CDA1BDC4400DBE72F6FA3DD187A7BD74AD0ABE58DA0F3D8249BF3D241C12BDCFA500BEC0B6DD3B9001633D3296F13D94852CBD49BEF7BDD86E403D5AD3B13DD4A3B5BD56578A3D30C6D8BC1122253E128EF63D4FEA213E6D8C153E9585173EB66D03BED85E38BD00D6103ADA6DE23D2D0B313EA8CF51BD9032B4BDCA3C5BBD60D62ABE514FD5BD82BE8E3D1E43E93DEDC29ABD1F1785BD56C2FEBD7801433D2C9E06BDD872CB3C3281A5BD2BAC1CBE2021DC3CF3C7303E208E85BCA0CB213D1132B6BD644E2EBEFF580BBE6EC7D13D3789BFBD989B833C806EFF3A4752203E2D61303E2924163E1289BC3D1910133ED8B8A1BC76F4CB3DA486933D8BF51B3E8220ACBDA886B1BD9D50103E40BA9E3B88CF003DBB931E3E1E51D63D6C5032BD49F02EBE6E0B8A3DC86BE43C20D20ABC02E0FB3D2E0EB53DC00A503D7413553D18EF933D58A75E3D5CC370BDEE13B23D38B42D3DE2C8F8BDFD5F243E00560F3BCA06EBBD57A9143ED02F3FBCC62EAEBD6F1F053E40AF023B8510E1BD713F153E42B4913D3C872D3D6605D13D960FE33D4F70153E621DF23DC26BC83D84B332BD3C895DBD02D15DBDC57E2A3E2EA9FF3D8D6C1EBEE65BF43D006E5C3AD872B4BD77E82E3E9E08CABDF01B28BC2819E1BDA8E83BBDEE69CA3DA0CE63BC215B13BE1B0E0E3E85C0243E4FA98FBD74F85CBD1D26333EBACB2EBE4E48BA3D0120273E80E70B3C4F94213E9668B53D7907263ED70C1C3E9A2231BE46305DBDD89E13BEC094113C9804203D483D943C3F86C0BD5AEC7CBD7C86403D46DA7CBD80E0DD3AFE8C72BD0A5114BE5896F3BC9B71003E782EED3C80850D3C327274BD720961BDE0073EBC484B0FBD6FD42E3E9EF806BE3DA9123EF7B521BED6C3B43DD9D10D3E370CA5BD9C886ABD0057B83A31A283BDE8BEA93C444B42BD142FCCBD00B94FBA00E0FCBB000A353B210982BDE0E50FBEACC237BD9DE2103EEB2F20BE70DE13BD98EB323DA0D0C4BC011629BEEAB19D3D72C0FD3DBC381FBDEACA09BE81CBA2BDF681A73DD928083E94A28D3D10FA31BC47FDB9BD5663FFBD8082743B98DF4BBDA9AEB4BDE9332CBED87A923D9F54003EE0FEC0BD6A42E43DC3AB173E6EC0893D40538A3B449829BD59C00ABEF04A783DED630C3EE0C1963C60E2C83C8AEB8ABD1FF3013EE0D7B93BC8D422BD06A7C43D29BC283E0177CCBD4533D6BD8E6ADB3D71D1043E714B023E6040CE3B07D6BEBD3E31B03DFB7498BDE71D053E4004093DA06FB2BCBC0782BD10D1643C62F8BF3D0584203E95C10D3E283D183D60D82FBC902D033DE211AA3D85D2BDBD10D0EF3C86A179BDA03827BC5E5E9A3D258185BD925DAF3D04CD4FBDCD8C243E9DFD10BEB0C486BD0C190A3DF221B33D3B3A063E7A5226BE451F333E0468223D72117EBDA00D7F3DFF2C063E8084603B91441E3E5381173EEA13D73DA49EEBBD7C9174BD616B2B3E9BE21CBE88138B3D1910D0BD18EDBD3C787D13BD73D7DABD2680993DB9A9093E6F7DCCBDA651A4BD5952113E86B52BBE918EB6BDD041E2BD58AFD93C27A18FBD51BC173EE8D7AC3C9CF0753D86A1F5BDC8AB28BDE5A1333EA2275CBDDEFEDE3D008A8A3BE73DB3BD08003CBDB480D9BDE057173D7727A4BDF89C9CBC26C9DFBD70D3EB3C311E323ED4B2D3BD795917BE08F828BED71A243E00B1E13C909DB7BDB0F5363C09800A3EF7971FBEF4C939BD889ADBBCD8F4D83C29822F3E3469293DD48DDDBD22A6E33D64D14DBD52ECFB3D8C0EFFBDA211CF3D8ECFF13DF60BC9BD28B420BEE74A133E5E32EB3DD03ED3BC145AFABD610699BDC0992ABDF0B94DBD25F31A3EF043213DC28A85BD6AA0E43D348C503D3C761CBD40324FBB8C086DBDC4A027BDA055EABC6CDA11BD498A303E83552D3EFAF99A3DA0CC5A3DA015903D0017F23C56F5CC3DC228E43DE077763C784E0DBE727010BE227608BEAF4021BEA048B03C8AD8CB3D587B2DBDBA7E873D5C11223D8E2AC2BDA053873C380F703D4D4FDCBD4A5EB5BDC3822C3E30EE4E3D92A4F1BDE84767BD1FEA213E68771D3D280ECBBCAE1EA13DC1B00BBE5F2B293E2030A73B502BB0BD75F706BE2E83C8BD17122ABE3F47233EC02C443B8C7E393D40B905BDA06CBEBB90F2353C1D42013E2580043E2440E9BDBD561A3E3C38043D66FF1EBE68BF8B3DE1ABA7BD88092BBE0BC5083E937FE2BD0953CFBD443833BDEDD62FBE40B2193DD82310BD404E25BE286129BE8E81873D3657AF3DD8BFF4BC7825E23C3C5940BDCD682F3EB80C033D9AD7DC3DA099AB3CF95B033EA076FBBB279B07BED27EF63D3AD012BE6897E63C2BF380BDDC6B8ABD7FDE1D3EFCDD30BD801C54BD27ACF1BD9001FDBC4BD62BBE0D521B3EDF8A1B3EE0BD22BC58181ABDB4180FBE1C69833DB00C1B3D1C6D13BDF07E7F3DFE10C53DB0CE903DEEEC9B3DCE3731BEBA12923DE03E4BBC9207993D94CA79BDA3882F3EC7DA1A3E2D9ADEBD1782A3BD3012463DDE46A33DD812A73C2575163ED489D9BD940208BE6642BB3D6BBB8DBD4A6AB93D001E84BD007900BB225DA43DD0ED573D00E800BB3C4870BD6852D83C00AD983B640E823D9887DBBC65570F3E188D0D3D25D9143E0656A53DC0336C3D5964003E071C29BE624F803DD86CFB3CB0C2ED3C70FF013CD071653D3FA31B3E36142CBE6A7AC33D0B6A153E960FA33DC60DA73D3EAA25BE6677A63DDA1BBD3D0D7702BE7B84D1BD0CB63EBDCADFE03D009F193C0920233E803BCD3A928584BD0A8FDE3DEDF787BD4C806C3D25E7093E1EAF33BEC0EC06BCEDD4D3BD2D77B4BD889EC63C6289FA3D767BA83D130B8ABD867EC13D5A0534BE88BE22BEFDE5233EF5D9AEBD23AC2A3E3E8F18BE2A56BCBD947F893DDA72F23DFD8B003EB0A54DBD70755F3CB1EEDBBDFEFBDC3DF3EB183E142107BDD8AAF6BC5B7A063E943F493DC01B92BCE067783D134D183EB0355E3CC71A0C3E98491EBEBC90133DA840BD3C30AA6ABC107B19BEB50127BE74E25ABDF4022FBD4979A5BD688794BDBF212A3E4BA10EBE6EB0EA3DB76BDCBD70EF13BDDE6CB33D016AD6BD42DCC83D970A1B3E5E81CD3DC8D217BDE4CF74BD383D06BD93E1CDBDCF23313EF6C8DDBDDA257DBDE4D3F0BD995C133EE0B99E3B40CD86BB806269BD5D3D24BE84605F3D08BC083DFBD9D4BD52BEFDBD240132BDADB4E1BD6EF05DBD0D3A093E70B8F7BCB45E08BD808328BC107043BC96A18DBD8A68AE3D3E6FDB3D448F3FBD778A25BE38FE843D30223A3C9C7E42BD49F1A3BD9A6F58BD931327BE380325BDEE2E23BEAC5814BE1C7804BEA86D843D14C710BED6EB14BE6079E83CB56523BE4C1B923D3E4010BE6060E1BDE898E33C00C814BD2EE7983D881DA53C3018C9BC1EAC63BD9C4313BE601761BC6BEA0C3E2D08B9BDD8B438BD84A6763D1A1F80BD8403783D08706C3DDDF427BE5020993CC7AFE8BDA6BECF3D3E59F6BD889AE1BC325E983D24391BBDFCBA283DDA9F0DBE8000633C26E46DBD744BE5BD70D610BEBAA7FC3D56199E3D7F67173EFE32E43D4B1382BD3759313E1674C4BD22FA21BE5642AC3DE83703BD9A67F93DEDAF28BEC27D63BD40A57E3C5CAF6F3DDB482A3E10E797BCADF090BD48992EBE7C26FEBDE8AFB8BCC0CDE3BC73720F3E673033BE8E1A88BD4BBF153ED8541BBEFE4566BD38C6653D00B3A4BB6E05AE3D3A6DDFBDFE0AD5BDEE729A3D7BDE96BDF8E5D93CC088843D83B9303EFEFAA63DA0E106BEF6B988BD0C6A49BD43EB0C3E40519E3B80A0363C624CFE3DCC5C103D8089A6BCC492903DB066C9BC9340B4BDF1FA303E48F105BDBFC8CFBDFB720B3E29A3233ECAA1F13D1B2F323EBF7B253E88CD22BD5625D93D95A1253EA7DA28BE667BBC3DD283D93DC0EF6BBB7639C83D224EDA3D42690BBE2A25EF3DD084ED3CB03A2F3C5266D0BD0021DBBC2A9EB73DFD4C1E3E501DB3BC86B9B53D193E2B3E44A410BEC8A2D03C0CCF79BDD3CC2F3E78A65E3D2097293CA0E264BD0655F43D46D7E23D8C5EC7BDD1BE313E798C28BE10EA76BC9A64FABDD102F2BD085C26BDDCAE0FBD9EBCE03DB17E07BE75A58CBD40A24F3C28C59CBC6E46EB3DCD51113E50FFED3CD491FFBD849C683D681734BDBA3A0EBE844888BD317B2C3E366CD73DB383BDBD462EA8BD92E2CB3D5489243D4E15FD3DEC01823DA8A5783DF43A713D57232D3E762162BD6248DB3DD2DDAFBD92A501BEB45B2ABEB79D163E49DD1D3E1CAF04BD9823703D302A4B3C204A02BE14D18B3DDC980DBDDCEACCBD648717BE0CC72D3D20E026BD2A24CC3D7E2FF43D597DBBBDDCE8063D9881113DECB9473D4C6E893DF4381EBEB0B8713D08C328BDC03D1B3D6834BCBC4F46213E73011F3ED01F703CB0AA303D2017F2BBBC39E0BDFE88BC3DD4BE083D92CB9E3D97C81F3ECED2BA3DDF0C20BE90BC853D828EF03DF00D5C3C001E05BDA0361CBCA299A03D8EEBFC3DD3D61E3E502F9A3C623CEE3D57D3B0BD705288BDCCCF20BD341A883D8814EE3CA00D7D3D4F00163E9B27123E42F8F0BD8843E9BCB4251BBD0ADD86BD00FC4DB994460BBEF4100EBE98A733BDB80983BDA33A15BECC4E25BDCDCC2B3E68DFBDBC60904FBD50E1043DDFE1293E31AB2A3E64CB4BBD50A3D6BCC2CA883DF43EDFBDF23D59BD2038D13B57AA133EF3CB1B3EB0B50EBD0EA36BBDEC4265BDAACAFD3D44E440BD842339BD540812BEE0C6873D99A21F3E801E993BD8865D3D7CDC103D60604D3CE7BF013EC806BC3C8A4E9FBDA08C5A3DD246A43DF5EC05BE2BF614BE400A263B582FE7BC9750B9BDC20BCEBD2A54B93DFA38F93D1BFF2C3E141BC4BDD2A3E83D9A5C58BD10793C3CFCC8513D4FB696BDC09897BC300C763C430E033EA4E57FBDC06AB83B723CF73DF0AA493CA0638BBC6C09043DBE5AD13DE8D1783D8157043EE02F31BDB9CA2E3E321F9E3DD8F1193DF93B023E0DC7203EE2B0E0BD58C5633D2291DE3DB33A2FBEA1F434BED3082F3E57CA243ED01D57BCD8F953BD579B1E3E5A919D3D90981ABC41972D3E9B7E0BBEA762113EBA2BFD3DCA47A93D07C20E3E4988243E112D22BEA0B839BD922DFBBD7611EF3D2F90B5BDC63E10BEFA91823D9BEEE3BD4AFBCEBD220AC93D24CE17BD2C5B23BD155013BEFA9DCA3D2CF1013D74686BBDB0AC64BCEE5AB23D111B03BEAA2E983D90015DBC2E581BBED853BD3CE85FBBBC0030ECBB745650BDC086463CA2A51BBEE8FD83BCD08924BC902899BDABE71D3EF2B2E43DF837B7BC23B329BEA2482FBE6E40DC3D9089553C1DD52DBEF2D0D03DBF4503BE06C1C63DF5291F3E6294EC3D68662E3DA8E6CABC00FB5EBA9772123EFA06E13DD8356DBD9E7BD93D3C27CCBD88BFFF3C244F91BD3767193E1FED103E4326173EEC348BBDF2D01FBE1EC8C03D20F58ABBC2D62DBE324FBD3DBB1A2E3ECCB72A3DF24BBF3DA4DC22BEBB07F9BDE01358BC67030FBE13E52D3E02B1803D16B1863DBA22BF3D4AB6E23D09C912BE3ACFD23D0D2085BD284901BD90ED693C8C0515BE43AAE7BDCCA18FBDEA79C43DA0DFD23C4C731DBD75EB17BEC081813BC8B95C3D4299AEBD90CA533D4D112F3E30DC593C2E3F25BE4C8A16BDC893C93C412C1B3EA28D0DBEEC8A653D29C7053E24602CBD0F3F103E9043553C726A5EBD37EC27BEBA5DE13D9812A0BC36ADF6BD5BB220BE4026963C24BD543D4DDCDCBDA2E5F53D1D38EABD00214D3AD7DA22BEF67A91BDCBA3283E5028CE3C2E0ADF3DA697CB3DDBD7203EFA36B63D03D1053EE84153BD571B023ECCC4873DDDEE303ED3ED293E860BA13D9815443D308B54BCE0BB03BC0A14AD3D009D333B4699AB3DBD960A3EBA05F33D8845C63C40586D3C2283AA3DEA8A9E3D08F971BD0042DC3A4348EFBD6F37EDBD1A23E93D8B871E3ED65CFFBDC6539B3DE606D53D6CED5DBD976C293E7641B7BD"> : tensor<3x32x32xf32>}> {device = ""} : () -> tensor<3x32x32xf32>
      %outputs_52, %control_53 = tf_executor.island wraps "tf.Identity"(%outputs_50) {_has_manual_control_dependencies = true, device = ""} : (tensor<3x32x32xf32>) -> tensor<*xf32>
      %outputs_54, %control_55 = tf_executor.island wraps "tf.Const"() <{value = dense<0> : tensor<i32>}> {device = ""} : () -> tensor<i32>
      %outputs_56, %control_57 = tf_executor.island wraps "tf.ExpandDims"(%outputs_52, %outputs_54) {device = ""} : (tensor<*xf32>, tensor<i32>) -> tensor<*xf32>
      %outputs_58, %control_59 = tf_executor.island wraps "tf.Const"() <{value = dense<0.000000e+00> : tensor<64xf32>}> {device = ""} : () -> tensor<64xf32>
      %outputs_60, %control_61 = tf_executor.island wraps "tf.Identity"(%outputs_58) {_has_manual_control_dependencies = true, device = ""} : (tensor<64xf32>) -> tensor<*xf32>
      %outputs_62, %control_63 = tf_executor.island wraps "tf.Const"() <{value = dense<[1, 1, 64]> : tensor<3xi32>}> {device = ""} : () -> tensor<3xi32>
      %outputs_64, %control_65 = tf_executor.island wraps "tf.Reshape"(%outputs_60, %outputs_62) {device = ""} : (tensor<*xf32>, tensor<3xi32>) -> tensor<*xf32>
      %outputs_66, %control_67 = tf_executor.island wraps "tf.Squeeze"(%outputs_64) <{squeeze_dims = []}> {device = ""} : (tensor<*xf32>) -> tensor<*xf32>
      %outputs_68, %control_69 = tf_executor.island wraps "tf.Const"() <{value = dense<-3> : tensor<i32>}> {device = ""} : () -> tensor<i32>
      %outputs_70, %control_71 = tf_executor.island wraps "tf.Const"() <{value = dense<"0xD86EBF3DD25F7BBD4A7012BDB88D9F3C007C963D606EF1BD7CAA32BD7C57F5BCB155EFBD8A321BBD8498553D2C23D6BD9C5DBD3D300B103C18A96BBD004FFB3D15D2FBBDFA34133E00CFD83CE1AE92BD787E2F3DE8DB8E3D1669023E3C79A2BD4408B2BDE02A7F3CB8EA043EAE4FEBBD487B113D54EBED3D3221C83D54ED9A3D44B56D3D4233FEBDFA4E88BDFDF582BD00B16D3D400F833D9B8D01BE8C4BD2BD706DAE3CCE940EBD8CAA0DBE5E25B03D493CBBBD9C1A96BDECC3DF3D00D9D03B9CBC313DCC200F3E5A860DBDFD9A85BD868FC23D70503DBD301205BDE6C17DBD2672DCBD913008BE263C59BD4868DA3DF868333DC8C4A43C906C9F3D44F2DEBD8051023E006D283BA0744BBC70018A3C24A48A3D17A2AFBD8397F4BDF074193D39BDC5BD106A523CEC63633DD073CE3DA007BF3DD082043E361CDABD8F49B3BD47D1BABD20D4423C7C6ADFBD8032663D9A4FFEBD723B13BEFE47CC3D9E8F69BDA8D40E3E00AE2D3DCBA4C3BD5C470F3E82EA07BE101C13BE78EB3C3D60A6A1BCA6298D3D349C00BE7005E53DBF960FBE6EB7073E5E97D7BDA43905BEE6698BBD0688873D3066C13D785A90BC4910A5BDBAB5ECBD2E5D5ABDCCF6B33D6C7997BD9B6109BECEB7F3BDB6D18C3D10D4C83DBC8C9B3DA2060ABDD037F0BDF04909BC4009FC3BCCB036BD4D1601BEB87ED4BD48D993BC26EF13BD00D4203D5C1B6FBDB081993D5CAC34BDABDF0ABE4F0FD8BDFC40DEBD20C3943B4AF8083E38093A3D4CC5BC3DCC452C3D487DABBC70D0DCBC3434F23DCE7C06BDC402873D006F5BBC7A21893DB021103EE8C975BDA4A5013E9C8D11BE668DCC3D1DA890BD135EE8BD10635C3D2C66E63DA0C987BBBC7207BEF445FD3D7059FDBDC0D2943B12DCBD3D44931ABDE0FFE13D0A2BBCBDD693973D6C24523D9B9AE6BD5809B23CBEF9CEBD4498BEBD002234BA54E50DBD2051ED3B7A1128BDA013DBBD076982BD08FFCD3C88F6123ED865663DB855CB3D005FF23D0CCDADBDA20139BD808464BB2096EEBBC80A76BDD40802BD5C08F03D405A6D3DF270CBBD009AC5BB883DB93CBAAE123E82F4AEBD0023ABBC72D1103E228709BE500ADABD03ACF8BD940BAEBDCE5A983DE84A0FBE20E7B7BB4071BBBBC2273EBD8E54BEBD009098BC86568D3D9068513CC04898BBD50CE8BD80A610BC0831A83D94C54DBD8C7204BE94B1DD3DC5C2D1BD1CEBB23D5C65ACBDDCBFF33D78EC07BDA007C5BB64AA463D80F284BBD82FAABD9E5F8E3D40D007BDBC9E073DF42AA73D9465C6BC1C41ED3D480FC63DFE3EF0BDC03EBB3B5B7A0EBE6460223DD6FEBBBD7472C1BD52A804BEE02D41BD8891E33DEB5311BECC7B023EB063E0BC729B10BDA64F113EE6C1AEBDE433103DB8BA09BE001EF63B1B2289BD142305BD906BA93D043D0A3E58567E3DCB5388BD88DA4EBDA86711BE0120F8BD00CD73BC2042803D301FFB3D130B07BE7047723DB08C8EBDEA2CEFBD683DB8BC02B203BEAE5CE3BDB7779EBDB20C5FBD769ACB3DDC57C2BD5ED833BDA63D953DCF4F8BBD802AE33D24783F3D00FFD9BD7E82D6BDA4EAE33D26FAC53D9C8E7E3D20AC96BC90D67EBC001C6D3930D29DBCDAD70E3E8090A6BBBC86113E32C8943DFF020DBE3A4909BDD092ED3D97CCF2BD0C4793BD60C4EF3B58DE10BDE036D33DC07C373B84F9A4BD14F6C73D24B1B53D930FE9BD385BC43CB0C84EBC78C0FF3D6029323CB436123E7C7E153D818E07BE3E8C813D228DEABDC867AB3C6AF6DDBD1A9F87BD207A6DBCD4C15C3D5542F1BD1AD56EBD98F8D9BD303C9B3C6814FA3CA4F7D63D98ED2EBDF81F063E7F1B0BBE40D605BC165FD33D9E44CDBD00C0E63D54EF06BE3CCDA13DE91E9FBD56A489BDBC08103D40ABBA3B1237D6BDF4FC9BBDD2A8ADBDFA95A93DC871EF3D5DBCCEBDC378EBBDBFF5D9BDD052A93C75CF0CBE4813BB3CA042773D4897AC3D78C8B5BDA1F296BDEEA75BBD06A20A3E9D0889BD9CEB583D922019BD6A51A03DD459563D3C2CA73D9A8203BEA04F763CDFD4A5BD795693BD9043B2BC9638113E1C58ABBCD04F723C3499BC3DD27586BDD06FBEBC7A875EBD64D103BE00D6D2BA306ACA3CA03F47BC52611ABD36977DBDF2820E3EA01922BCD0948D3CAA18C93D35DA85BD060DB13D84941D3D5EE2BB3D0859FA3D78669BBCA48305BD759397BD203893BCE8580CBD66DFB3BDB4D56F3DE13FF1BDFC35FB3D24B2383D303067BCD432013E48247B3D8367B7BDD0BFA0BD06B6013E2FFA8CBD487DB03C603612BD2094B63CD44703BE00001CB8A88D133E78F641BDF09B92BCE28FC2BDE7AA12BED18396BD51B8DFBD50470EBC32D38B3DCCE33E3DCC31693DEA37E5BD9273093EEA50A8BDC8C40F3D8EEF6EBD0C37F83D6402FA3D8C8F013D2C0FC5BDD824D13D3C72D83DEE0B34BD2479B83DE020C63CDA8DD0BD06A94CBD88E9BC3C94262F3D6894AA3D94220D3E143D093EC06D66BC4084FBBD301C9BBCFE81C6BD73C393BD56EFB8BD6829113DF267893D9072F23DF51804BEE86C503D40EEE4BCCEC45FBD5EA1913D807B603D7CC7BB3D6C0ADE3D26679A3D4C8411BE5EEB08BDA032F53D42CBF4BDA8AADE3C92870EBE20FBC03C77D5BBBD981C0A3ECAD1913DA04B053E2C84023EE027223D8CAEEDBD401066BCCE9302BE9A2A833DF3A5ACBDBCFEF63D06AB1BBD9831F13C589F5FBD18DD3BBD965909BEA014C63BB691E3BDCC51BF3D7C44F43DE8FB503D3498C63DE6256DBDB0025A3CE86826BDBC73123E3456993DDFB99BBDEE153ABD08351FBDA078F93D8AB78D3D6CD796BD9086983D17CF0FBE267DB83D909F3FBCB4217EBD5005A53DAC0AED3D2032E33D68CCA5BC26D0093EDCC7A43DA453AE3D768A9F3D325060BD9B2C05BEB0D90ABE58C4893D94D2723DD0A1D4BC438CE6BD3828EABD405342BC1AC58CBD54D4713DFAEEBA3D489EA9BD00CAF539E03E9A3C7EF8093EE0F6213DFFF6AEBDD7150BBE5427ACBD621FA23DA6FABDBD44A50E3D09EA8ABDC0319E3DC82888BD48AA833C7030513CA1F39EBD983B4BBD93EF0ABE80B9A9BC4ACD54BD68FFE13D107D463D9A8BD8BD601C3F3C62996EBD632AB9BD0004DF3C72D4FDBD50F5883C04A7E0BDE8AE39BD68CF5DBD74B6D53D845225BDF04506BEBEF5D53D13B6C0BD98E7E1BC6043FF3B6843CB3DB81DF03D7A99A73D7CA8BD3D70CBB3BC0CCB7A3D0C4D0B3E10AB2E3CD04DCC3C8A86AD3D6C32923D20E392BC34A0BA3DCE1E08BE729B073E7C0AC7BC8BF084BD6CAFDDBD78770A3EB812E33CF07FEB3CF27CB3BDFAA4C9BD80F5B63D8077C83C4E5905BEB861953CC81504BE1A25BCBD3C5C6F3DFC3EC73D547CFBBD203B97BB08F189BD48F6CEBCE86983BC348DBDBC08D13A3D0409F93D006B623B14EFDF3DD487EF3D9D8AAABDA0A1803D38A79B3DBE4BCC3D431D94BDF0E2FC3CC2FEB43DB080C03D00480DBA3C05B33D645AAF3DC0EDEB3C404413BC0CCCD03D7860DA3DF1D610BE0806863D885BBF3CF4A0DCBCB066EEBDD0C0F5BD40AEA1BBBCF2C73D60C1C5BDF3AB0BBE138C04BEE0477C3DC046483C2800303DA05EF7BDDA750D3E8003193CE019533C926F133E68350A3E812F98BDD0BD9E3CDC2A8A3DFCA0E33DCAA9A7BD2072013E260AD23D9C460A3E203AA73D46450F3E384EC9BC8A89133EC8C1053EF289A8BD3A8443BD7CA94E3D2EDD9B3D30BEE83C6440ACBD06679B3D8015C53AB0873FBD96E6BE3DA626123EC0D3D73D04B2AD3D481827BD966A0E3E6C9C2B3DD45D133DECA7E93D2CD65A3D36DF8E3D8872B0BD08A6EDBD98E201BEAEE39EBDACCAE63D0019123DD891D23D962D6FBD7E22033E50FAC2BC9A67033E6C49023D3242E2BDBCDAF43DA768BCBD10B924BC8C9130BD902636BC54C1233D24DDA6BC54910B3EB8F45DBD007FF73CF8B899BD8013BB3B0442B4BCD89FE93DECBA08BE5FC203BE00F241BA427BA53DA88D963C726CF3BD7CD4473D5FACF8BDDCB2B7BD90EC18BC769D133E00036A3C24F3B33D286EEC3CA058DDBCD849C63D9A8302BE34FED1BD5D5BE0BD84B7BDBD90207F3D84D1BCBD56210DBEB0F5563C04A9F83D00E6543A1E9B9F3DCC4ED0BD82901FBD7F13C1BDB8E8E2BC40327FBD3C06363D145D083E607E73BDDCA9DCBDC2D9893DAC8EF3BDBAE1103EA48506BD2C743D3D344FE93D107E4F3D58FF393D968152BD027E1CBD382B59BD46210EBEDE488FBD706ABB3D24F24D3DD49C4EBD0E78863DA82748BD5099873DEA61C83DAD408EBD60E0123C66298E3DE8B0B13C8A9931BD106319BC4E82E9BD68E3013E28CD8F3C0010943A60174D3C0056A33D7A10E7BDBB58C9BD2482E4BD507B343C30B5393D6885CE3C02D914BD5C2ADC3D6EAE073E663CD73DC488863D05B109BEA8D0CD3D2EFDA7BDF8C055BD3ADBADBD9681EDBD7C4A1A3D14067D3DDE9E34BD00D308BE48F7E33C9AA5AABD28B1833DF01B1F3C26369B3D427410BE2A689C3DF022E13CC04790BB6ECD2FBDDA0EB2BD00C450BA804F83BCC53CB6BD245DBBBD6CF9D3BDF88A2C3D80BD913B68E5063E503EBD3C59E9A2BD0AC22ABDD85084BC6C1E81BD3D2CAFBD301E563C60F81BBC48A17FBDE0D7BC3BDC13473DEFA2AABD34CCB23D4604E2BD628EC03D0E25A73D682AE63C4061563BB8F2813C1F5609BE62AE3CBDE010863C8019003B68D6123D1C38CB3DEAE4AE3DFC92283D002FB1BAEFB7C2BD3C17023E58FDF33D585B643D091EF5BDEAAC13BED049363D6206C83D70FFB23CE8EAEA3C818F92BDEE3213BDF689AB3D2C7F923DFC25A5BC20E1FC3CCCA30C3E402D16BBC1100DBE409ABD3DA03E7ABCAED704BEC011E4BBB5B2C8BDF46ACA3DF096EF3C8034923D182B1A3DF7F0DABDD8652ABD64D1E03DE017643DBCB547BD2813F63D4AB6C13DEC92593D8A0FCE3D0AC4DABDE22349BD922C893D26CBA33DB03402BE7C6BE83D19FD0CBE24C579BDC060653D3C40CD3DA84AF33CDEDDEABD845DEF3DA0EE61BDCC370D3D8051EFBB0830693D202DD9BBE026733D0A30D53D5EDDA73DBE8B053EE2568E3D80A7FE3B8417A3BC40C7853B9A547FBD8D3905BEF853CEBDF021133D00495B3AF440633DBC19D3BD4DE4C4BD44E3E33DF83EB93C577986BD805A7ABBA097653D70F10C3ED6C60B3E804814BC2C29CABD12FFBEBD34FF043EEE9C2DBD44480E3D3033833DB05A063E561608BEC8230EBE080E06BE7E9B65BD40EAC4BCD474343D30C096BC009FE13D025394BD80AFD43AE0C326BCBBA101BE25A8D7BD2016DC3B48F7EC3C1AE6D73D1061173CAAD5B83D45B89EBDD03906BE7A31D53D8EDA883D5C90CBBCA83792BD68FCF6BDBC3BC13D3A64CE3DEE0D9CBDC44FB0BD18E206BDF488F4BDE3F58ABDF08FC63D3BF208BE1869DEBD30C80BBEFEC3CF3D83190BBE10E0B83C38450FBDBA4E23BDEE8C1BBDC4811EBDE6B257BD114F88BDFCD9E7BC6071CC3C589DB33CA132B4BD8CFDDA3D1AD65EBD7C6507BE6012A23D6027E53B8806813D002E88B9847B5FBDC8C195BC782F00BDC844EE3D3F09A4BD0D6CF8BD06B9E6BD8EC00BBE20E4DF3D9CCB0C3E884BF53D90E003BCA82599BDB451873D38C1FF3DA05AB43D1CC10C3E10BAF53D30BB97BC6859053E806397BC13429EBDCC38013ED99190BDDEEAA43D00748EBB6C1CA1BD1CECBC3D7CA3E23D6C4C74BDF09877BDF9BA9ABD888C073E9AE80DBE205BEE3C7F65D7BD3252073EA4260C3EC0BA8E3D67398BBD56A5C23D006D63BC808C8C3A7072B4BCC8169BBCE0FB093CDC7FA7BDAE78C0BD4090B2BB9E75CDBD04EF763DA84BAA3CC8DBF43CF069F3BD7AB612BEA121C7BD989E18BDC027E23C12A808BDD059FE3DFBA196BD00630B3EDCB702BEB0DE033ED64849BD763C833D4E96C23D3C0B2EBD86CE5CBDD813DFBD892C8BBDA7C107BE88476B3DBEF0063E041BEE3DBD6812BE5A32C13DF013BA3C72F4A93D704B2E3D82BBF6BDC4593CBDF05EB43DA26A07BD42702BBD36B9A3BD64B0BB3DD4DFFA3DB872113E85CA12BE505601BD02615CBD1377ABBDA42080BD6CD3FE3D0025C73A8C4BE53D80526C3C906B013EF0FDDD3D44AE1D3D30DB08BC3C91C6BD2034CCBB8C5E04BE0196FEBD9C03AD3D78AFBA3D60ADD3BDC054233D004CCABBC0E5453C201AD0BCC90B9EBD0012F7B9B4F9E63D08D9853D7CF4ACBC0CAB093EB0F8DBBD0468E13D843BE53DB86DF43C59D803BE9E8AC9BD587259BDF8C3AD3C3A8F0B3E9758CDBDB83A753DE59F10BEECBFB73DF21C12BED424643D3041373CB817D83DF07D67BD2011F3BBF30E0CBE616204BEC224873D7E9E8C3DF0DA6F3C3207AF3D24485C3D4A66D4BD76CABA3D80570F3C4D1009BE3447BF3D2071F43DB8C1F13CE86294BD108945BD16D3A4BDF874533DF2D02EBDC0307E3D707A67BD92EFB93D4827B23C2CB98A3D7D13B4BDFC8766BD5DE9EABDFEABC43D68465A3D94E9653D954908BEFC88D4BCDB41CDBDFC6301BEE4C7E73D0462DA3DF0E0323DD61BC2BD8470EDBDC088AB3CEED109BE34A8023D60E3A33D2E3A02BECE5A933D1CE2803DDC74FE3D6C1A1E3D002E96BB72E70CBE5EDE08BEF21FC43DCA519DBD033A87BDFA810A3EB3DCEFBDD07B0B3EEC3A0B3EF16BF5BD4C52DC3DA0E5773D4CF8763D2035E3BBD46A113DE0C3793D788FBC3CA4660ABED62534BD468E42BDA0CDC4BD56A28D3D0AAAD43DD71695BDBAABD03D60346C3D85020DBE5CA8EA3D880F84BCE80AD73D84236FBDC3F20FBE8894113DA41A083E53CB09BE863C043E4CAF2FBD16170C3E86018E3DA6B0AA3D744CE53D72D4FDBD747EDFBDEEE548BD72D3A6BD52A1A43DE4FE073E5235BE3D3AB843BD458B82BD173287BD12042BBD743F08BEAC91FABD9A188A3D760601BDF67EE3BDE478263D17269EBDE8AFF03C777106BE805B123D1A0EBF3D4889F73DBCE5CC3DB2A80DBE002E0B3E4066BC3DD8AA0B3E7E05BC3DF00BC0BDE63B14BDF8F56C3D9220B73D6A9BDEBD28D2953CC04A813DD4B507BE28F4CF3C4854173D1C6F07BE28E22CBD4467783D2E95CF3D68A578BD48F4BFBD00E0CABAE0F64FBDE5130FBEDA3E8CBD28FCAE3D28CDCCBD6DD703BE9013613D1A7CBEBD89520FBEFE1E2BBDC8E88C3CDA11C0BD38FAE53C40A0D8BB083C0A3DD40AE83DA0D5D63D672EE0BD09A189BDC112A5BDA0DCD23DA46BB13DB089023D0EA4123E0097093C5EFADDBDDC6709BEDCF5683DCC0D623DB070633DA401003EC6B271BD9098963DAE508FBDDC26EE3D404AF3BB3E79E2BDA458CE3D204FD63D642AC2BD20BCCB3B52CF12BEF8C7BEBD08CA90BC70025F3CD456283D7429D73DEE47C83DD22015BDE25ABA3DC2391FBD3006A8BCA07E713D04C777BDF8A2F53DDAD08FBDC459553DB0293FBD804BAABC820DA83D76FB0A3EA07FB8BB6E267EBD8CE26DBD105CFB3CCC03F63D125472BD161EA3BD9633B5BD603FE0BBFC49E03D41C0DFBD6A4700BE453A8FBD2CAC02BE7A8308BD78C4DBBCEBB4F1BD466F1DBD30CF08BD6E6FCE3D920A18BD1017223DB44B003EDADB89BD887FA63C58539E3D46BABD3DCA550D3E10A1A43CCCD5AC3D1454E33DC1C2BBBD2E7DB83D409BBDBB98532E3D97BAFABD4B5495BD1641093EBAA6123ED91791BD042AE23D155EF1BD4854093EA05BE53BC0DAFE3D800933BC5AAD0A3E9635CFBDE8AE033E72F1D0BD08E3D33D88D078BDC80A463D282BFEBD1ABB4EBDF010C1BDE22F803DE0F045BD6423E3BCA0A2DB3D005CEEBAC04C44BD10E4263D4224BE3D5806AA3D007D0EBAB4750A3EC4C84F3DB4338C3D1C14733D8CE333BD28E1C93CE045CC3DD94CA0BD40C493BB1820DABCB67AA43D5E3A0DBE40AF9EBBA8EEE13C00CD55BA4A3206BD9004AABD8A7199BD906387BCF212003EC0CADCBD7896AB3DA4F1173DB24E03BE5031A63C748FFFBCAC03D9BC606DD73B5A4F023E175EFBBD08E3F53D70B9E23D00860C3A0E499E3D760C26BDBA71053E7060DE3DDAE439BD8480813D60AE503CF46AE3BD46D6833DE81FF83DF06957BD803B483BE65108BD6850AB3DA0DBEBBB31F5F9BDF481C9BC247254BD04F401BEE814C93CF0BD38BD00E10BBBDD9AA3BDB86D323D6FF79CBDB0481A3C78B397BCDC96BCBD0944E1BDA0B6D6BB8AABC73D1264A1BD70588FBD3C56A73DD154E5BDD226F3BD4437CA3DE872DF3DA8AFD53CD00CB43D86C3B3BD88CEB8BC8087FFBD460506BE8662073E32A7C5BD80DDE63D2CE501BE5000A23D90127BBD502D8B3D88584B3D2C8C023EDCE3B53D0C01F43D6CBAD9BD9453263D7C50E83DBAB70DBE8A65AFBDFEEF44BDE565F4BD954DE4BD8040813D64A31CBDBC9279BDE8F3A83C1C24D53D0AABB13DECFF913DC14BAABDF42D413D56AACDBD84191C3D47F80BBEC8334EBD1444063EE0505CBD006F4CBDD2C8053EA452B93D9A0D06BE195F08BE7296913DA7EA12BE949D143D7ADB00BEAC8C4F3D303E423CFD198BBD542B683DB888C2BCF08C6A3DC0911D3BF63862BD7EE93ABDC0296A3B00E4153915ABA0BD046CD83D12F643BD8A9901BEE8CA933C33429BBD8601ECBD00BAD2BDA0ACF53C123D4BBDEA7DC53D8439F9BDA04A3E3CC06A0BBB803F2D3B1E0B18BD00DDDCBC5604B7BD249175BD1041FC3D221AD3BDB73889BDD2713BBD106646BC885B2E3D7F8C0FBE018380BD6071573C86DE08BD8C3B3DBD4A01073E4FF38CBD849104BD52568ABD5A93853DD4BCE0BD4B5D07BEAA95873D0853613D80ABB23CE0CD78BC04E9E8BD8E3D8C3D8CF0F23D6ED0EDBD7A2312BE93EA0ABEE49A60BDB87C473DD0450BBC18EEA03D60CFD03B38C3F93DE055F4BB7087973C004BB33BDAD60D3E0041213B2C2E01BE180A193DA062D03B64DFC33D82A5EFBDF597D3BD43CF0DBE0072693D405A56BC689FD03D8AADAA3D70F40DBCFC463BBDC0178E3CA0A0F33CF090DBBC1953F6BDECED0DBE4091C03D16B4D6BD461F883D342C1CBDF0713C3CEFFF83BDAC73CA3D9FB1DDBDEEE1093ED850AA3CC6E9B1BD9A6A0FBDC0DB213D827819BD76A503BED49235BDE849EE3D1C4D403DEEAB9FBDFE06A5BD1039903D28F8B53DEF55C9BDE87033BD8C5AF1BD027FD5BD1CA4E0BD653E86BD80C81B3CF0A3DB3DB04548BC005A913900E52ABA600D83BCEC51353DE4F3AF3D6CB7673D44FDFDBC5D35A7BD1AA4B73DA8F3DCBC6643C13DAC40C13D38D7D7BD7A73BA3D980EB23DE0E37C3DD08139BC763DBBBD6A3DCC3DC637853D348CB03D7629B43DF4E8A93DC60EC7BDEC9BB33D802834BB306236BC94713A3D824310BDD8A107BE48008E3C28DBD1BCD8EDAB3DCC00353DA0B0353CA0C5D93D0AA7B63D5823963D9C72D93DF47B813D8BDF97BDC8B6753DF8B0053EE4456E3DAC8505BE36F89E3DE7AB91BD206CE6BB9B9F85BDB871C83DD2BE023EBCC789BD1A08E4BDD2F271BD14E9A4BC7CB0ABBD78C8513D0774FABDF8074C3DDCE291BDE89894BD18ABAF3D78C5643DEC53D2BD8A5825BD4AC774BDE858143D6CB6993DE00532BCE0DEB43DA0F0553CA0B9D63DD8F9233DA829123E001389BB8E1BB43D3C98DABD08F07ABD9032023E2E94CD3DC250093E68E72F3DC062A1BC1C70AABD3C790E3E20B8FD3C5836A73C14D599BDD8D5A2BC1A10063E10CBB83CD055063EF25ED83DF8ECC6BCC430A93D2807BB3C001049B85AA03EBDFA2E113ECE580CBEA684023EF22F6EBD12F7E7BDC82212BE089C1ABD80F7EABB6647D43D2CCED23D7E65B93DB164C8BDEEB9D63D800DFD3CB8EE343D56ACE2BD8CD0AB3D1225053EA0019DBC9837423DDCECAFBC2808843DDCAA073D220480BDC09111BEF81A6D3D95E00FBE007ABD3C802FDF3A00DE443A2BC3EABD95BCB7BD90C1093E23DEFFBDB0A1913D5E5CB93D60081A3DB8BA953DE885653DA2CD093E70130B3E7C5BA7BDB8E98B3C289E5D3D4043EABD42E9BABDB4CADABC504C953C30390B3ED00AB6BDD8F0CBBC2444963DCC04DD3D8E9ABD3DFE5124BD807DDB3D1E4FA03D8CB3BBBDD6D9AA3DD6118A3D78DA033E002D28BCD0EA503C37358BBDFAFEA03DF54C07BE58B0443D86A6BF3D9013CDBDF656003EB40F54BDDA5537BD5422A83D664285BDCC893E3D009108BCE68707BEC6B689BD6263083E60BF403C2C9501BDB077FD3D7016FE3D3221C93DC5B9A1BDC04FAFBC3AD019BDFCF4133D4666883D7827923C005E34BC4C56083D640ACCBC1888113E269B04BD8008113D9C0FB33D366309BE5AC8903DB05CA1BCC02F74BC74D5913DE89ED8BD4EB6A13DE86D03BED407C6BDD449FABCCFC08ABD00D5D6BBA05673BCC42B253D8844543D5CFAD1BD965A8F3D7CA7E2BCC22CDEBD789B323D4EE1C1BD80CE7E3C3C271E3DF0D5F83C80A505BC163BC43D84BC58BD8819773DBA09863DC8E80EBE4CEA673D705CFD3D806A0FBDB0608E3C000ABD3D90530A3D44A76F3D30B1413DC01C77BBB442F63D38DE8DBD41EDFDBD8D04B6BD00ACF03C204D7F3D6AC456BDB88ED23D7A0A60BDA82CB33DA0B198BD1CFD12BEB9CBF0BD1C80A5BD7462063E68E11D3D623CADBDC05D7A3DCC4B0F3E1AD005BDB8EF22BDD0EB48BDC03D833C02786EBDD09C53BD50569A3D8EC908BE288EEA3C9879EE3DC823E13C9F2C83BD300CC8BCF06709BE1809FEBC6C01F03DD636D1BD0C0726BDA0C426BC34ED113E89829ABD0C2ECDBDA08AB03CD6830D3E0AE28B3D6405C3BDE8AAA83D82398E3D4830813DD860063ECAE3B63DEBE5EEBD44B489BD30DD27BD4857ED3DD032113EBCDD2FBD000FAF3CDCF8453D00AF1A3C5607C53DF667803DE297B9BDD076D83CF21BC6BD10F49F3DC398B0BDC80B98BD98C3C8BD208B30BCE2EA8E3DD03B663DA8E3CF3D4C7F8E3D3059F13D90EDCFBD14E4E33D827A9E3DE6FA65BD520E953D300F39BC60F6063CFC2010BE6DBAC5BD046EE03DC2B422BD40BCCB3D7DAE82BDC4AB893D407D48BDA0747ABD381D23BDA077E83DECF4CDBDECDF933D4084733CA048CBBBD5E6E3BD0880B9BD0D01EABD541C31BD8C07033E62428A3D4FBCE8BD163B5CBDBA44D43D7E0D083E2087A43B8088783DAE92C2BDB06C4DBCBCCE773D417110BE845403BD3057E73D66B7003E30E83A3DB05DC13D60E1A4BD74AEE03DFEC30CBE60ECD93DAFF68CBDA6BF9D3D70F78FBCD04F33BCF7A49FBDD823E23C685CE43DF0FC3E3CF0D6A53C383AF5BD50E6FD3CD06A82BD3AAE113E20C49FBD86B98D3D24F2FF3DE27DB2BDA08C513CC2A0B1BDB295C9BD80A1C03BFA0874BDA2932ABD220EB63D24DD113EC027EE3CBC974CBD60C8603C046E0CBD3C926ABD787AF63CD0B9CE3CD4A230BD604FF73B32C0F4BDB421823D3B22B7BD354F0FBE100BA13C08456F3D8CFD4D3DC060433CC036B53C80F21BBBF0C35E3CBC2CF93D30B50C3E00B8983C5201CF3DA0D7E7BD7CDB033EBA02AF3D10A1E1BD11E000BEE88BCD3CDE8FCB3D009560BC7653DDBD8CD1083ED2EB0E3E84490FBDFA03F0BDE0DEF13C0DF205BE100EF83D68F060BDD074203DF6A9823D7052013CFAC121BD70BA363D00BF30BB4851B5BD8A50AB3D93F7E2BDD882E9BD0AFD09BEEE22FCBD6E980ABEE03412BC12E8903D828BBC3D74CA433D4307D8BD0CA6F13DDB0FF8BDE037C93D18DBFFBC92530A3E7076133E0AE2CF3DF20E88BD9C37FC3D82C90C3EE867CABDE04D8CBBF097C33C83E594BDB37805BE9EC3CCBD9261C43D4837FEBC8A89B3BD9654E6BDFA7C06BE044295BD3499FFBC2BFFADBD82B0CE3D1C29C33D7E2906BEC0F44ABC149FF73DEA888EBD42D3B7BD4FC612BEC44F6A3DE0CA71BCCAE70EBE8A8E88BDD0239A3CD07A053ED2629D3D886CBC3CAD80B0BD07440BBEACDCFFBCA478103EBEA931BDE39985BD904B3F3C8234B53DAA1C15BD0E808A3D38E12E3DEA928E3D63919CBD24FC0A3EBA4E8DBD486892BD8373EABD09B19DBDCA2708BEDEFCA23D6404003E2486133D72EE0F3E04D21ABDBCC5EC3D906F82BCDE45D73D1025B93C3EC507BD34BCECBD315004BE70C91ABCC0432A3D40BDA2BBE83C973CE82D843D3CAF0A3E9CD4103E8034FD3A74BCB93D566F00BD6BD4BBBD30DB663C7E09993DFE899F3D72090EBDCF99E1BD9665A03D80268F3C948BDF3D6483CEBCE00D0C3C40499ABCE620893D501B75BC182306BDB483A53DBC7647BD28B4DBBCB8C93D3DA60DD13DEC4FDFBCA50DA0BDB0B60DBC481F803CB6E89A3DD06363BD98BE963C5911BDBD22DBD73D24F50CBE6679D43D42B782BD80C0993CDC0C26BD3A483ABD904E893DA2DFCD3DB4DD9ABD401DC33C6093003EE07E16BDA591EFBD928AA03D949B97BD80DE87BBBC67003E5A2908BEE07E233C94F33F3DAC3EB1BCA058763D18DCE3BDB09202BC6450FB3D90650E3E727C08BEA04A1EBC642E82BDB09A8DBD9E1034BDD640A9BD48973D3D006312BAF0DB613DA8C1073EB64AC6BDD804263DBA1E49BD186718BD3871BB3DE0EE11BE784D46BDCCEA123DC241A93D371791BDF430A9BCEF6513BE302F0ABD8E137EBDE006F43C1820B4BC385CE53D52CA5DBDB0EC303C349BB33D7CC2143D1C36B03D7CDD31BD96AA963D449A013E70AC0E3E62E9833DD08EE53D90C30D3E7531E9BD40EC20BB141690BD14DCAD3D60F50A3E2EC776BDE01187BC9AA3ABBDA05D1A3CDCE7B43D8C200A3E00189139642FDE3D5AA0123E58686ABD9478103E7BAEC2BDF4F426BD864B803D3C11E23D90D3723D3626C43DBFDB8FBD40943F3BB884A23C21DD86BD0C85DA3DACC5ABBC9CBCF0BC5A3F21BDF6A2CF3D2C02C03D560AC43DE453DDBD356BE5BD107F633C80610D3C5C2DB3BDE0B6D53CC8370E3E4C71C3BDC09103BCFC5288BD60BF8E3C880BD53CEE47DEBDA7230DBEDCB9EC3D6ED5003EB4D1113D400F9CBD22A4D33DF8ACACBDC45024BDA83B023E18AEE03D0000723C9C15D93D5EED4EBDD844DFBDD5A5EBBDB842F93DAEAA14BD3C708D3D44DC863DDE5B74BDCFBC94BDA8B4C33CD032543DEF4BA7BDD06FE53DB4EC763D92A2BEBDC03DA4BDACF8A4BC1A95C93D0864CC3C24A5813DACBF8ABDB606973D185AE43C6045133C208C0FBD8EE5BABD20052A3C1A011DBD755B82BDA6B0F8BDD211AA3D9C9EE03D3E2AD3BD94BFB7BD4477FC3DA080EB3DB4CFB4BD4CBC753DEA2BB3BDD6C0B0BD28ABE7BC242E07BE3A6203BDCCC3E13DD01C2C3DCAE2FABD946E513DAC16693D804EAE3D14E1173D042649BDCADE843D0A13D63DC6E8013EAC1EFA3D0AAA0E3E28BE72BD5C8608BE6029E93B3890833CE8CEC83C44B1703D505965BDD2A485BD16DB7BBDF2670F3ED271DCBD0E398A3D605FE93BCCB1693D804818BB7C72233D454F0CBEAC3E76BD8E01E5BD40C7FB3D1427163D10F2B33C80CC8ABA7462DB3D012203BE08AE9C3C8CCD123E340D12BD67B3A3BD2E98F7BD5094B73C0009293B64CA0DBEC0AFE8BCC0073CBD42D4DABD3C1C003E408973BB9D9202BEB48FC53D6C60A23D50C53D3C64474D3DC621FCBDD0414B3CAC89BE3D70A7633CF497B5BCA867023D68C79FBD378B9CBD2C3E93BDB4CAAF3D5497513DB837463DC28073BDB047A9BCC6ADA63DE8099CBD1A1FAABDD35BA5BD20A1413DFDA6A5BD34926A3D70E07A3D70F38E3DF06E92BDD041233CA06FE03B02ACDBBD8C7A4CBDF0D31B3D8814DBBC60F5163CA010313C780D24BD91690DBE9AFFAE3D041F9D3D4249B9BD32F992BD54CB213D751003BE112C0BBE7EC0B4BD429B11BEA077EBBD16D3C23DA2BDA4BDC6C711BDB2F1E8BDC6AC97BDFE74003E5CFCE13DF08FA9BC2AB6023E2815A63C764154BD148AFDBD3A0C0DBE3AFC973DF07B6F3CCE6A76BD406CD73B20BCABBB3EA3C43DD498A7BD945A03BD349AC6BDA05B35BCA20D3CBD726FC93DE65B093E309A94BCB0A2463C39319BBD6C13DCBC403508BE1C14AABDD626C1BD40F93F3BB0CCFEBD703F67BDEA62BBBDD08BE33CEA53C9BDD0B9FD3DFBA58FBD980FE43D20F7AF3DA0FD57BD507B0F3CE896A73C7014BB3CA03AB2BC0E1E983D4DAF0DBE6033533D40F03BBB9567E6BDF810EC3D6AD19A3D3C4084BD00751A3C4EF569BD4EDAAC3D983C89BD34B412BE308C243C2257BB3DC013C23D0503A1BDE038B93B507BD63D96CE853DF815D73CE3AFA9BD4492E4BDB819073EBEB0073EA2B66FBDA6C8E4BD601B3A3C605D9BBB4E8B32BD466701BD8E3BB0BD40491E3D2807BB3C745A113E0C4CB03D6495BBBCB83DB03D1CE3313D485C5E3D74C0DEBCB06F26BDACABCE3DCAC6AFBD400BBEBD25189FBD98E99ABD306530BC369F003EF0A1213DC2A00D3EF237ABBD2C17FEBC1CFAA3BDA442633DD26159BD0A6EE1BDC8198D3C028F833D20AEFFBC40FF783C59C9C5BD54BD293D3823B4BD32B11FBDC0064E3DCB48A7BDC482143D06D98EBDE07A1A3C44850A3E760610BEAEA81FBDB38083BDB2ECCB3DA841A43C6E15C8BD600E853C3E7EB03D5481033E64C0D83D42245BBD60BB5D3DC80AF0BD8CC6013EA0272DBCBA90D73DA0DA9C3C142B23BDD4910A3E54B5D03DBEC6A73D6499E53D3E63C1BD187A04BE0A429FBDC0B3A83D80B9A13B708793BC8E23C33DE09FB6BD3ACFD73D6C3EE63DA6148BBD70ADF63D6813A83D42CF0D3E8E88A8BD705A8C3D775112BEE086BE3BCC24083E75CC11BEC858073EF4EA183D14D3963D9208033E4CF28BBD00A3B0BB62BC9FBD7AE182BD907D6A3DF590A1BDD6D75CBD0ADB9F3DC0AE253DD0CC373D334010BEC04D9CBCEA8FA93DD07A97BC50E879BCDCF22A3D8C6EACBC5091D2BC525515BDC57D96BDF813E0BD48ADDF3D7D0993BD98E94BBDE15508BE56C1AFBD2AE437BDC0C2B13D36D0A23D290C09BE60E1B13B22E1123E58A7CA3DF64EB83D6BBC9ABD405782BC686A1F3D4464FF3D8752B5BDA03398BCCF6EF5BD4CADFE3D5C6458BDB0ECA73DBC54453D0022EA3D609250BC08B0F83DAAA2033E8CB1DDBD4E5F52BD9134BEBD7A8F4CBDB0A3033ED0979EBD2C2154BD3066A83D809E063B04FC4CBD90B9523CA759CBBD8E9AEBBD9829D1BD4287C03D40E6EA3B0CBF0F3D8D1FC2BD40C5493B9B6A02BEDC7173BD3041543CF894FE3CC89C29BD0E98033EBFC1D7BDD0FBC6BD1D3C05BE3EB9853D4338A3BDFCB8433D409F29BC2CBB02BE0E57E8BDEC8EDFBCB848093EB61AD5BD1448B33D2481443DE42FEFBCC09403BE7887113E90357F3C72388D3D005E4EBD5C799E3DE5CBCABD6AC028BDE013CA3C9EB0973D08DB763D6CD8ED3D5804973DE8F1F23DBAC33BBDF63704BE8F1EAABD808BBB3C1693083EE28A2DBD8403AFBDB04C333DC972B3BD0063833DDEE2D33DE0BC25BCBE1BD83D18CFE63C986F34BD739FA4BDAC958D3D66FF5BBD365EC63D30B9F03D50050BBCA0C4783D3C2A773D4CDC0F3E62FAF2BD3D3309BE90A9B1BC465E21BD3014023D98002A3D2C7766BDC061963B1451673DF4CAAE3D42928CBD0C19E9BDB4AE96BD40EDD1BB5058EB3C543FEB3D1E65873D283AA33DA877FE3D4D69BABD3052593D80EF6B3CC449BE3D044EB23D287E053ED841803CA0729ABD28B2D63CAC68613DEC529ABD98A6103E5C8C123DF05333BDC80EC0BC7CA5D03D428A0F3E1C41A2BC5269BC3DC034A23CB428523D743BF23D49ADA3BDC630833D8CC750BDDE02803D5E5E71BD1771CBBDF866B23D30C575BC489BC9BCE8E0023EE0C4B3BD6402B93DE51811BE6CFD783D42F022BDB0A9E33DF02FE8BC9E3F35BD8FA385BDFC76ACBD3CE8743DA09B3C3DC83C923DDA87103EFA8FE2BDB0981DBCC1EABABD8AC3AFBD929638BD8295A13D6CD5303D1CE9FD3D96E6A03D4DD1DABDDC5A12BD6C2D023EA2938C3D802C05BB1266B9BD3828F03DE4B765BDC4049C3D44D7DA3DA00F09BE6E336FBDE31D0CBE68B0A03D12EE81BD240C7DBD2899F03D5871CFBDBCD4E2BCC031103C00986B39DCE5D03D80FDC5BA6AB383BD24C2873D4AE7BB3DE09C103E8891C93DF07B0F3E00394DBC1AB328BDE0CE463D60AE0A3E40C195BB783BFE3D2E53ECBDC0CC5A3BDA43A93D94004A3DB613D3BD1825C4BCCAB5923D4965C5BD5CC90BBE586C953C2091D7BD85A40EBE048C523DB367C1BD38429D3DB005A83C40A0503D885402BD16DCA03D5ED3B1BD8C3D293D947BBABDAC196F3DE041BC3C3A7006BE949DF9BD503CC33D60205E3CB03F0E3EFA0B103E620C0BBDEFB511BE9898163D9C71C4BDBEE8C6BD24D40D3E002A92BD39FBEABD4001E4BBCAC2D73D8A3B0F3ECE37813DC073D83DB8051D3D8C8113BEAECAF4BDE38DCFBD94BE043D0AB5B13D14FDF3BCAD2DA6BD56EA9F3D7E7FEEBD20C72C3D88C6A7BD4E32CB3D00C8883C8023FABCF15711BEBC7C29BD20EB4A3D3414C6BD6CAEA3BD581A9B3DE0319D3D809692BA1AFCCB3D0B7997BD876F8CBDD8C9363DBCA4EE3DCE0349BD6043113D6050EA3D02F364BD9272113E50BA67BC1EDE36BD80EF1ABCADF002BE9411BDBCB46202BE171EDEBD666FEABD7704D6BD9CFA843D04A1AABC3AE157BDC07C183DC0C803BCFA3D843DB07C1D3D7A1A0B3ECC0B963D1C67793D8EA40E3EFE15B3BD5C6710BEC0DAC73B80CBF63BFC8768BD12EB77BDED10E7BD7C6106BD06A88E3D60BBA2BD2AFCEFBD8B719CBD69028DBD48E8C23CB15E06BE7077E0BDA0C356BD9C98D8BDE9290BBED83AF2BD4D1E09BE60BE5FBD5078133D4CD9DE3DA6C3AB3DE44D053E703EDC3C5DBB02BED00DC0BD1264863D7E1DBFBD7CF310BE20189D3CD4C85E3DF895F13CE06E0F3ECC6DEE3D80AA353D88A88C3C4059A8BC84D409BE8483443DD1D4BEBDD0AB053E4C763FBD38CCE33DF31287BD80C6A8BAA0C97FBDD060B9BC0E27913D36E68C3D8891483DEE66913D00E2193A22EDA03DB0D5D83CF84DC73C6099EA3D00ABF8BC804990BC1CE9B3BDCC16ED3DA9B60CBED445EB3D3673A83D6249A23D2BF50BBE556C8ABDAA4ACEBD1C5176BD6B45D8BD141AF23D16A094BDC75307BEE013743CB05BFD3D4C32AA3D808E37BB26852BBD8C75F63D956E0FBE0CB5C03D20F58F3CB49DA2BC0CBFC9BD893491BD4679C23DF2B3923DB4F7EC3D709A63BD7C5381BD3EB2A03D8299873DF45ACF3D1088E73CB0557E3CA6FFC0BDABE786BD78B9AB3C6415E23DA07FBE3DD0730DBE0ABF083EEA3504BE407EFABB12894DBD6CE14ABD30C9FD3D02B5A43D369ACDBD0272B43DC0645D3B3C5B75BD16DFC2BD36BA60BDC084A73D0033CE3AA0B9993C9A990ABEED9CA9BD88E0BA3CBCF5EDBCCCD52FBD20B65A3DA868A63C8093F5BA8A1F98BD000E063EF86F90BCE0D808BE9261093EAC9CFA3D311F08BEBC64703D500911BE4821393D7C845C3D4A56A53DA409E43DE6D29D3DF869C2BC10D87D3C21E7A5BD5811B63DECE0A53D2888BCBDD46F9C3DB0E63E3CE4EC903D60D887BBFA8756BD3BE6F5BDFFC994BD7A992ABDAA4D0EBE58E53ABD36DE05BEDE4B34BD53C4EDBD62960F3EC025D93D45D60EBEA5C197BD0060763B009605BADA5805BE2CBB7CBDC70780BDF4E1E23D6DB485BD7E54B73D14BA343D9CE92B3D44C4FE3D185F5C3D88C2DFBC9C09F6BD564620BD6CACDB3D127289BD3CEA5A3D6681B0BD7F7588BD3E76AA3DE8B0F03C543D3C3D001B63BA20F0FC3D6422E73DA429293DE07BCFBB00530D3AA8DD783D4091673B44C7BC3D950C08BE4435E13D09DE08BE2CDC973DE67D9ABDC4D4F4BD5B4FECBDB929BFBD3C52253DB8CA8A3C5C92673D2A12BF3DD46D083DFA281FBDD0F10BBD10BA393D8C19DDBC6F7BD4BD8856CBBD6C8B3EBD0884FBBD104A2BBCFC51E6BD5BC807BE3AA6063E80C54B3C2BA401BE5000653CE2ADA4BD70FD45BCFEAB973D602697BDC86DA53D52A2063EC0A1353C0D980ABE58B9153D22A73ABDD0856B3C602D0B3EF2C4123E2C2AEFBD401413BE20C8693CEEC0EABDD14C0FBE6266C0BD541A0ABD5D13B8BD403F76BD90867EBDECE3AC3DF25A033E1047663C00F6DABDBCDB97BD782C223D6967DABD9847B5BD4A08C03DA402F3BC643DBDBD46D39A3DA569A5BD3230803DD40C98BD64CC2A3D3A08C6BDC4F5E73D0C77CABCE6559B3D50B981BD441CA0BCF82430BDB0FAE7BC30F392BDD84E0BBE7C243F3D10BAF13CEC5B45BDDA96053E1C56EB3DB0122F3D186461BDB046CC3D58D41B3DE0A4123E88A5A63D5CA2663D7434FFBCC0C111BED8692C3DC076483DF68DBD3D0C57DD3DF879993C604799BBA03B263CC7B9AEBDFA870DBE104DECBD0DAA0FBE10D31E3DE4F3DDBD60DEF4BB8230D6BDA03AA2BDF0724CBC824B0B3E8818D9BD5A21C33DB5E80CBEBD0811BE887DDDBDA882FA3D1C4023BD6AA91ABD5C3A433D662C123EE68E11BE0E81C43D70FEA0BDC1A90FBEB82BCABD81A9DFBDADE903BEC89BEA3D66EAF7BD140816BDA010213CEED5CFBDDCC9353DB069EB3C4CC0E73D849C30BD0002DEBCC03E0EBC2A009D3DE8BA6EBDEC70DBBD92D1A73D4C4A0BBE843E733DC44A09BE40012E3D85BDE9BDF852BD3D6A5ABC3D9AA3953D5287123E981309BEF24DB5BD840E43BDBBD404BE40465BBD025BD23D90E88B3C36670C3ED8B2D7BDA43E103D507D653CB95A13BE9237CEBD96E707BE40A8F93C9C2F413D2A47A03DD4FC063D5A2445BDC00C5E3B3ED335BDB03395BD01D98BBDF1A804BE560118BD003B6FBB022F53BD3A1B803D6844A3BDFE61EEBDB88CDD3D1AF5C5BD7C37DB3DA0F04D3D18B7833DE8D87E3DB6A0033E1854C43D005CC23B00CD7E3BA8F76FBD5085933D389B863CB079D8BCA6D236BD6C610A3E9D060BBE6A999ABD8CF0F63DF69288BD425F8D3D98E5213D64100B3D902B473C9049F53C4A19053E502F833DA44DD53D62F038BD04AEFBBD70BDD9BC56A2A9BD28A5FC3CC8CCBD3C446C5C3D74E0A6BD509DB13D1C53F53DAC3BEBBD4607013E80B85FBB241B03BD80E8413B54316D3D9CF04A3DB6BD003EF843FE3D6AE343BD460A843D38C6F43C14C3BD3D303464BC84EC7FBD7D7712BEE4CA55BD36F0C7BD4088013D5215C03DB0460B3E7081773C08639D3CB862C4BC6E54123E6A79133E1C0BA7BC564185BD74F25F3DF8877C3DE43397BD4E7DCDBD8BCACCBD04A6E03D62BC123E649F0F3D76EA7FBD0CC71EBDE5D909BEC048F03DF51C95BD1E1612BE68E10D3E00CC773DAB3E89BDB075173DACC3BBBD8003B63D8CCCB73D7E880D3EF09B043C2C7558BDAEC5EEBD45B384BD947D82BDC0AFFF3D6E40B0BD1E2A24BD6483413D98AB343D8215E2BD3CF0ED3D5930C4BD907C753C4C9FB6BC7819C33D943BB5BDFAD48C3D7CBDE43D4A2D133E1E79AFBDBEFCB83DA2AA123E701ADC3DF8E5E6BDF8791CBD18B21BBDD44BE73DAA383DBD5CEF6D3D303507BE520C063E6C03BEBC10A4F13CC6E36FBDC039083E4559E0BDC6000FBD6864DC3C40A48E3D7C88F3BDD207BE3D1A53933DD258C83DC4C703BD92C4B0BDF085C2BDDC52C33D58D193BC86FD003EE8CBA1BCACD1063ED0853E3CCCE06CBD8027EF3A80FAB23D89FDBBBD7AD760BDC200B13DA97E10BEBA920DBDB4E23ABD5003ABBDEB1DE9BD14BE02BE5091323C3618B1BD104EE2BCD82A173DE0D6953C48BD15BDAC2211BE2091B2BBF4E0F1BC1040453CDCB9ECBDE73698BD6C1EE5BDE8F1F13D6EEE30BD4C99A93DCAF213BDFCF0A73DC43E5ABDC05E9EBB70869EBDD637033E5A63093EBE95C3BD125BC33D6A8ADCBD608A8ABDC8CC4CBDE86BB23CE0AFAFBD0C505A3DE6A688BD0E73033E0853833C38343BBDC3E7F2BD9CBFB03DF021563C59FADBBD707E8D3CE84FAFBD90A8F4BDA06D373D4C35CC3DA8410DBE389612BD8CBDE83D9A8CADBD2C75113DE89510BEF4DDE63DB0DB7A3C5CD50CBE2826F73C684C093E1476713DBD829CBD8E589FBD7A38CFBD907262BC5865AF3D200D063D14981DBDF6F9E6BDF85CE4BDA6FCCFBD0E8B9A3D3EC9FDBD1EADCDBD024F03BEA1F00BBE0218F3BDDC309BBD14B5EEBD40FF683DB0C03DBCC8D5953D1C82703D84D4CDBCAC9AFF3D276C0BBEF0350ABED82FA63DEC90753D80B1853D22D4A33DBF3B88BDC0523FBDC03FE7BB1A785ABD706CB93D702F3E3DB8FDB83C6844BD3D04F4663DE87BA7BC841A0CBE0225B53D203B32BDC8B2283DD8430A3E00BE7C3B2C7C333D9AD19FBDA61FB8BD402260BBC06625BCA4D3D4BD0EF90DBE206305BDD87DB53C78BAB7BD3255803D70D5B93CB4F79E3D200719BD30D65FBC9C885FBD708D6D3C5C73373DDC5D033D5019DD3C669F093EAAC35ABD9E89EEBDA631083EBE73113E08F29F3C100DCABDB016F2BD9050363CE0699ABC60838B3D137F9CBD4432133E2A99B33DF802D43CC076F93D9C93123DE22D6ABD76E50DBEEC530ABE3092093E3A0AF8BD8090C8BDD4E7E73D3012F53DC03CCA3BFA0B16BDC0B25FBBFC2E053EDA47A03DF83AE13C8FD4E7BD8B5799BDC0675A3D6A0F3BBD1B1504BEC03ABC3CBCCEDC3DE0C0983D821A12BE4466EDBCEAED873DDCE9E2BD82DB09BEC038FF3B7D21FEBD6D38F0BDFBE909BEF872B3BCB49AD53DA6ACE8BDB09B4D3D3EA08A3D6C1AB83DD8AAFD3C0438C1BDD2FC58BD700E583C5E570BBED1F8C5BD748271BD10E73D3DE95F08BE710D99BDA2D684BD90D7F43D7262833D70EA113CCCC4E1BC305F4C3CC85CFB3C5488EC3D18DFA1BC20CC06BE0894F83D00DB713AA004E5BCA8E4F0BDC8FD9D3C071007BE5B96BFBDB8D584BCE0A1B83CD413E23D46A3BB3D902A4FBD8EAFCEBD109C053DD4550F3D6411073EE00410BC6861F7BCC83CE4BCDD99E3BD3EA76EBD28CB67BDBA0ECE3DF0950BBC420461BD86D830BDABACD0BDF2680E3EF85193BC164E0ABE757A84BD80903BBBBB7EFFBDD05700BEFCA3E8BC5C3A0CBEC470E9BD98D58E3D257507BE695BA2BDB4D109BE88A30E3ED010943DA0E51EBCB9F8C1BD162163BD836E9FBD24300B3D30E3073E80CDD73A4841BBBDC277AABD860355BDC85509BD82D743BDF0D58A3D103413BCE0D86E3C87A0A0BD60346FBC4E95D03DFC86BC3DF064DE3C402ED3BD6068663D9232073E547EA9BCD2C8BDBDA43AE9BD10E688BDA0B3D9BC30A7D23D2CCF8EBDBCE472BD00F541BCCC35CABCBB1AA6BD98B1CC3DA03C62BC64144CBD9411A23DC86D023EF45EF7BD12CDB23DB07F103E723AD83D6458003E7E7942BDEE39C43D7ADBBC3D560DB53D40E7BABCF396F1BDB8C6203D0667CB3D7A2EFBBD07570ABE8C57CFBD7EE955BD68FC14BD9C58623D7669893DD829CC3DD085C1BD35718DBD18B8E13CD0A0323D7A2626BD8A9CB53D32A3CE3DAB2898BDACC3D3BDA6991ABD4418943D409E623DB9829FBD204CBBBBF84659BDFCA604BDB476CEBDC0E990BD5026C33D9020683D08F0D83DC6F212BE4CAA3B3D403772BC80A64EBB18CC393D4FDB9EBD204845BCC08827BDF035A63D205CCF3D801CBC3C440E90BDC42E053D341C9A3DF897B83CB8C0F4BD504BCE3C402A203C5410023E10D0723DFE60C23D06D2C33DD8D6023EDC8E293DB039003DB0130A3DA8B74D3DCC41563D478DA2BD602FFC3D38B9123E084261BD90583F3DAC20363DEC1D853D280A433DFC6FC3BD003693BA124464BD1C5FBCBD0EA0983D62FDC53D906EC53DC807CC3C60A8183D903ACBBDD122C4BD542DF5BCCDD6A2BDBE0980BDFAF301BE70659C3D602D46BCAC50B73D867CC73D521D113E3ECCBBBD86E8A9BD0041613CB048C33D333907BE902E2A3D5A38B73DA0C127BCD40E7EBD2016E73D1A6FCA3D6A8F043EC4E98FBD4C0A073D62450C3E1FEEFDBDECE9FF3DF2BCBC3DA036D33BE60AFEBD5E70C63D42DC94BD90B2FA3D722EE9BDC08EA6BB80B49F3DD3D281BD8E59043E8069BF3B24B1E7BC1422AF3D84DFA53DE87AF23DA83DCFBDFACF9D3D8CF5AC3DDAAC5ABD4EDEBDBD0812D93CF8184C3D180B5C3D50069A3D607353BCE6C2D2BDA69704BE7E5282BD20A8C63C7D6D8BBD9CA6D13D600D773C70AEB9BD10FB41BC2D628CBD5C65DEBD78B561BD4A4ECF3D86550C3EBC4D6F3D2E3B01BD6CA0903D0C121C3DAA4FA1BD9611D9BD202A7F3D8FA996BDFD91D7BDBA1DD73D19F405BE6444033E90856E3CA0E2263C4C2BF6BC0A92BD3DBC4C1BBD35A8FBBDE0FF4EBDE0F0F5BB665844BD50144E3DE8EDF83CA852CD3D58C6823DAA28C13DB808343DBBE301BE5015A5BC20C8E1BCA48C603DF8C164BDD694A0BD2EA907BEE625013E7082B1BCB0D1AD3C90C8733DB22E0CBE270108BE6673943DA8591B3DDE60C63DEA8001BE102E093E884D3ABD88D4C33D040AFDBD9C1DB4BDA68510BD90BC0D3E98D3ED3C6BE6B3BD7F5406BE5016E13C583C223D86D1C83D33EE05BEF86EC33DDCE1243D1C70DB3DB42700BE1622133E8A1C5BBDE8B30E3D0091AD3D463C06BE514004BE4018293DA23AC2BD94E58F3DBC2309BDCCAA8EBDB8B29CBC247F43BD84CEA23DE086B83C620D05BEA4F0FD3D3CAAD5BDC03C5DBC616113BEB10F0EBEAFA70ABE04A2463DA8A9513D7222B23D8EDAA9BDD0CE093EB4DB343DBA9F77BD6054893D94E2353D00E4033E28C2B4BD0488F13D727146BD4C93FF3D1C40D43D2C12793D34540EBEBC40FABDA02BF63D35D6F3BDB86588BCA0AC913D1007193D519AB2BD70920A3ED046DF3D28FCEC3D80D0FE3B40CEA33DC4A0C1BC480D01BE698EE7BDE8EA653DFA10993DC02A423D683988BC507A053EFAC92CBDFA1563BDD0FFAC3C7660D63DA4F08C3D549E4D3DD84BFE3D5992BCBDB62AA23D80285F3C90BD8EBD724F9DBD9845993C50EB973C0E228A3DAC985DBD6CC8A63D4E1F34BDF8261E3D1839BABD150002BEE843823C464347BD76779EBDD071E93C8CFAAD3DCCCFE53DEEC0843D26E52EBDD5FCD4BD304CA33CB46E61BDA03690BB90E9003EBA2DBBBDDED602BD2A4A0F3E1826E13C8C27813DDCEA00BD2A18B8BD7A023ABDC097B4BC96A897BDC0FDEDBB907BD0BC68E0DF3D66BF52BD007C013BAA9ECBBDF0F1E43C0503A0BD02C83CBDC055063BCF1EF4BD482AD23DF851EE3DA057093D74A18A3D5C5BA9BD6090A93BF061D63DAC9EE73DD081B03DB063323D86DDE8BD40B3A43CF4C011BD8E4EC8BD5F13A9BD5CF1C6BCB43DE93DF0E4E3BD541732BD9093793D1CA5D13DAC5F943DD215A23D9E180DBDF019BEBC5490DABD6433E5BCF0870BBD34E2443DFA9D4EBD2010533DA0BD8E3B2204AFBD78FEE63DE0BB423C24E86DBD88AECFBC6CA9E7BC262566BD5A59EABD60EA7A3C306B47BDDCFD03BD40E37BBC80DED63A1E9778BDC0CA463D6816EC3C88E88D3CEE827BBDD02B393DF0116B3D6A289A3D08DFF23D0A7BBEBD7C2DDCBCAA970A3E8854FE3D9084EA3D3A8858BDECA006BE10110CBD0E53B7BD40BA9E3B08F30E3E5EF1C6BD96B573BD36D979BDDC1D0F3DAC3ADD3D4653EDBD9EAFD8BDE499A83D0049DEBAD8A1943C8A6884BDA875133E103C753D6E2D993D2C1F7C3DE77F0FBED431DFBC6EE10FBEC76FECBD70AE12BE64D8013E7CAF69BD56C3A33D69DA0ABE5C88C8BDB6281EBDC60092BD10FA563C1CD680BD4688B63DC06C173C3415BCBC040D36BD286CDABCE018113E381CD4BC90DB2E3CCCAEAFBC1435F53DC4D5103DE0CFA33BF8C4153DC8AA8D3DF0BC2BBCB670103EAEABA43D30D4C2BDC0D1E03B94C6E73DA89B97BCBC700F3D5553F8BD2AD468BD90C68ABDB81A793DD69896BD70E83F3C87DFE9BD30FF773CA0CE2ABC2036D53B94CF53BDA7FD06BE3244AABD2016A43CD4950D3DC2DD66BD10ECCCBC8051AB3BAC26D53D2CDA35BDF001053E977302BE005DF3BB4ED0BB3DA8481B3DA26DD8BD408E4C3CD15AF0BD6A1F983D605BAC3B7017C93DE8010F3ECDA393BDF0D1E2BDA854E93D9614E2BDD8AC9F3C52D96CBD0E17103E98C5FB3C8003DEBA62CBD7BD926EA63DB0D7873CC0FC323D24A6B3BC265E07BE8C60B23D686311BE441EADBC423D993D60CEA9BB20C3ED3BE677093EDF5696BD0088DF3D443C1ABDA6C6803DA46B2FBD70E1003E48B1F8BCE7C508BE7E527EBDF0D4523D7992ECBD302F663D9C333F3DA8A904BD804F443B1DB88FBDA9EDEFBDCC95DA3DA036F43DD0A4D63C7CE1923DBC9FECBD7ACC873D107A063E8245BDBD58F0893D805BF6BA2459EDBC34900DBDC688093EDC8FD5BD7C1DB6BDE89A44BDC0E5C13B90D4A13C16028CBD50FFF3BC344D943D2F44E6BDB63D083EDE4203BD02FAC3BDE0AC953CCAC8C53D9C7192BDE01C99BC1291A63D66F3D8BD80EECEBD5EEE8DBD7AD19E3D60FE063E802FA13B3806C43D385010BE0442E53D5CB07DBD90163C3C0058683DFA559DBD00F1AB3DCC79BEBD0E3DC8BD61F3A2BD12E8913DF027BE3D102BE0BD1956FEBDBD9DABBDB623123E2C45093E50DB76BC8098453D9C31133E9461D5BDEA0E3DBD887F8DBCA8AE22BDA068F3BCEAA66EBD603A0FBCA4EC1CBDF4FD743D005412BE9864DDBC688DF3BD941B263DF4A50FBE54DE223D28918D3CF828CDBC0815D9BDAC30FF3D146AD5BC3CD3C8BD2A9CA53DE4AD763D190008BEFC3DF4BD749CB4BC8D1D94BD18FDB2BDB4A0023E00BB9ABA9CFC843D0420053D3D2FEABDD848D33DFC80C8BD40497E3DB0D2AD3C0C6FDFBDAC84083DC0F83ABB4058FBBB58A6AB3DF252D5BD9A2BA33D529458BD0A6B71BDC48109BEF35F80BD0E0E033E527FAF3DF838893DB5A007BEBC93F13DBAD80EBEA27EF8BD20015A3C9C1B10BE367FC6BDD11B8FBDEC8862BD2CDEEBBCA800D5BD9A165CBDE944D3BD8A96F9BD200D11BCBA1912BD445BA8BCE60669BD80422FBDFAA812BD903B0C3DE0A6FEBD306733BCF06FA33C5061053EE85F0E3D8B6FBABD0D9FA4BD4318A9BD30F3C5BC025E083E1888823C980A0C3E84990D3DF462BBBDD6F87EBD8080B43D5EA953BD608FFB3B2CC1FA3D00EE793B7E9D9BBDD8DF393DBE4304BED04783BD843DE13D802BB5BD597904BE00A973BA47A8E0BD58AA8D3CF6B5ECBDF2FA62BD8C5AF73D6120D9BD46AE133E9087363C9EB27EBDBA6313BEA0CF49BCB99F05BE508BE73CCB11E9BD2ED7BE3DFEAB06BE6CA2353D9CAEAB3DD04031BC183134BD00854EBAE7B4F5BDAE67903D84020A3EA221FEBDCF3508BE807CCABBA894D1BCA0CE37BD30A5123DC07B263DAAABDABD86A4973D3ADFD9BD009B0DBAFC1FA73DFAF7A1BD70AD933D7CB4F73D801626BC69BBA0BD9C8D73BDF8EBA63D5A0DE7BD862E0CBE1CA6173DB4C27A3DF4EAD6BDC69065BD02E8E5BD00162DBADA1FF0BD5031C23CDE38AB3DFC4EF4BCB6177EBDD84FC03D84CE02BE041DD3BDE600C4BD202844BDECA1C23DCED3D7BDDFF8F8BD60B5A03BF0823E3D40F237BC8A3478BD23E188BD709C02BE3A4FA13D4011983DB39D8DBD72CCA83DC4482E3DE021A43DD482F13D586FFF3D1E12D03D206B0C3DB8F92A3D909C5C3C7CC9EB3D8CEE44BD6FE390BDA8DB8B3CF84368BDD84401BE480A0C3D8C614B3D167DC8BD1C2DCD3D68F00D3DAA90CE3D1857FFBCE16AADBD0CF955BDF09FA13C469C023E2111A2BD1198A0BD8AD30DBD6EFA18BD124A833D1012C93D7211F9BD54FBB53D8297013EB8D7A43D4E1B06BE98D4623D183DBE3C3D478ABD6055813CB88CA13DF0B664BC0CD1223D9CFF743DBF22C6BD40FCAABC78BB9F3CC4C9013EA450013E36A8FFBD8414ED3DBC749BBD1C69573D4371DABDB87F023DD8172BBDDAB9C63DF06E2EBD1340A2BD1811E13CC8D7853CDEA936BD70AF4CBCCB900FBE90FF813C5CA8873D73E8A8BD0CE9C43D70DF33BC476FF4BDA867F93C30289E3C68934CBD80534C3DD0AB263DDEEBCB3D9C5279BD121544BD940307BEE2C2D23DA44DE83DA0A1E23B1C7EC6BCA82673BDDC4F0E3E74A2FB3D26D5ABBDF85CCFBC01B80ABE721EA3BDE44E0B3DA0ED8ABD30F32DBC704E1FBC84200FBE88BFE63D605E94BB90A01F3D2439EB3D703FD0BC485EFC3C94BBDF3DBC5DE63DF45135BD60FFA23DBCEC7DBD7EE08E3D7C4BA63D00C657BCFAF68F3D3F3BC4BDECB6E23DB8DBB3BDE0A6473DEEFF9D3D5147ABBD6753F5BD913CFCBD9AAE873DA09B29BD1BBB88BDB829EBBD4CCDA53D4CC236BDC8746D3D5C68083E1429B6BCD626A5BD2830E43C8ECB69BDA8CBE23DB000303CC0B93C3DECA8D7BDDECDA43DC2EB093E162B4CBD381DF83D0092FC3B98916E3D9CAB913D5C4E363D00F234BBE04C033CB05E8D3C80606EBCF2D54ABD802E033E00401DB9B4C40B3D559A99BDD861683DEACB853DA0EF273D084C82BD18BC173DA02C05BE1405E93DF85286BC100AAB3DF5B598BDBD33C1BDF44A13BEBD88F7BDAECA0DBE7063A33C2045BD3C829C083E1994A0BD91F0D8BD88BF923D003013B9780E96BD4091ED3BE42D0CBEB31699BD8485543DF861053DC09E8F3DD10110BE80C0E6BB3056063DBC5FB6BDB3EA86BDC083DA3C68990FBDC2B4053E82C3B1BDCEB1943DB0E5863CD59D94BD503DF73C44B8073E047F2D3D79E6B4BDB440B1BC5BC6FEBDED05F0BD38B8F43C5C1C983D2B2E96BDDB65EFBD32F6A03D9802E63D5866A63DEC05013D74F26F3D1C8986BD2481C5BDC486A1BDA0F5843C50039A3C085BADBC870012BEC2D49FBD009F843CB5FCA2BDA62D4ABDE4C539BD981DFE3D18B3C1BC9430E53D66F110BE3C230B3D48310B3E289AE43D66F1ABBDFEFF3DBDDCE6363D10B9213D0C1AF83D88515A3DB06689BDDC36FD3D1C8EA2BC14AFAFBC9B2E0FBEB432E43DA86AF13D3F5010BE989D053EBE72A93DC4A70C3E90344B3CA59C9ABDE4CE47BD60B1B63B70BE24BC8E1CDCBD2619C9BD00D54D3C3C55D8BC30B588BDB8FA05BDBCEBEE3DBE099C3DE0B3F03C986C943DA055A83C38540ABE08B10DBE90B899BC90EB6BBD0C2EB43D803E97BA70E128BC39E6B6BD74ADBEBCC0E84EBD949AC33D8C30473D5D88B2BDA04384BDF21214BD1854BA3CE7D5F4BD10B221BD962E003EB4E104BEBEB172BD96CB913DCD7297BDA44D3CBD5C9EB83D00DEAF3C5E60A03D90D3003E00648239F3D9B1BDB041EDBC549408BD7A31043E1FED8DBD0816023DBC94FEBC5267F5BD50DBC2BDC22958BD48B465BDF4E6E0BCE08DEABBE0D3103DE0C898BB0028F03B2846023E4AADACBD98BA353D146DC13D70D0E0BCF03B4E3C92E8B83DCCFCA5BDA40DDC3DC62485BD50369BBC18E9573D34D9C43DA0A6F23CC083103CC835993CC0F0923C56FAAE3DFE2D04BD8494A5BD20DFDCBBBAD20ABD11BFFCBD2806B43D70C399BC78C98A3D8056D23D011387BD225B853D1742FEBD80FAE63B94A5723D3838DF3DA006183C309D1EBCFC16B5BCD3A008BE04E6F83D4D5595BDDC7B17BDD23F85BD6EB670BD9A18DCBDB048DBBD680D0ABEFC28C33D25D809BE98F5F63C584DEF3CCE69823D7767F4BD64F4743DC0BE2ABCB8BCA73C6852BCBD56155ABDBCBCF13D2B3A0DBE88BC08BDFAC884BDE055E93C040E7B3D04BBA73D5868A1BD282CE53D0021DF3D8094033E1C22F43D71CD0FBE0CC114BDFAF4CBBD7E7621BD1052513CF0B8123EF4070B3EA60C003EDCE0DFBDCFC78EBD0026033B632FBBBD8C3B093E440A1B3D10E9AD3CDC83433D749B103DC33CDDBD9BCCD4BDA5AE10BE784BE43D963651BDB0C9943D581BA9BD866AE5BD10622F3C289A2F3D3CFE98BDB835FD3D76D40E3E108477BC1433993D6092483C7431C7BC6C5119BD2AE6E6BD22E9F1BD985563BD244DC0BD16C4EBBDAE28123EDA48C23D46CCB53D9070F9BDEE7AC03DA8A2DD3C6848AA3C9FB5A1BD5C99033E509DB4BC4008903C0010223938AA033D8C3A133D80BB37BBBE04C73D26900BBE1872FD3D025BB4BDD057CDBC524E023E805B423B58971A3DB077943D602ECEBC34C4F33D69439DBD1620D73DAC3BD1BDA05192BB0635CABD664C1EBD3E762BBD08400BBE34B1A73D580EFFBD6E8C9D3D0DD985BDC010563D00B0303B646DF83DD4AC3E3D7F5ADFBDE03E273C262903BE7058873C34EF823DBAE5ABBD6AE724BD2C57E13D60F4EA3B425A10BE5859F63D90D6E23DA2D3C73DAC02B4BD6A8B84BDEC4F93BD1C018BBD1A945CBDD00F7E3D5A2FD6BD006CBDB99E70B1BD44CFC83DE0A6F9BC7833E13C1C64C2BD9030C0BDF8578D3C4F7882BDF4C6803DC0733A3BE196D9BDD0A5943C9838DA3D00157E3DA4