module attributes {tf.versions = {bad_consumers = [], min_consumer = 0 : i32, producer = 1882 : i32}} {
  func.func @main(%arg0: tensor<1x240x1xf32>) -> (tensor<*xf32>, tensor<*xf32>) attributes {tf.entry_function = {control_outputs = "", inputs = "x1", outputs = "Identity,Identity_1"}} {
    %0:2 = tf_executor.graph {
      %outputs, %control = tf_executor.island wraps "tf.Const"() <{value = dense<"0x572B5FBEF621A2BDD5E2333EB2B890BD6677C03DEDD44B3E2DE9463E08E872BDCC5724BE8C641BBE2885DA3CCAF13CBE40D7E3BD1BC3613EEFF7373E79C9193E1B2D533E160DB13D401A323BC15A593EA2F98BBD9EDDBC3D1ED2C9BD402F4C3B7738613E0090EC38410D5E3EEBC41E3EBADBCA3DEC454F3DF82A05BEBBFC1E3EA8279B3C10058A3C9F781F3E7E94D43D1ADD993D191E4A3EB659AABDCBB6263E73A2DFBD8622B3BDEF160F3E588A41BE805903BC3F62513E0080C73654F368BD74344C3DE22AB9BD84B11BBD534E43BEEC510BBE917C0FBE446E293D0CB026BED8FDA23CB4DB3C3D85C3463E11B25A3E2C4C37BE96A19B3DF72A2F3E2CC30EBDF9F4CCBDEE9642BEA03A35BD809C95BD563724BE7ED5FBBD801747BE758E1ABE3926543E2088AFBDBC5E74BD802AF6BC7C9D0F3D33BB2CBE5021FABCB868C03CE03FA5BDE70B3D3E6C25663D541ED5BDAE4EEB3D098C473E8B8442BE84D247BE12A4A33D043756BD55C8153EA8F2A0BD1EDE26BE65430A3EC80E0FBE2955113E8A77B93D302A69BCD5E1003EC778263E08DDC6BCEC5491BD4002A1BBF44A443D40DCE8BC4BAE2E3E0AF9ED3DA4217D3D7B39273E609D8BBD6B6E433EFE312BBE"> : tensor<7x1x16xf32>}> {device = ""} : () -> tensor<7x1x16xf32>
      %outputs_0, %control_1 = tf_executor.island wraps "tf.Identity"(%outputs) {_has_manual_control_dependencies = true, device = ""} : (tensor<7x1x16xf32>) -> tensor<*xf32>
      %outputs_2, %control_3 = tf_executor.island wraps "tf.Const"() <{value = dense<0.000000e+00> : tensor<16xf32>}> {device = ""} : () -> tensor<16xf32>
      %outputs_4, %control_5 = tf_executor.island wraps "tf.Identity"(%outputs_2) {_has_manual_control_dependencies = true, device = ""} : (tensor<16xf32>) -> tensor<*xf32>
      %outputs_6, %control_7 = tf_executor.island wraps "tf.Const"() <{value = dense<"0x0284803D2A1CF6BD6E98F43D50FCEA3DC81D273D8E4C1EBD0439ECBD1357DDBD9C0C593DB23AF93D28A4C93D6CB1E5BCF86DD93CE0396C3D9CF5673D146A0E3D98D4E03D041BF2BC00BFD53D20D237BDCC06CEBC7E13983DEEFDCB3D1D17053EF87A893CBD42CFBDD4B3853D3ADAD03D8A9C03BE516D9ABD0D41073E884755BD1217E5BDDACE5BBD5607C73D59E6063EA97A9FBDA857813CA422A33DA4DFC9BC009ED039062DEC3D8F64A4BD3C9A9ABD90A9643CE85A983C6090DF3B90FD17BD7623CC3DBEF9A0BDAAFBB03D406B4CBB97CC003E0EF9EB3D66B398BD3C6919BD00EC943D8CEA96BC7AC40EBDD0FE963D386D123D901755BD213607BEBC44593D6706043EB2A6CF3D68FBB53D62B2F63D2BF489BDCA3BB13D6A00E93DA8F3ED3C0C06733D8609F93D468BA8BD22F389BDE20033BD18F6CB3D1048483DC3A2003E70D051BCB22854BDF823AEBC901D7B3CCC0ADA3D00926EBB509ADEBCB8A926BC40396E3C1E270BBD525CD93DB20B813D8A15C43D1879213D6701E4BD7CEB3A3DF004653D1056B13C80D9813D402F18BB289646BCCA7DA2BDF470683D882B2FBD79EEE1BDC4D025BD6EF59D3D9AB62DBDC0C4873B0430E2BD5475CC3DEE75873D7128013E7457133D91B1023E6092E2BBB288C3BDE68D58BDB0BD0CBD6426C43D7C42BABCFC2BEBBD14C6DA3DB015E53DE0BEC13BF90BE8BD46A8B0BD009F10BD0634F53D089D0F3D9A05A63DCA9D03BD5901D6BDE658993D34F6C83D7471E5BD8D9389BD88C1AABD2443E23D9A042DBD6063FA3B36339CBD131FD4BD5AF8C6BDC0FA513BDAFC67BDE915053EEED47EBD8FAF033EF528EABDAEBBCA3D786FC0BCF865ECBD9576C7BDFC60463D90D344BCF055233C600C04BCDCE4093D5A4D05BD38D3E43D04D918BDEC026E3DB0FABB3D2ABF1BBDC0CE91BBF048A7BC46F7EC3DD43FFDBDFC78FCBCA336083EBACCCEBD7488133DF80F013D80F8F2BBA28AA13D081DF8BCF0237B3C406B6ABC372307BEFC6F163D222BD3BD5A2CEBBD4CDAF3BD3EF7D6BD4A93A7BDF49BEC3DBC98433D80FAD63C004146BBE826C3BD262BF13D40D5163CCC96D7BD4AAFDF3D6002C8BCDAEE4EBD827994BD8043833C5B7703BE460CCA3D048D02BD96C21EBD9036D03D3421483DA6BF06BED5CF073EE051ACBD38004CBD802388BDB255823D512B08BE8E4CBC3D503D04BE3807B6BD149EF3BD0C37ECBDB4AEF1BC5822C63DF246A0BD8A4AE1BDFD74073E3962043EB499DABC187898BCA8A9CBBC0AD500BE94DC5C3D28C5823DF8C794BD2004A9BCCACA93BD36D1D0BDD0C378BC8AF101BD2237C93D9E32C83DD07BF93CB457BF3D00D3B3BBC0124A3D7E8153BD0B5F00BED67C06BEC556EDBD9AC3D3BD9527F3BD5D96083EE61BD9BDDA4D3FBDD0FB093D981C973C104823BC2846E83CD658B63D5EF2F43DF41BF3BD9A01B5BDA0128C3DC3488CBDD204FE3D20ABAF3C7A808A3D1CA98C3DA09DB53C887FD2BD8C9BA6BCF420B5BD00178CBB00C3C43C147AFEBD98F0663D15B486BD9C462B3D0AFEBE3D265BC6BD0E1BFFBDEB0DA5BDB01C223D3687D13DA89C913CC4D6A43D28589C3DF0263DBC1CC9753D16688D3D80E5B53BD07910BDB47F503DD61E9D3D121C8E3DC0D9383BE0364D3D4C3C3C3D7E4D983D0013A2BB407654BB60BF353DA68C60BD6495F9BD1A0AB4BDE597D5BD9056C8BDE030033C86878E3D1898C33DECDAE4BD082F863CD42FBD3D80D5CABAA3E1023E6448B93D80E8BE3B0AD1E63D8A49AC3D787A9C3DF7F3C3BDB8D8603DD0C6B2BCA027A43D002230BAD286FDBD7019CC3CBCA8C33DF07085BCA03B843D852D003E441BD4BCEE1FA1BD7212DF3D5696923D0860C43C70C48ABC97AEA4BD4B3BE8BD9867B9BC724484BD3C833F3DC0822E3BB2A8FC3DC299A4BD90DF2A3C28D685BC4621A4BD6CE9E63D9E01C5BDF26680BD6CB1C03DDBD8FEBDF23614BD98F6103D4E9AD63DB0A9D6BDD28FA9BDA676FD3D64AD1BBD22F000BD98B4BF3C4418CDBCE04F253CEBE8B5BD64977CBD8E18DF3DD8E2243D6097003D20EAD4BC383DC93C4C09EEBD5D74003EDAA0BF3DEAAD07BE109CD33C6AFD9E3D781301BE750EB2BDEBFCA0BD3A7AF43DEEF9F13DCCDDC83D10DFAEBCBA77D6BDE620DB3DF3A182BD288B8F3CE791FABDE41B0A3D001D043CC0BE893D02809A3DD28D883D047CCEBD20B41EBCA0AF223D0ECAE53DCC869D3DBA8453BD2A54C43D50DDB53C02352BBD5E55C03D021ACDBD196BD0BDB05EDD3C68B2FEBD6826363D215AF4BDF2911EBD247A97BCD6C5E93D284DC1BCA0E2503D1027273DFB4CA1BDE0C02E3C482F43BC26AEE8BD3EDB813D462DBD3DF671B23DAC5D9E3D7449E1BD39D0D6BDD4DAC93D3BE99CBDF01251BD9C9601BE7423CABC801F08BC6435BCBC60CA843CA047483DB6CB94BD0036DC3AA801C33DF8C2D2BC8970DFBD12D348BD0ABCA03D5E10C1BDB536033EC48E973D6A7EB63DA8A2803C4126083E68FD26BD7699D3BDEC2DDCBC20D7B63B5C1F173DEC34813D84D0E6BCB8A989BD3E69CF3D2681FD3D8073053CD46DF6BD3E87B9BDE2669A3DDA6A33BDB264933D1E82F4BD220BD0BD204404BC24B5183D1093693D827EA13D8C10D6BD405EC83C3CF4C4BD0CA82F3D48A0E23C68934D3D72338BBD0011D0BDE08AB9BC0B0DC6BD80702CBB8511023E2D1E013E83DCA5BD43A7A6BD00886BBC2E40A63D3F8989BD7E8BBABDA76F043EDA5936BD108C813DFEE288BDC0657E3DE739DBBD33FE92BDDB13003EB28A71BDFC282F3D6356013EC4B9143D5037DF3C4A86E73D809B1D3CCEE6BDBD7804D5BDBC7E723D40CD253C6D518BBD3FAE043E00B16B3DFE47AABDD80B283DC0DEBF3CDD6201BEC8DCA1BD8A0645BDECCF183D2C4D193DA03B44BC00B068B900856BBD613AD2BDBC0ED9BDDDD0043EE441E33D3027CD3D2A9C9DBDEE2229BD9ACCFE3D085ECFBCC2F3FD3DDB44FCBDCAA2F3BD8EB78BBDF6BC9B3D408F06BB0A89C83D00E85BBA647468BD59C5073ED241E23DB480D93DE671D13DA0F85BBCD828803C3DE8ECBDE0BD1D3D98A8B53C043F0D3D7A8EE73D118CF7BDF0615C3C80B0B2BA7E4105BDB0C4433D00BBD2BB24373F3DE460CFBD8001EFBB8C1FBCBCA6914EBD4072113BA61EEEBD9C9DD5BD903463BDE0FD623DD69DF1BD787A75BDD01C9F3C844BC0BCCB50A8BD9031ADBCC2F8F33DC218B13DD68AE7BD7EB55BBD8C179D3D54573B3D5880D0BDCF33E8BD681AA13C2022B03DA014803C62AF953D78302B3D2708013E98A50A3DF092F53CE4CA1B3D3437333D18CCB23C3681A53DECA35C3D6287F63D4B07D6BD4ECAF13D003BDC3B07288EBD68B9853DFCC826BD1BA5063E2CFBC53D484B563D58948C3C15748FBDB5578ABDF216CB3D500069BC20D3B8BD44493CBDBE4D0DBD92FFF83D30797B3D2861EABC947F95BDF155033E265FB73DAE84CE3DC0557DBC6347E2BDF095AC3D789BD63D30EBB4BD5C9149BDA8B0C5BD183CDD3DD45ACFBD226846BD120024BD7513F5BD189D893D189D2FBC4345EDBD360DFE3D107109BCA4225F3DECCA243D9278CE3D06DA5FBDFE202BBD2A4258BDB7F6D2BD96D2933DE680F33D9C5190BD88612ABD3847FA3C98D0923D983E70BD489EC03D40D75BBB80F723BBA29B08BDD69B37BD5EE1993D26A7F23D24F2DF3D05F3EEBDF04EAC3C2E4AA83DDE92BD3DE88D4E3DB217A73D5890AC3D6033EC3B5821F6BD6C98CBBCDE6556BD8ADBEB3DE5FDCBBD2843033DF874343D7069923C9018E93C8C5F8D3DF43DF0BCA75E8FBD98E5A8BCEA49EABDDE6A9CBDD0B306BCF3209BBD4A8FD53D9886F43CF27022BDD857D93C70DE6F3D62EFD93D9C127F3D3035F03C10D1F7BC98B6E0BD1CAA3ABD90950D3C109CAF3D7008F6BDB09E183D0835B23C4A822FBDB89535BD3A05CCBDB0D60F3DBAA9813DFC86D93D9CD8E83D695296BD1CB7AA3D95EFD2BDE0BC0ABC241A663DFEE877BD065FFF3D391B053E28CCBD3DD3EF073E608AB63CA871823D94A73DBDDAABA03D781BB23D906BE23CEE3C2EBD2A6DDF3DD81F263DE60E2EBDC086C13DFEA8BABD00E25CBD9665843DC0031CBDC0BA9D3D340B8ABD151BE6BD6C4FFFBD202042BDD230C5BDACFCA2BD80C9133CCE47AEBDE0CFEFBD3C3AE73D881D86BD4486303D612387BD34BAABBD5A2E4CBD4827693D6CEA8DBD367EF13DAE5E99BDF444C9BC42AB55BDCEA0A93DF6B3A73DB9DC023E721424BDE950EFBDA04A373C0E40EEBD7CE6B0BC562B1ABD085B5B3D6807BEBD54DB82BCCBB8063E0A6271BDFA2835BD58F74E3D9A93D43D727044BD2CF9D83D94427F3D402EF23CB05CC73CE0F8BB3BDC64003D9488343D2817023D2680DDBD58AA30BD70787F3C36C9A3BD80FF973C467EFF3D6271D83DBB5C023EFAE7A7BDE0DB2B3CCEBC98BD004CC1BA40CE7C3D4E0104BE012607BE468D84BDE6F29C3DC8D6AB3DF3B1BCBD10603F3D4CFD18BDE82FA63CB09E923D7214DEBD0CEF6F3D0EC399BD6955023E175302BE86B5D33D6EC500BEF9DCE3BD68EF493D0EFEE6BD38E7E03D16F391BD50B66DBC84076B3D8056A8BA501C703DDD83C2BD5913FDBD3C9F1DBD638DC3BDE624AABD6C7E473DBE998C3D4EDD34BD48B0503D38E455BD90BA143C968C0FBDF806E7BC8F77E7BDE0B295BB028B5EBD6CA57F3D5003283C0059F03AB212993DFCE56BBD1A7AEF3D5201CE3D20DBE03DFC65E7BD6019A93C10FBE23C86A0EB3D2846C63D4EA9EF3D6847CB3D94F8213DC5D0F1BD002D643C7CEDCDBC4016483BD4C3393DF045C6BDB0135F3C088FE2BCB07776BC8CA9A7BC20D0963D2004603CF8F5B13D8C96AE3DFE46BB3DFA288DBD664CEEBDECD01F3D057CEDBD38D0F43CEEF9B83D3ACB3DBD300A0A3DBDFE83BD9329013E687381BD7720DCBD7AD6873DAA7FFA3DEA10F43D76E1F43DAA205CBD00F373BB3884833DD090123D9EA1C4BD88C75B3DB02A203C20D5D03C9825043D002878B980B4B23AC881A6BD20B8D63B44C13D3D2A4EEC3D46C4C33D483CBB3D20B1503DD8381D3DB8A2CD3CC093A6BD4791FDBD9010A73D70F516BCCC6E1F3DC7CD9FBDC04019BDF54681BD3757B1BD0A27DE3D26B605BDD405B5BD9A3EE23DB41EBB3D6896763DA62E973D65C092BD660C03BD60CBD43CE884B9BD80D835BD88FBBCBD8E8FE5BDE2B19F3DCA72CCBD54845FBD21F0E2BD4058D3BDE0C60CBD587AB03D22DEA0BD7054B4BC0A6487BD58AE9A3D28E2B4BC91FAF9BDE9D407BE7B7482BDBE796CBD7E52A1BD50C192BC001797BAC82951BC3C950C3DAC8F2C3DE12082BD06CFE33D46E1A0BDA03A8F3DC4EC3CBDAC2E9ABC168C95BDA44C93BD006D923A32A03DBDC409C0BC518706BEC06ABABD8F00ACBDF842993D0909043E40AEAABBC0793E3B2B1290BD0063A9BD1C35C4BD996601BE76B905BD8A4B0DBDA055EBBD7E56CD3D70717ABCD850243DC4EB6C3D60A5B2BDF6CCCD3D7EB5ACBDA8446ABDE609F33D14B0703D74FB4F3D10084CBC408274BB0A2300BD2083113C60CCF7BD72F500BD6268F63D705C683CD0F1FB3CE8CCEF3CCA929CBD6C47923D6A9CC6BDFC3B99BD04B1883D65579EBD788A8ABD5835B03CD500083E9A36CB3DB0479B3C1E92F3BD0081823C4045533DC009E13C1EAEE93DD29D25BD28266CBD8C9EDD3DE0079ABD6A79B93D20F9263C6A4DFF3D776991BD72E55EBD8C0DCDBDCB95053EE23FB33D104B0B3D9CD78ABC50F82A3CAE67AA3DE3608EBD9A9FA8BD302AEEBDA803AFBDA07AD83D8036EEBD5725F8BDE6795CBD42B483BD2CC190BCAE58EFBD20249BBDB3D79FBDBAABCB3D94E38D3D18B4093DE68E85BD9033383CA04BA03DD20AAE3D84E31BBDE88DE73DC074163D312397BDA65C04BEE861AB3D412C82BD2809BCBDC7DE063EB04202BDC9AB02BED459E23DA080523D5C48393D00C4933A8041D4BA0080E238C0C4353D30F7CF3C0CAB5FBD647ED13DC081A2BD1EEFD83D927AD7BDEC75D63D629367BDCEB6DEBD03C98BBDE4AA583D6458F5BCD0DF86BDF0D2663CFE6D4BBD6CD4FBBC94B6ABBD5E31B13D48AE94BCCA298B3D74FB843DF982C0BD28F8DABDC8D6B7BD4211A53DDCFDD7BD9009313DB8428DBDC0AD4F3DA0A322BDF4E41DBDCEDDC43D4092B7BD2242E63DB7AE073E8CB46EBD30BB863C91BE073E1044B83D6430623DB04FC43DA2FA9B3D1864C2BDD050543CC05300BEBADD983DCF1408BED056073DE481C63DB818973D72BA903D0C4BF9BCB6D950BD07B79FBD8E99BB3DDE2A8EBDF11A86BDBEEFA1BD0A6879BD7E67FABD00903DB9CA05FF3D00BDD1BBF0ACE43DBE218CBDE0D675BD44D7153D004C963A74C2883D10EE203C6E514DBD5CEE393D6350043EE4B2233D4C41D9BDE08FE33C00D85E3CF580D4BDB108B1BD788E7B3DA073813BBAF2EF3D60BDA0BDE6DC79BD1A1E9D3D622BF33D30E4833C8866EB3D9C64B8BC42D4E4BDEBFDC2BDF447DCBD7231B1BD5CE586BCB655CDBD859703BE849DF5BD2EC1C83D00009F39787BD0BD0EC2FD3D5AF0B53D3707E9BDD244F03D1BC402BE60EA7B3D40A8ADBBA843B8BD7292C93D68632ABD1CFD02BE140D9E3DA8B9253D4ED7C53D260233BD00F080BA48E8923C24E0303DA4A1363D525E63BD0ABCB13DBC27E2BCF85EE03D1504F8BD24AB68BD0247A9BDA8F6CABC58DAFEBC44371E3D62BA9EBD6E2FC4BD924A47BD80361A3D1C3DFABC51EB033E52A8B33D5CBF5D3DBB4DD5BD862FA33DEC21A9BC5447CE3D80FC43BBB04E843DE6759FBD9A4CE93D1C3EC2BD9102023EF61B0BBD94597C3DE0D2C53CB00A0CBC80C8F13CA0ADCCBB8005F93C585507BD8A16BD3D8CAFDABCB8D1C73D6065963BA3A692BDF8B5C83C4CEAA7BC58E7D33C32F114BD928A96BD6A73B8BDF468133D2326DFBD00D2323B48C31DBD0E7301BDACC4F4BCF28A49BD2F16A4BD06E8823DC10A08BE3074FC3CD8BC44BC6D68033E3845A8BD88FBA03D6A103FBDA8EA40BCF6F9F7BD66F8C53D4797FEBDE45F0FBDB051E23CF08E0A3C50EBB6BC1EC754BDC87838BCF84D903D928F2BBD3A21B73D8A50E1BDD2DEF33DA104043E6034DCBDEB39F2BD1675A7BD061DB73D6C6907BD281FAB3D16B0AEBDEC9D02BD6050E9BD8877933D2831CC3CD0213D3D85F103BE12D6CABD5A6EBE3DC8FB823DD6CCB5BDEED316BD5D2381BD26E9F73D192A08BE1E78C6BD0470453DFF8205BE68C0DD3D5FD0033EE64DD0BD67018CBD4CEB26BD38B7CBBC7EE171BD7F3B00BE64AC823D1E29BE3DFBB088BDB26E8D3DFEC3FEBDA9CC94BD146D3A3DB812553DD062833CDCD32B3DA054C13DBE97EE3DCC5262BD4BF2F1BD311505BE1412DA3DD0CA3E3CF0C0883C2CF7DA3D9C8FB2BD58ECDA3DD291D73D5C4E65BD362D8A3D54B7073D14C6013D54D5E43DD8005F3D328E96BD7804C53C9DA9D9BDE0D5CA3BDA4348BD181DA13C506C323CA474633D7F6405BE80A683BB861EDB3D7A068A3D8848AEBCB0E071BDE605CEBD7CECED3DBCC8203D4E9BA23D860000BEB8E9B53DF0CCE33C0059D0BB4D2AA0BD6A25A8BD8046CABAF2FC29BDCC1ADFBDC88B6BBDC0D1F0BDEAD7C7BDC8B1E63D38FAA23CB049EF3C1CA089BCE415CA3D88A8CF3D72EC883DE008A13D1EE0DE3DC032FC3C98373CBCE8AD75BC282EDABD1AA394BD587CE5BD222BE63DA2C9FC3D4BF0E1BDAAEF8CBD00D52EBAEA42BBBD4E51ECBDE8EBC6BDBCB65D3D1840C93CEA5223BD1C90B6BC4541E7BD4054753B22C5973D6E46CE3DD01E27BD80C88C3C08F2DC3D146436BD5681FA3D005172BB68515ABDA8888B3C0DAF003E6A79AC3D80E07BBB187519BD56F8A93D5AC5EEBD2088BCBD3696BF3D98F7063D56FF23BD542FE73DAC98A6BC8A5AAB3D18238CBD643185BC6871903C80F78B3CE5A7F7BDAA76F5BD80B6BBBC68AEC63C8C5E6D3DE094DA3C5480E23DD489EBBDF4AE98BCA4EB803D2DA2033ED8D120BC35E083BD8095CCBD5C78A1BCF3E0E4BD02FFD03DB693D23D001569BC0EF7EC3D1C85073DB4DF343D12B6D93DBC27E9BD60EE773D2A39B63DD8AD4F3DD56406BE83C4F3BD1ADE27BD2CFB033D309F6B3DA38B8ABDB04B673D1600E5BD808DD8BAF8F19A3C6A23863DA0D28BBCA58E053EC6E5963DFC4D61BD1CAFA4BDF41E863D68053A3D10E4133CA04FB43C34E638BD3C12733DAA10A1BDE0DE04BC025AAB3D58D1B13C7460ED3DD2D7DB3D75EFF8BD30CF0BBD4C25363D2ACD04BDC05840BC5800A23DD7BF053E976E033E0C5FBC3D8D7B07BEC087983D8AB3BE3D9AA394BDA248883D80C323BDACB9423D52E7D93D0092933A705BF63C9A8CFE3D78D2FCBDCE97F63DA8F4C0BDECB3BCBD160AF83D4220AB3D508E52BD7483473D0CB3853D68F3FBBD5452273D64B4443D4955AEBD0086C73D5EE8FA3DA531BBBDD016E9BC10C2383D0DB7E2BDA80AE53CCA22E33DB071283CCA265EBDFEA5A63DEE7F33BD74BE803DD877543D80CF353B6664F8BD68D5153D86BAD6BD8773B1BD88CA6FBDB4F9B93D10D7593D3C5002BE0CF7C4BCD804C23D3ADF46BD435701BEF80EDFBDECEED43D943BBFBDD028793C82F98C3DE0B35F3D9855AFBC77B5F4BD59E1A8BDC6C091BDEA0DF73D84E95DBD6064B33C30266F3C9F0397BD0CE2D8BC5426623D426697BD6490DFBCE58BB5BD108767BC00FE0ABBA2A5AF3D60DE4CBD7114AEBD5EF38FBD146B763D00C37A3BCCA2513D5E6A00BDD49C843D7A46933D5688F83D242106BE3607CABD0CD0AFBDCE02E83DA4930E3DC0DC133CE0E59CBD9CBDAB3D9822203DEED8B93DC6CF07BE7740043E3B6290BD342AE23DD831B13CCA609A3DFCA7293DD33A033EBE068F3DF4D52A3DD008F3BD3002D8BDCC06AE3D68A036BC50C137BCE0AB2D3D006090381E08FB3D8011A43A8045283DBF8004BEA48D853D644BBDBDAC94C33D6A34B33D08BCDA3CDC9467BDA9C006BE6F80D2BD9AC6F23D1D72D6BD68F59C3CA0251D3CAC58ACBDA1FF84BD87BE073EFED4F43D007A893A80C754BB7040A1BDAC86B2BD1EE2C1BD9A7C7EBD2C9FD9BD2699C43DB688A7BDC033B9BCED5FD1BD4841533D96F1E33D649EE73DE157C1BDF0CC9C3DA0A017BDE86ED43C706143BD62E9B93DDEE3853D2FCDDCBD9468D83DC2F2D9BDD06A3DBCEFAF8ABD2465AEBD88F04EBC48EA1FBCB0928F3DA281893D203979BCBAC8BA3DEACCFD3D32C59A3DCA8CE83D159804BE900F423C8585033E08B12CBCC8B56F3DE89F1E3DE26FB53DB8B9823DDF23F2BD9AC8F2BDF0E17A3CC0B7033B8AD2CD3DDED6F2BD682D8F3C00E9D5BA3D21BABD887142BC762A803D729ADE3DCB338BBD2DF707BE7CBDA83DAD31023E9E9FCCBD8C0A1F3D5E407EBDC89286BC28A5F1BCE0B9A43B13E9033E5199063E5E8BA53D80245F3B909F693CF238C7BD3D4F083E8C55133DB25433BD2073D4BC92D0EC3DB83095BD00C13F3D80A0EA3B186BF73C982FB53C722AAB3D15A4F6BDC46590BC0031F03B5037893DA09B163C188E963DDA133FBD5F77BDBD6E00B3BDF7D4E7BDF0471DBD1A94BCBDF00181BCBA8D85BD388D173D726636BDA53308BE4095D9BC63ADCDBD40484A3CD880653DEA3EEC3D21E7033EFC4CBEBCFACAF43D2008F03B211D86BD869ADDBD60F5EBBC5E49DB3D820DD1BD44CB12BD2FD7D4BDFA5283BD7C8E493DF0F77C3CC062B33BACFD243D33809DBD4625B2BD3808C9BCD0B1143DD8B559BCDB5B013E98E3C43C86AB8FBDC09614BC90BDEC3CA81DE0BD5D28FEBD288BA23C79DF013E78CBA33DA4CFD63D20BA963D0032C3BD739CDFBD741C173D6C60273D0CD6B0BDE4AC773D6F6BD6BDD02BB5BD9F90063E86AACA3DD0477B3D0098963D98E6D43C2CE3EABC80B41D3B6D1204BE2862833D460BC73D4A1CD13DB0947FBD2AD3F83DB6E8D6BD00503B3C5FB7033E8AE6C5BD20388E3C98027E3D38DB3A3D58D8C5BC92EFEF3DB4D2033D980C243DD7C4033E643A683D901613BCC274C13DDCD22D3DF113B4BD4F84C0BD968F53BDD8BC9B3C16DB6ABD2A529E3D8285D13D547302BE0034703BD2D01FBDE4BBCFBD98E27C3D6266E73D0AFCF43D66F0CBBD2A4FB83D5BFF043E285CE53DBC10303DE05C3E3D3455CBBD001E893A1851803C2607863D60D088BBDCBEB13DB66B0EBD78FF42BCA02A913BE822E9BCBCDCCB3DF88FD13DF2F9FA3DB8BEBD3C5C72B7BD22FF933D8C565B3D365520BD34058CBCE601A8BD1E21D03D30FF203C90A7C23D3F008BBD402A36BD4496503D1620FF3DEC33493DA8FACB3D60D38B3B54C3B23D7A81E63DC4005C3DEE62D03D2AA29FBDD0729A3D20D0223D9D4203BE5493C5BCC085A63BEC2AAC3D6CDA47BD5285BDBDA46EF3BC40B9EE3B3051A63C781492BC5261DFBD550502BEC63AB43D244E46BD0E73F53DA086E6BCBDE98DBD59DC95BDA8034A3DD6F1BB3D16619F3DECB37CBDDA0BAC3D008EE63B58D417BCF4D7333D72C7BBBD9690E4BD8A8A863DA1A9B0BDDA2DD8BDE41DBD3D8CBE7E3D2C1DECBDF269E73D84CF393D7049A63DFC511B3D6AFAFC3D0A48FC3D943451BD48A8C83D9CA184BC9047BA3C680D0F3D9832C03DDAC778BD4A74E3BD78ECB2BD406E61BD89D1053EE023FABD80D465BC18D9ECBCC2DEFA3D103A513DC484BC3DDE70CC3D7095B43CD05B313D48AC5C3D911CF6BDD6F252BD405A573C40F246BCAEB9913D123168BDE43FCB3D3879643DE27000BD800785BB8033663CA898CDBD166914BD70CB803D7E5990BD4862AF3DAE119ABD448502BD28F477BCBAB8983D42ECAA3D6C3398BC1C19EB3DB4BD97BD0E529FBDE4EF03BE28A0E33CF07596BD043A373D1842633D4094D53C046BB9BDBEA329BDA0FA153C31E3EBBD40923A3BD851A8BD7C9BAB3D50290CBCD075FBBCBA3794BD90C7673D821AC73DFCEA5A3D56AF62BD82F43BBD1C5FCBBD08CF80BCD83A983C2FFD9FBDDAB59CBD638EE5BDECE37CBD168C9B3DACCA153D94451FBD909FD83C7BE1F4BD40A2833C0AC005BE0083DBBDA08500BC2AAA12BD5C58B0BC12C4AF3D10CEDD3C8495093D8AB8BABD4C70FCBC3AFBEABD944AC9BC4E59CA3D40543B3BBA7BC23D80EFA13C582C38BC006CFC3B5854E93CB253F43DEC9D9CBCF490853D100AA93C0E2DDFBD9CF0023DD0394DBDCCCFEB3D7A3DF43DAE4CF8BD1E87FF3D602F523D854BF6BD58F6723DE4AE8BBC0CBEB13DC7F7EDBD66DEB7BDCCAE403D1972053E18F3293D1C67703D4042433CBCE54EBD536807BE64B4B8BC9E740ABDAAEFC63D906895BC0C71B33DC04A5F3C09F081BD3F66043EEE8C923DD7C005BECE4D46BD0214863DB6E530BDB6CF4DBD6CB94ABD5B3E01BE7A70A8BDB8DA8DBCA6D69FBDEAB2F73D78F6203DCCB297BD4358FBBDA21FE83D0175ADBD98A54FBC7C8B323D68CBD93DD077D73D045032BD0C0F113D2816BF3C606B6BBD58896E3D80CD1D3CDDBCA1BD201E393C007CD9396AEE813D41AF00BE8007983D4601BD3D997BBDBD40AA563D08366DBDE624983D60A5A9BB50D4553DE1508CBD2897A8BC621DE33D963C93BD70ADB43C24A5B23D9625D4BDB89120BCC463B43D6E9EA1BD68C50D3D7A91B1BD29DCE5BDE2A3AA3DF61393BDCBB103BE589A8D3D409B05BEA0D28F3DA86BCCBD9C2C01BEC003643CA92BD7BD7899DC3D1445823D7465BE3D08FE543D84F5553DEA48863D88F18ABC6E79FD3D8032BF3BF029173C1895DA3CF43D113D367EB33D700CC23C7078693D4684C43DF5E8F7BDA8C0DA3CE6A6A13D4C87733D84EE2B3DB644DBBD45B3E0BD26FCC93D7002CB3D9FF6F7BD106EB7BCDE9D29BD0849A4BCBDDD073EE48C4D3DB0BD5FBC1AA2843D782DBBBD84BBF5BDBE6FBEBDF778C5BD09DFA6BDFCC504BE301D3ABC3077B83D501E7ABD84FC4FBD7383E1BD7015533C78D3CDBDFA06F33D8145E4BD1001A2BCF20DD2BD8811B9BC82F4A93DF087273DC4A5AEBD6CE8BBBCEA648F3D945FA43DC072E2BD6AFFCA3D0EAE0DBD383F6D3D8893BCBD79A0D8BD4A129E3D6E1C933D10A6873CCC02BDBD7A3B05BD7AD996BDD6F192BD046BDCBD2B009EBD44CF0E3DFF51FABD00F67F3B4882D5BDA86CD7BD13BAADBDBE6AE6BD802ACEBD00C1473DBD1B063E5223A23DFCDC713DD2BF04BE6417763D904E6F3C0A851CBD14A86D3D90CC89BD2E15F6BDE08F2C3DA20FBA3D44A696BDA8AFA2BC3438973D291CEFBDEC765CBDDA6445BD52BFD7BD4A07E73DA044EA3B2AF508BD62C3D2BD156208BEA87281BD0107B7BDA008193C44ADE1BC0CA9A53D46B09EBD7CDBB93D74F3A33D4609F83DBCCA9FBCBA38A53DDE8D13BD18ED76BD1230973D962A963D4080483D55C700BE429415BD98A2E73C45C2C8BD5E169F3D28C3C33D6EB7B63DAC80653D8836903D84C34D3D70B4113CB49D1E3DAB19053E9276B73DECC2F7BD78527D3D121BADBDF40E99BDBEBE9F3DA814D63C1CA9913D04B6F9BD4ECB9E3DEE35C5BD50D5503C60F11B3DC67A99BD34B11BBDA49ED33D993C043E80C4B43B4EC45FBD196781BDDDF283BDF63FEA3D22EEF33D79B1B9BD0C904FBD44820FBDA02DD43D7CF0DF3D40FE633DE96D023E60B0083CA0D1B93D384CE4BCE642A3BDC8EC9ABDCF5CB0BDECA1A1BDDE33E4BDD442A2BDA0A7363C0826063D4069AF3B624BCCBD3021083D6893973CFE6785BD50C2C63DA2EBFC3D942D3C3D3ECF40BD940F03BDA8FF14BC5E84D53D0A45CE3DE55F023E5D32003E5E688C3D028B75BDB2808FBD818C073E74FFD83D40BF163DFF7D80BD30E5A1BD4FF5013E6E1ED6BDC07CEB3DE0D8F83B007E71BDC275D63D56D6E63D205401BD36ECC1BD78F9E2BC181001BEB083073C70414D3C3542B3BD82FD1CBD70EE56BD220C26BDD85991BC77DF043E3071AB3D542E83BD90E338BDB819153D2EE4FD3D90F4F0BD5C7DD8BD4C13E0BD14A1E5BD167CD0BD4A24A63DB27227BD9750013E845D183DBA61B2BDB275E93D7483A3BCB4CE903DA0D5C6BDE4E9EBBC6207E93DFCB57A3DCAB38EBD1E0EF33DDC55543D990D003E2F5BD7BDAAD8CCBD6A89E23DE4449ABDA224E43D699C08BE1653FF3D6AB92FBD5F3B06BEA61BF03D40FA853C6C3EAE3D584C6F3DCD0E053E9E0106BD16AF8C3D6040B9BB008028B810DEBDBC2D4E07BE70774A3DE0F79E3B4E59AB3DA0436E3D9407903DA2EABABD94198ABCF8A32F3DD60998BD52F1C13DEEF6E3BD2B8C043EDCE4933DD2CC0BBD7A305FBDAB89B9BD24AEA03DEE9971BDE89AE3BD221856BD45D8C3BDCC8F193D1151C8BDA860103DD23DBB3D2913003E4C829BBCDB5106BE761CFBBDD8DDD8BC3CAF263D0E3DA53DE288A23DCC8219BD16BAD4BD0508B0BD50CF86BC3C2ED8BD46F965BDEC3972BD5849EB3C80AE07BEE0352ABC3F4D013E903B673D94D69E3D90A9643D60EA64BCFA03823D5AA9E83D403B023B7C20D63D9E68EF3DC8898E3CAEAFFDBDF27ADF3D37BACDBD5206C23DB5DAABBDCE17A93D0F939DBDE850D9BC80A2923CACE8733DAEC428BD90DEB0BD63A7C0BD10532B3C7E71F03DA89496BD7D86DABD104F4DBC6FFE8CBD7A7B933DE419163DDEB673BD0464653D50832F3C99248CBD1EF5C93DF02F963D0408913DB893213DC862DC3D4810963DF64FFBBD5DB888BD669BB03D7CC037BDD4E338BD682B893D3A94D2BD3E1201BDEA71B3BD265B4CBDD09E8CBC2FA6DDBD863B903DE83FA1BC803470BD20C49BBB50E033BD0879B23C2084BCBB7872CD3D4A95F2BDDCCE2D3D8103D1BD0CDA7F3DDCDF2E3DCDE688BDDF04073E88E86F3DA041F73B07E1CABD4464123D10F802BC2035B73D78DAFE3CA86F813C6864B4BCF0AF40BDC0599E3D0C39FEBCE839123DC6189E3DB2568D3D0EB408BE4066D83C581B083D12C8E73DE64FF83D96A4C23DD8D2B23CD8CEC13C00EBE63BB68C973D1EB7A03D3AD408BD94928C3DF83B2FBD0C0D803D604B353C3510E0BD185E9F3CC073A43BD02772BD1D49033EB4AC933DB44DDD3D6CF428BD902D9B3D2CE49CBD941872BD2AB59CBD7E37ABBD40D5CF3D150CE6BDAC7A80BD375007BEC0F4D63C26339E3DAB33D9BDE0F2A6BCA60D993DA8AC03BE62A27EBDDF48063EC0B65C3C452F97BD80F1E8BBFE1825BD70C8DDBC40740E3B1415453DA837CCBDF29CEE3DA28A2DBD649BB9BD402D42BD506BEE3C287AD63CE8DD703D88726CBC76BC833D28BAC9BDC8EF873DB419063DD8BBFEBDDEB079BD3879363DE65AAEBD783B8A3C40D69CBC1969C6BD88993A3D14FA073D5F4184BD801ABABB7885333D2AA69CBDD8A86ABC5EECF2BD0E7AEFBD56F1DDBD942C87BCB6B2C03DC02A093D00D8063BA192073EB0EB283CCC54ACBDA83DDA3DF09072BC4E33B83DE2C3DC3D4035153DC3EEC6BD742C373DC63906BD608F303CB5F4F4BD208BDBBBF4E19DBD5256843DB5D498BD20308C3B664C9B3D6036143D001CA53A44B79ABD2615D93D22B7B83D49FAA2BD6C3E07BE0CE58F3DFA0CF4BD909B92BD96FFFBBD6024163DE693D3BD6C739E3DEAEBA0BDD67E9F3D4AB911BDE03D0F3CCD67043E1089673D1C599CBD26E1FBBD802C18BB58F2B23DAC2D4A3D7C59C13D00580BB9B865153D0002FEBB0DC2073E6CC7D23DE07B873DAA95963D738DCDBDF96AEABDD857323DF488D73DD2B3D9BDC22980BD9434DC3DCFACBEBDCA49B83DB684A3BD8E1CBEBD5CF58BBDF05CFE3C33E2D7BD40FA72BD2CEAE4BC162DF03DE6422ABD683886BDDC5FD63DAC49E63D584963BDEC35C7BDDC2CCA3DAE92A5BD882AB73D76A9FA3D6C7AAFBDE41BE9BC0C9FB9BD285F873C52A2A73D689B503D005ECCBA78E0BBBD0758CCBD7963D3BD3C0E49BD006F63BC9C51CB3D39C0FABDE01E4E3CCDF781BDF8EFE9BC382EA43D1008D1BD4EADE03D7C6B7B3DF0F73D3CC9CBCCBDD8C50D3D3265F73DF55E003E8665A8BD0235C4BD6C909ABCA4BAC4BCDD01BEBD8ADCE43DC844AA3CA2DBE7BD20836ABDECD2C33D96D8C23DF0F3413C0ED9B1BD00BA55BA9CD2BDBDA098233C04E70B3DC655CB3D12E8CD3D3637D93DF647AABD2247CA3D504A693C48A92F3DFEC827BDFE7CD13DBA2A3BBD586DF83CB8B392BD70F0C43C005866B90AA681BDD8A5F8BDE05A3F3D30ECE33D9201CCBDDEFFC13DCC459B3D341B483DDC64993D8F3B083EFED273BDEDDAB1BDA8DD153DA78307BEFED4F13D5A3005BE3D60053EA0DB413CD5D8DEBDCE9A9BBD78AE923C00A928BCB085DBBCAE68FF3D72CE813D00E30E3C94C110BDA6E8D13D50BC1FBCBFC88CBDC2F4D1BDB023CA3D80A205BB410BDDBDCCF3BCBD194FBDBDF2666FBD288F1CBCDC609ABC2496DBBDC696CD3D3817803D9C0E313DC0A9113D1892DA3D3068133DF043C3BC7E0202BEDA2ED63DCEC99F3D8DF7B5BDDE71803D2281ADBDDAE825BD609ED1BBFCF4B83DB16586BD626C0FBD1275EC3DAAB28CBDC022613CC0725BBD0F9D9BBD2C4F97BD80B7E6BAF6901ABDA04C4F3CD8FF9BBD00242BBCC0902C3DC2FFC93D609B9C3C22ABBC3DE939D2BD06029F3D6850BBBC2A23C2BD6D90073E4338063EED93D1BD9538F8BDC82478BCB40104BEAC856B3D006C7AB94EDD913D9C94793D4031BB3BCC05283DE6019B3D08DE253D882C96BC38E56CBDB0480F3C1826C93C884460BCE0FFAC3B4881BABCF810CE3CAE9AEB3D8EC9B8BD50DB9A3DD07995BD30A1153D1CDC04BEC0DAF13BE039563D283E65BD8014DB3CFEA390BD9ED327BDA659BABDFAF8EE3D577AA4BDD06206BC58CA15BDA07C563DDA05833DA210FB3D5E62CCBDA274C33D2C01193D6AFFB3BD449007BE2D9F00BE808F263D478C00BED4CB95BD3065EB3C5025153C609062BC14F55FBD38EEB93C80D14ABC8051B93BE292DABDF00AD63D7BB490BDEBB988BD7496B63D7A6408BD045F76BDB42295BD6E3440BD7013B8BC4EC0F13DC8F28F3D104E683DC84491BD6F0A083E801A9E3C1820CF3CD225B13D3C7E4C3D404E24BCB2F0B83DF6E598BD56E9923D8871073DDAEBAD3D005C91BDA4030B3DE22D8B3D80FB033D6A218FBD5A6BDC3DA3F4FFBDD8CBDC3D58B37FBC8004073C12E317BD90774DBCA422FFBC6A9009BDA89EE2BC2012813D70AD473CE12783BD3072423C8CD1CBBC5ADDE1BD800204BC7345E2BDA8A44FBCD26B913D871789BD503DB4BC4823873C003C72B98ED5C6BD6ECD19BDB497E33DEA2D06BDAF71E3BD50588C3D2E52A9BDB0988B3D9E2FCC3DC32CE8BDA01CC83B089CCDBC34C983BDC51DD4BD20B584BB608B5F3DAE5AD0BD9539023E6C04CBBD9048D3BD7220F93DBCBBF5BDF6ABE3BDBA2C963D5E9249BD5027D33C6053643D3524053EFEE7903D64BE30BD72182DBDC05D79BDF75E063E28FB8BBDBCACCE3D546F343D18C0F93C986F97BD3EE0D13DF826A23D861362BD0A3CAB3D68F5D6BDDE2F44BD34A19CBDC2A6A5BD103D473D405DE03C8CE3DC3DB4E4D53DF56ADFBDDC74853DCE8753BD9CC602BD986ECF3C80014DBB2826463D56DC6DBD4C6EB8BC341C833D3660BFBD50F92F3D0DD807BE30F229BD1032DA3CE80260BC4C8CCD3DFCEB8CBC5AC7943D1491F0BCCC3E00BEF80D6ABD3CC6B23DBAFBB0BD948E443D00C590BD00B990BA7174003E1A8746BD096A00BE74B0BF3DC08D0ABBF0A844BDBA3205BEFE0F67BDA07F343D7A279F3D72718FBDF41EA3BD14A930BD400DC03C436BF8BD5845A2BC2E40A5BD0016993C4E6ADF3D5E4BA3BDC02AC13BCDBF95BD4007D53B1F8401BEA0B98C3D70E0B1BD063B8FBD4CABCCBD5096293D1046533DDEB1F43DA9B803BE123FFA3D74B910BD6ACA92BD30CD543D6047103CE3D8073E50CD5E3CC06CD43D10CD3CBD546F343DEA8CBA3D5E5AA83D502029BCEC2455BD55DF013E0462AF3D4CA704BE5FB300BE0CE0793D00DC01BBAEF6BF3D066EE33DA6903ABD3879F03C90A2AA3D94C3E23D30D03B3CCAB2A0BDB003AEBD8D46FFBD35188EBDC8FCEBBD005262BBB0F562BD284DA93C6CA152BD034BF9BDC0CDCEBB0086BB3C68264F3DDAD3DE3D44A9D93DCF5BA5BDD102CABDFE2694BD7070153CD3BA84BD5CECE33DC909083E589C8BBD26ED2CBD884428BDD04608BC2A92E63D10B9C13C2EC41CBD92BE913D90965DBDBCFDB53DFC50563D5230EE3D6A27A1BD54D64DBD7CDAEFBD44B9A03D7449E73D4864213DAE43E3BD78022C3DD092B5BCC0461B3B98DF673D28FE4D3D2E5D3DBDD501013EECEFB63D605F91BD806CB43C74D58A3DA0F2073D0EDECABDA85E15BC901CCD3CF45CD1BD283CABBD7709F3BD001DAD3B0099BF3A884BB03CC90CCFBDDA0E1FBDB8C8543DD17CA0BD0605E93D18F068BDF0E5383DFC1CF1BC7912AFBD189F313D007BA4BB60603A3DB72F073EC07084BB806BAD3D70770F3D2C12003DFCADBABD404E5FBC5879A7BDA07AC73B9402323D5E9CEE3DDB96003E3EB8A9BDF2D6DF3D4E52B83DC0ECB73CC667EDBDD043B93D802E9EBAD7EE04BE288EA53CC848D4BD9A940DBD6877E33C5823023DF8D774BC2DBCE1BDC452AEBDC035DDBB32733EBD882B613D00F706BD186AEA3CEE43853DB46B0BBDEC6889BC0CEBB6BCD8EE983C6A77C63DFA99C63D8889DB3DB80F823DD8C55BBC7CDA03BE4AD8BEBD987A02BE4CF6B7BC4232D63D90CA253C2258D93DDA96EF3D0AD2E13D0CA8E03D94F5253DD0A8A03D0010B0BAA024B83B50E029BD154CD7BDD61CBC3D008845BAD23BF83D55A8043EE8ABFEBDC8A4343D3A9EF73DB480E53D12AAFC3D30D6333D8855DF3C4038D73C8E87A03D738BDABD886D5C3D3C54863D803AF83CF032E13D0612A43D108DEFBD2A67A33DB796AEBDF2C1AE3DE8CC9E3C24E29F3DAEEBC33DD6A5CE3D8316D1BD8CECB7BCCA4D81BD626CEC3DCA61C83D08C1FE3C190C083E1A6E94BDDC5CDFBD3FD9DDBD549CFCBC50C3C43DB2ABD13DA68DE4BDE0FC2F3C9722A8BD16F0F83D9015583DB86FA4BCDA674EBD22C959BD5E743FBDC2D7F63D10CEFDBD84E8D2BDC44BB1BC1D54E1BD0069813D3E479DBD88E0B43D18947FBC7879BBBDC077EA3D2C1858BD00EA22BB241E9ABD4616F2BDCCE2C53D78490E3DB66C24BD94E4023DA2A9B1BDBF93033E5A9A883D293CD6BD8018EF3C1071063DC3F9A0BDA4B233BD465120BDB0C505BEF4FEC8BDC02B783B98F6BE3D80436E3D4C87963D400EB53DFB11FEBDA0FBEABD76FFE8BDC0CFDB3D2B3E97BD9CE7F4BC0A96D4BDF8CC6D3D0E57A83D8ABCF0BD7E19F43D00EA91BDEA0EB53D8C88403D3E93FBBDFCDFD83D88D5173D3C47CB3DD8039EBDF0298B3DC180DEBD5439753D2C06723D707D7D3D608C81BCE86DA83D5E21EDBD266E813D48DDC43D776D02BEE036ACBB8D6286BD76F3FD3D403E7D3C83D0003E2C51DBBD6EB10EBD4281D9BD90296CBCD03D58BC689747BC5CAC9A3D7C979CBDCBBDD4BD480C8D3D765C65BD7CFD213D5EF4B2BD78ACCFBC3885A6BDE479923D70814CBDAC184CBD381AF83C1900E9BDD6549E3D56C4DE3DE2CABF3D62D8F63D67F2A8BD803195BDCEA2BE3DD06F183DCCAF933DE0E17C3CD08F8ABDF0F6463C1D6103BE5C99823D34EEC9BC3835C8BC3E05BB3D789F50BC9531073ED0364E3DFC33613DFC1A2DBD6863C13D7090A4BDE8A5A83C260CDFBD88FF7F3D3073B4BDF486343D1ED819BD28742EBC54A5003DF8A82F3D6EB4AE3DB016753DDE3BC23D1A3F05BEBC36BB3D227BF83D3BA7B2BDC859DB3CA023CB3C188DFE3C40EFB3BB0C81BE3D68FF53BCF839033D14CAA7BD7AF1A13DC0435DBD8933C2BD0CF702BE713CA0BD4CF7E1BC85B9D5BDF3C0F1BD880E913C0C4A923DF2FB81BD1A02A33D20DBAF3B4058873B9045013D66EBB93D2081D8BB540297BC5059853D6251F73D62C726BDAC1466BD9E0747BDEBB696BDA4CB143D3E419CBD786055BCA0F82B3C4CD6203D70524A3C2B3E85BD204F2B3D54C1223D1427A03DE09B5FBC40155E3CFDA3A6BD106C933DA01DC43CC40DE5BD8EBC823D2E74B23DCF3BEDBD32E6A93D073408BEC93202BE4F9DCABD4A4CF63D00B6D73B32E6EB3D2C2EF7BD7651E9BDE49589BD7C3FCA3D02FBE3BD082757BD14D8C73D66E2E13DA4B1AF3D8C01A6BC06E5DEBDA6C013BD48F0D63D22FC06BEB035BF3C5ECD3FBD7A8591BD70C008BC60BB9F3CA0945A3C0C2E4BBDF806C0BC3A81F63D6B5BA3BD1E4ED6BD80E7FA3A686F42BC02CFEEBD5ABAFF3DA813CBBD5021BB3C5071CB3DC2AF9E3DC0E53E3DF6E07FBDBC9B15BD9139063E81C492BD40D7523DECF0ADBC3272C53D7CD6A03DE059063D8427153D10298EBDEA3CEF3D90FEE83D981EB23D801E87BB0CE4033DF8FCC4BD71B8A9BDA0F948BD607533BDA372A9BD90D7C03C7467C4BDD95A053E483469BC2ED7B53DE29FD53DFA0276BDAEDB09BDC18D06BEE6B0A03DE59DB3BD7CFDD53D7EE044BD4E3151BDAAB3803DA472B4BC707B82BC004339BB0C6CDA3D30E2E53C1680CD3D130707BE868094BDB0095D3D4406633D8E26A53D280D973DF07BBF3DF0525F3C34A85A3DC8FE62BDC0D86C3C201DC8BBB482B4BD4255BBBDB0B06C3C0057CB3A22489B3D107494BD25A9DFBD60CB1E3CF2A58A3D932DDABD2EEE9DBD083534BD78563EBD06E993BDC4578BBC6C44233D00DE023A947EA2BDA4BDD3BD3CE78ABC10D7533CB291DF3D50BB5C3D2863D93D80B8FDBC362A34BDC0F9F6BB0E6BA93D22F520BDE0F0ABBBD985073EE81FAF3D9FB0D7BD3A4191BD2C6182BDC87ED83D2E07A3BDDC59C3BC911E083E208B74BCB0C2383C1004633D5EFCFA3D18EB6E3DB661CABD4C46DC3DE2EE65BD4809F1BC9A658ABD30DE07BC1765043E9E644FBD3A95D13DD85A9ABD1CCEA0BC0016AD3964F4573D3CC381BDA0A945BCC886923D7A2FEA3DC0F5A73B98C1ACBC384650BC00702539DA7BA03DA1CEB0BDF09A1D3C367ED03D10823DBDAEE5A5BD1AADB43D9A14833D1C28B9BCF413E63DC4D2A8BD70C8F73CE8F92C3DB8CF09BDC0081BBBDC8C553D04552DBDDEA1B2BD405C47BB32D6FCBD3044CC3C14BC93BC3AAEEF3DD08E50BD98F961BD9C53D43DFF51B4BD8EBE24BD9884B43D4A7DCF3DE85D98BD10E46A3CBEAED4BDF854053D5CAEBFBCF047293D58CB0ABDCE344DBD32BF88BD87E9E1BD2C4B8E3DB08D18BCF85627BDA05CC83D1821D13CE0CAD43D2C215E3DE02D9E3B58A5343DDCF5D6BD8AA9DDBD6699823D80B59CBD32FEC63DD432633D4845CBBD581BB53D70E7263CF8FEEBBD140079BD1C37503DC03E17BB3E4979BD9EA6CB3D"> : tensor<7x16x32xf32>}> {device = ""} : () -> tensor<7x16x32xf32>
      %outputs_8, %control_9 = tf_executor.island wraps "tf.Identity"(%outputs_6) {_has_manual_control_dependencies = true, device = ""} : (tensor<7x16x32xf32>) -> tensor<*xf32>
      %outputs_10, %control_11 = tf_executor.island wraps "tf.Const"() <{value = dense<0.000000e+00> : tensor<16xf32>}> {device = ""} : () -> tensor<16xf32>
      %outputs_12, %control_13 = tf_executor.island wraps "tf.Identity"(%outputs_10) {_has_manual_control_dependencies = true, device = ""} : (tensor<16xf32>) -> tensor<*xf32>
      %outputs_14, %control_15 = tf_executor.island wraps "tf.Const"() <{value = dense<0.000000e+00> : tensor<32xf32>}> {device = ""} : () -> tensor<32xf32>
      %outputs_16, %control_17 = tf_executor.island wraps "tf.Identity"(%outputs_14) {_has_manual_control_dependencies = true, device = ""} : (tensor<32xf32>) -> tensor<*xf32>
      %outputs_18, %control_19 = tf_executor.island wraps "tf.Const"() <{value = dense<"0xE21F5BBD38FC28BD9E8BC03DC62D85BD5206EB3D9C6ED0BD9151073E55C8113E0034CC3B40C6BF3CA981B2BD5862503D7D5A8BBD6A2E65BDC2BAFE3D95AE0EBE64850DBEF6BEF83D787F33BDB03409BE2A58AD3D406800BD38F261BD0A83DE3D497A33BEC32B20BE6D912B3E6758C7BD009C38BAB43783BD106D01BCA4BB123DAA4BE83DED2D103EA4852FBE6BED143ECE2BD53D9C48353DE14F1C3E09590EBEC03C4BBC22E1B43DEE98CF3D1EC88ABD086B813C5DD7013E55120F3EA26CF23D68A3193DB6C4D63D86F17CBD5644A33D130B023ED46B88BD56ACA53D381CF53C586770BDE408723DBCB45BBD6697DA3DA4FE54BD5BE41F3E9662CF3DB6E3EF3DA4CEF6BDB931113EC03BC6BD922592BD1A970FBE1F870E3EFDF4123E627FFB3DDD8A253E408AB1BCF0BCB8BD5B7F0F3E09C8E1BDA03D19BD386565BD4AD2F53DB01F4ABD56C4B53D331E1F3ED20C67BD4D00283E60CC0EBC905FCEBC20E995BB7873C43C6070FEBD4F64B7BD5679E7BD121029BE61372ABE87352FBE5044223DFFD6263E982EB4BC5ACE953D8A6CFDBD677C83BD20412F3D1A13D63DF691B43D70D710BCEFA8FCBD3C4CCEBD850F163EA0AEC33B2295A0BDBADEE13D612B333E2236E73D86E1EF3D11B7063E3DA323BE2437813D4666F73DD9561B3EAF861D3EE2AD33BE29AA02BEBAD29ABDA8E8FDBDA985B2BD9441D8BD07DB1B3EDC050FBD48E55F3DB0AAC23C442ECFBD78B529BE671D99BD6CED2EBD4348DEBD6CFF123D0290CF3DE80EBFBD484D2F3D66ABC3BD6954143E42ADF23D54D3FEBD684677BD941D15BEF081A1BC787ECFBCF04F2CBE8EB790BDB0B7CFBD8895BF3C1D1E303EAAF257BD35B829BE545A83BDE09F88BC3320ACBD1F4E013E35A30B3EDE99F33DDEAA65BD50D4C8BC7AA90CBE35D38ABD384D65BD7016E93C15CBC4BD78C4513D02831DBEE15A1D3EBB460B3E4CE5E0BD68DA8E3CAEDD5ABDA6CEA53D728997BD463EB93DFAD00EBE60F105BDDB06023E21181E3E0D04183E35DB003E70C186BC40588C3D62F0B33D6C102FBD5A8EEC3DA34C0A3EAA68853DAA910FBE3EB5D2BD261702BECE3120BEA41D1A3DB9B3073E9A0ECB3D8A5CEC3D2087B3BC00F4B3BC40A637BD84C40ABDB97B26BE220DC13D4E97D03DE089E9BB805A343D1753193EF8B4DCBD787AA3BD6EC831BE7C355A3D67BC063EBAFC9A3D07310E3E102E09BD6EA5F93D20B7BC3C5276FE3D0B3E1C3E4A0A19BE88A655BD250516BE1120023EE6A607BE301B16BC0050813D13D698BD113F15BE38EB9BBC641828BDD040C8BCD5CD2BBE0005C1BB0667F63D60C1DC3C68365A3DC925CEBD226710BEDC4723BD5104EABDC807F93C0B09F3BD058B03BEE0501EBED0AAB0BDF46101BEB4FE2ABECEC3FF3D5862D3BC24F061BDEF980FBE0058F43A6218E1BDF7749FBD1E88823DB74C263EF8AC103D9ABE06BEEAEC22BE477800BE906D56BCA64E853D8B63233E58ED173DD87E863DBFBD20BEF604BC3DBE16CA3D60195F3D66522BBE204885BCAC1C053DF63ECC3DC0AEB2BC5C8C1EBEE0CB4DBD0B392B3ECE66FA3D408A91BCAAB6DDBDECF7713D20E2B9BB9289BABD831ECFBD40118F3B269310BED0AC1E3DA0BE50BDA5D421BEC0BC23BC345F163D2AE69B3D518BF1BDF4A1663DA14B15BE0149073E4C6DDABDAC9C183D18B931BE2C7632BD8D0DC5BD60BA163D6FE0293E13A8C1BD90072F3CF2BD79BD7956203EEA85E33D8252D23DA5A9213EF52E2A3E969991BD309119BD9C05373D38B16CBD62CD13BE200F783CFC07173D80CAB93BF86F24BD90DF8A3D603FCDBB8D6D133E6E50F0BD503401BCFCF857BD66A399BDEEC8CA3D884CF3BC72C3F1BD04B1293DC4B4CCBDDCA490BD3B95233E664CD53D6F94033EB7A1D9BD4033ACBC75FDD6BD78209ABC3857CCBCD05AFEBC4078F9BD427CA63DEEADCE3D540D00BEDB62113EFBB31B3E0E27D43DA4AD383D08E1ECBC804AE4BAC61716BECBBB043E7BDA213E0E621CBE9374B7BDEB4EC4BD234E223E8294FEBD4CB75B3D38A6B3BC8A60983D3BB122BEDAD282BD41F60A3E98E81D3D9E0BAD3D2099263CE1519EBD721FDF3D2087E43BDC4F203DA2E1F4BD52A7CB3D8AEA0FBEAE3BFE3D0CF21FBE8267AC3DCB5C2DBE81E11DBEFA45A9BDCD0B283EC63829BEA0A594BB3EE8A13D809CDE3A78473DBD1EEEA93DA8E2C73CF0281DBCCA277ABD9669E63D72EC9E3D90FE22BC509C6EBC9B33313E406FE7BC3630E13DDB56DCBD2DEF183E53A4C4BD9B74B1BDADD4333E981F4FBDC640BD3D6CAB6C3DB53CABBD8F7A053E475510BE56E9AB3D8AEAB93D25A60D3E1068B8BDC423753DB4091F3D5417183DD17A15BE4AF6A23D0BADACBDA3A1343E90A3B73C04361BBD4C4B03BDF4E589BDDE77D73D3A34DC3D088C683D2851D83C885E033D80534BBD1D60233EAF6B103E00501BBBDC9EC9BDF004E63C2B2B003E80905F3B705321BCF0DF26BDB4A1183DEF55DBBDA42133BE26BC60BDD255A03DB3322F3E3917B1BD7512173E90E10DBD7548173EDCA4903DBB53163E42731EBEF8D63B3D40086ABC767AD73DB8AC193D521C7EBDEF5B22BE38BEBBBCD84693BD75A7DABDE22D14BE027FFE3D11E0063E446348BDFFE6D8BD0AE162BD001D493C25E30C3EDAD3DD3D9A73F93D917E2C3E4B5CF1BD2811B1BCA50419BEE0C2FE3BB0A12BBCE34534BEC0C4D2BC9010383CA53C1E3EE4A093BD5B840ABE2836DD3CB53623BE3A4DA13DD84D863CB197DCBDADB9F5BDA1EF233EF5DC0A3E680DB2BDC461163D164D58BD50D871BC6C83803D302147BDA0E4D43BD257E63D38FD513D104693BC34592CBD6E47D03DFEAC68BD40401BBECAF7AABD4051EB3B0EFEB4BDB4C167BDC8B62F3DE14B263EDE93A03DB26CCABD406D4DBD3883303D378A1C3EBFA2153EA85327BEA8AE45BDF8EE15BE2E4184BD792226BE403D0BBC40FBFABC381994BC48EE41BD109ABDBDBECDB93D57050D3E18B93D3DE8DE763D5C4B52BD740E40BD128AED3D03FB13BEF950013E9513D6BD423EAA3D388CADBCC0018F3B0AF21CBE58A2C9BC5801FDBD21E3CBBD9952113EC0287F3C3D502CBE620FEA3D2A8BF13DAD1A0ABEA4D40FBD1500213E8099813BD00C423D40DDB8BC00ECDEBA6E1BAB3DD6D22DBED2EECFBD6007A8BB3CAE5B3D9EF512BE48E85FBD9FF0233E0CDD663DDABD803D04D5B9BD104F57BD2E06F1BDFC0A2F3D304B2C3C313F9DBDE493143D243217BDE513103E86E0C13D443B18BDF033B6BC30C63EBD5E9ED7BD9823923CD619963DE412313DED43223E4C32773D38A57D3D5D7112BE3230F0BDC2B4CC3D9B3FEEBDDCF4563D005925BD8427453DF84023BD0CA50F3D50135ABCE4C409BDA1B896BDF8E8783DCC82923D9A02E53DC1C7F9BD85CD27BE026E1ABE5D99C8BDCC18C5BD78BD7C3DA0061F3C2058A1BCB77C1EBE6E6E8D3DA447EFBD50F39F3C0A5821BE40CB99BC3E6BF33DA34F133E60E9A43C5208EDBDDC19D1BDC7211E3E66D19E3D9FE7013E52D52BBED40F77BD62A1C83DD5ED153E92B9A13D160F993D80DDB2BA180EB4BCE0DAE73B0E99F93DA85E7B3DC05C273D46E626BE598EC6BD1A01B1BDC2DD88BD34941CBD77961D3E5882E3BCBBDB243E7395303E78A24DBDBC2C913D2E02A03D50DFFCBD68BBD2BD8E1477BD88F01FBDD6C96FBD0E2E863D00170F3BF446B9BD47962D3EE215B33D1015803C11281BBEE7C81C3E03D5093E80540ABB15070B3E9C8B4FBD27331A3EF0CC2BBEB269AD3DF2B09A3DC241E53D382CB0BD6035D03B7E14E13D28EB24BEEC2D40BDAE8B0ABEF86FF9BC82ADEB3DF097573DAE50E23D3859EBBC002C1EBA1358E0BD9AB4CEBDDAEEC83DE5748FBDD024203DA001413C98CFC03C7C96923D9E7DAC3DF8A3EEBD90E476BD1E5634BE2FD02F3EC20B93BD2801943C4706B9BD5DA6D8BDB19FCBBDDE27E83D5D191B3E3C3391BDEA82C43D90D3A63CE6EF0BBE769727BE5CDC38BD8099463C68B3683D6322083EFE6CB23DF3B696BD300F553C7179033E3818A83C1AABD33DB499323DE8C50EBDE2A51EBEC62E10BEC1FEB1BD1B2390BD40667F3CD69A56BD9E30B53DC456533DACF495BD4DA184BD00D13D3D5A57AB3DC88E3FBD3EAFB83DBC8C20BE50F5E9BDA0BD31BE2626DE3D2467123DF46BB3BDADCACEBDF0D00F3CC68FDD3D126389BDF06A223D9878D73C9D7C92BD448C64BD39F5113E65CB333EC2AEFF3D8C194ABD6F89313EE41A46BDABE7173E7E5A8E3D2CE04EBD2E79F13D505BEEBDA698EB3DFC08603DB65703BEA0F2D9BBE287BF3D1461273DA657CB3DF0600DBCA27B9B3D2857813DAC9401BD0E53C7BDD280F1BD40A4AE3BEC93C5BDEE8B8DBDC639C8BD59B228BEBF1E29BE4A74B73D5986203EF27BB53D003008BB7ED4923D3E22E83D07E50C3E80A9573B536CB0BD285530BE12FA03BEC0B534BB948BF2BD4BEC133E1023603D9B7EC8BD1F8E9DBDE8D5673D3840823D3EC7953DD48288BD407CD5BBEAC5A63D7E1CBB3DE08A793C389EA83C8E4373BD48A8F03C509A63BCEDCE33BE9E22DD3D90CF243D8E6DDBBD94144CBD18951BBE6A5CF3BD1A41DABD806BB23BC0F34F3C48D76A3D6CB0773D21B61B3E0096423A209122BD4637A33D20DC3ABDD8EFD43C8E61BD3D977922BEA6A5F63D9216B03DC618E3BDE851ACBC144E89BDEE8404BE4EE8CF3D97DCA5BD127CC73DB9E32C3E4FF2243E82845DBDB0F6BABDF7751C3E40016E3C203A193D891CE2BD0C194FBD52A3D2BD98F074BDF6538D3D1B1930BED0160FBCC4D39ABD96CAE83DC89A0EBDACBC113D1206CB3D4E9CCB3D7828DDBDB254B13DD1C21E3EA1CACABD2045893BF606FD3D3187193E705ABEBC70F600BC78C94C3D72FCC13DEEB50ABEE049AC3C59AE303E882E0DBD4BB9033E770A073ED00F603CD6BB0BBE11920CBEAC76623D871C93BD0838C5BC6CFB57BD629712BE9DBE243EEB1A133E5E31863D4D73153EB8A3C73C506454BDA44866BDF0F351BD006C0DBE7E3AA4BD0D9C22BEE2B7803D9A8BC33D6AC0D43DD72BB9BDCB6F043EAE4022BEAA59843D8A99D63D983314BEA4CC28BE66B5CE3DF87B30BEDEA0BC3DFC4C383D50130BBE786C4BBD3B2A08BE60C0F9BDA231AB3DD01C1CBCA1C11DBE247E50BDA2CF1ABE099522BEA8EE383DE04744BCE70618BE305C1EBE8F75153E967AAB3D2252AA3DA86EEF3C301D70BD4A6925BE4CB5953D9416B6BDB0841DBCE0FD4DBC6DD3023E28C8C03C31B5183E485962BD9E45EF3D608F4E3CE642FABD1620CEBD7276FA3DEEE0EB3D60939ABC1CCB203DFC44B1BD50293D3C627A05BEA79726BED9C8033E6DBC21BE40E5903DC873943D70EAE83CB00EFBBC34BA753D7A0C60BD67C12BBE5935A3BD1CD8F8BD588E323D2C8A31BD782ED3BCA054883BB02FFEBC504850BDAEDC903DEC650E3D95CB0B3EFCA5323DB4F21ABD6C72DEBD76CB91BD2F05A6BD38002D3DF1542E3EC5EED9BD193434BE30D69D3C0C3C0BBE1166043E67F11DBE80F649BDE49B75BD919E8BBD6023213D0EE0FABDFC5D513D805DBCBBB0452F3D86536CBD245A0F3D24C627BE08D8753D98D92EBE288BD1BCDF781B3E50B7093C1455093D60B31DBD74A0A7BD6B2C063E203BACBC5AC48F3D00DA4E3A8A1B81BD45492F3E129F68BD462EAB3D380B053DEE5FB93D7F82E1BDFE9B9E3DF022E8BCD0D7CCBD14BF563D3400C5BD0342D1BDDC3418BDEE3DEA3D6555333EC03BB4BB9E7826BE804708BD04BF33BD10D43E3C02FDF5BD8E50CB3DBFD9E7BD54D692BD786A303D805A29BCBBA1FCBDFEC9E33DD85811BE072D25BED57DAABDEEA068BDE4B34EBD6072403D1991123E40C8BABCA05CB53BC303233EFD5A2C3E0A22813D759D0CBEEB7097BDE3AC173EB8614D3DF26CFA3D5262F63D7219F6BD565EB13D4240D73DD82CB7BC103901BD48CD383D1AE9FDBD150511BE0077123B0828BC3C9A1F1FBEF5B0C5BD9743143EE96503BE4102243EF5F2183E04E00ABE78FE84BCE61C71BD894D343E6085A3BB6886D4BD050AE1BD4046BB3B20C9903B7E60CFBDABEA9CBD869FDEBDEE6013BE0DF81E3E9062303DB8491DBEB5DB0A3E835C91BD477E06BE155D283EEE3A8F3D925DD03DF5AEFEBD60F4CC3C206BB5BBB73B18BE40B5793CA5A31BBEA28C27BE4070423D9A330ABE60F671BD26CA77BD9483D0BDE633D33D93918FBD60A750BDCA34D7BDF47A403D1AF425BE30F064BDAB510D3E55D7313EB7B2A5BDC3AFCEBD5E2DE3BDDAF8F43DF62CB6BD282950BD345B3FBD8CBE63BD138E053E0837C33CDAD9FDBD39F2143E5035B1BC20D70D3DCF87143E18D74D3DB04745BDACCE78BD3246D4BD3878C5BCC837A7BD0BC431BEA0BD033C60C79EBB70D9843CF1DC17BE62D82FBE7CF6143DA0923F3CD312113E50C35B3D59BC2ABE6B2A0E3E0BD81B3EEA2CFD3DE8A888BCC4F605BE8D93013EE7D3203E684650BD22A3853D1427893DC37E04BED08E0C3DA601883D12C419BE79E9E0BD019D8ABD2005EFBC90455E3C9CADE9BD70BA683D07B30F3EC9880C3ED09059BD943620BE486F883C5431923DEC4236BD720FBD3D424C20BE7033523D8E62E43DFAA927BE4405483D760E72BD9952B9BD1A8368BD10E2A0BC66CCCB3D15901ABE8283BCBD502BBBBC285DDFBC9EB5BC3DC097A2BD48D0E73CCD2D253E68FDC9BCFA5DE73D0237853DF9790D3E4018663D3016F2BC4CA5583D88ACEC3C42FBED3D8C190CBE82CC33BE60BA03BE2708013E36C4843D2C1E103D5E91BB3DD45632BD1846F9BCA94398BD84BD11BE12A08B3D9452313D4D3B19BEE498663DADAF08BED00D2ABE7D190FBE7AD858BD84D954BD0811313DB0AB6DBCBCDB823D18D7CEBD00D0D8BBB7C40E3EDB7ABEBDD8DEB8BC063F77BD2CAF73BD5E0CB23DDE6F9F3DF6B7FD3D14F67FBD249A03BD20D1873B6001163DB8C02FBEF57986BD30CBCCBC64D6863D318E12BE68A616BD95BC143E54C6923D7BF81C3E5019713D8A5EEF3D5CC0173D3E6DAD3D007FB3BB3FA82D3E5EE2BB3D8087823DEC4FD7BD460CC33D54B084BDCCE92DBEEDA2C9BD6AF7DC3DB35E26BE489247BD4782133EF2D7B73DDC191B3D5DDA1CBE307D173D7997103EF03814BDDCE2843DE472733D0588F6BD57462D3E38453B3DF47000BDBD58253EC02A53BDC657D93DC53EB2BD3E59CA3DE900D6BDD343FBBDBE2DC1BDF009073C78DB13BE39CD85BD979D213E5B64A2BD06C7903D34870ABEA569333EE0CACF3BB04D923CDBFE89BD72BF2DBE7036B5BC9023373D53B22F3E7C822C3DEB171E3ED40414BDF1672B3E1866E93CA4BB223D46F4D13DD07B44BDF08339BDC021E2BBDC59553D3E3FF8BD540B04BE8313093E329CD33DB890DABDE65AF93D3E2BC2BD88CB4B3D24E4813DFD7A98BD9593ADBDC4D1533D45B7E4BDACAF673D5522D4BDB0B90C3C1A3784BDF3EB29BE94381E3DC24A9FBDF41E393DE124ADBDB05B903C00DDDA3B00211E3C5765253E7A36813DBC827F3D54D4BEBD86E8C33DB1920BBE902A7E3C371212BE38296E3D85C0153EE87694BC4EB5CF3DF8EF673D40851FBE830109BE1A6D7BBDE065DD3CDA1AD73D40BB423D703E8A3C78930EBE40A7313D554715BE0036BCBCB158CBBDBF4C213E6085C1BB4E7A2FBEAAF5BBBD544C7F3DD40D94BDC0F0CF3B6836A93CAE86F0BDE7A1143E1E4FF33DFBA50D3E90F499BDF86195BD2AF2963D4CF43F3D9539013E2EAADC3DDBC32FBE8A7AE43D9CB1253DFB389DBD9CC127BE349D523D68700CBDA3EC123EEC2F8C3DE0A0E83B00F604BB607EC63C80B8ACBB5A8C00BED190323E56A6DD3DB4511CBE5A8AE63D71442B3E804E023C6620EC3DE3DE003E37EC1A3EBE660DBEE00533BC00B113BCA0C8343DA0724BBC422FE03DADF31EBEE021EABBB29C933DC0D6AEBBD43B0A3D6DBFDFBD6C22A5BD4930E7BD00D1AABA24981CBD21E4033E3B09163EA34F1ABE90E92DBED362CDBDAB58193EE0E512BCDE755FBD99159EBDE502223E2C558DBD16D5CA3D2F72BCBD407B62BB287B153D8551B0BD19E42E3E649642BD1D5828BE7E4C903D42AFEA3D10620ABC6ECFC9BDF7C718BEA579013E7AE7FBBD20037E3CA680833D103609BCEC0748BDB0B5FBBD0834363DFC2539BD9039703DF8758D3D403902BB52DAB9BD26F100BE60CD9CBC294600BEF84B523DD88F9ABC5DE503BE468D0EBEE034ADBD4E939A3D502F2CBEDADEF43D10A9C3BCF6A5AE3DBA47F93DC2A3DF3D0811FDBCCA02EE3D411E003E87C799BDBA28BE3D77AB02BEF5B2DCBDB8AF30BDD1B51E3EC8DD073D0087783DDBEEE6BD9AB996BD00784BBD7A529B3DC338BABDCA73BD3D406748BC681587BC28988DBCD054243C0EDF9E3D96FD9CBD5274DFBD56BFCFBDF8EF08BD56E5983DE82CB2BC8C9F11BD98A2933C4E99E4BD57E990BDF9B515BE75A3013E373AB7BDEC0707BE6C23493D146E3F3D2530C7BDBBCF29BE797C0B3EF899713D9AEAF43DEF5AC1BDEC75233D70E3193DA029A03B5426333DFAA5A03DAAA4BF3D5BEBCEBD3B92C3BD74806B3D70940ABC14C8333D5013A4BD9A3F0EBE2CD839BDFCB844BD552A183EBBFE323E40CB173CAC722FBE62E7DEBDB3B194BD3480423D0A1CA0BDF0CC22BE4E01E03D8EAF1BBE9534113EE5690ABED047FBBCE8C2ECBCA57E25BE8C9D12BE7D0C1B3E24793B3DC812A4BD5A95D73DD03B83BDD455C9BD10577C3DFDC1183E6D7CC6BD80E97D3C407225BB3E49FE3DA7A0183E7026D93CA871ACBC94208D3DEE9CBABD526BD73D94D6A1BD8C6892BD305307BD42D7FE3D60EE11BCA2D7F53DD4CCCCBDF2B160BD3B90E3BDD809F43C808F823BDF0205BE70052FBC885142BD28BA06BD6097063D121023BE22AE55BD8138283E8434653D5A9CAF3D0D5B2E3E2690B7BDC7761FBE001DF13A363A0EBE000E423D20CE21BC30E72F3C9FF8193E381C36BD7F2533BEED6F153E3F921D3E20DC86BB3841B9BCC877DCBD4845B5BCF46D9CBDEC355A3DE6A02DBE875B153EF130BEBDFACB09BE1E5A7FBDE9B0F4BD3C8E943D9C434CBD6EA5DC3DC2C85EBD14DF4EBD5A51E53D241F853DD4360FBDD85C7B3D409437BC4493303D3C05873D8011DF3C1126213EC077613B4BED95BD39841FBE7E46AC3DD052AEBDC5118ABD6070B03CC09C883BB0FC663D2873C2BCC86C98BDCE9D7BBD20AEB5BDDE35DCBD6E48B6BDD9D3063EC09EDABB8339193EF7A5273ED70411BE5AC58E3DF05728BE47CADBBD28CF703D0F8C033E90A0093DD6D8D73D8B4BD4BDB9BBABBD2A7BE83DF8C99BBC863FB6BD0C20B8BD668FCF3D66FF833D96DBD63D771C143EEA47C53DB25BD13D9682DC3DE08DC2BCDC5829BE371C18BE282145BD34874DBD3493183D8630AE3D05A4263E40E2203B4DDDD3BD7A0385BD0465DDBD7981073E8BD297BD0BC3213E4C1B27BE4DF31E3E133E0F3EE6CFC0BD54B60EBE7157123EF05B213C7E15C7BDB46EE4BD70BC00BD736E1A3E2F50213EDF10033EBC981EBED4458A3D070F1D3E148A1E3D884C29BEF45B5E3DB0295C3C3604F93D407302BC0280D63DC009D13C6E20AD3DDB8F34BEEAF9D3BD92C717BE4208F23D8C12173D1FD8AABD6188273E2BBA09BE807A0BBD72AA0DBE7AD79E3D7CC8393D3F6E2A3EB1ECC0BD8EAAC53D98C460BD4B9D303E6D4BDDBD9C2105BEB665BD3DC0971F3C8292A33DDA11C93D084A89BC3A7BAF3DD0E53CBC526831BEFE58ED3D263EE23D1900293E682D4B3DC83FA9BCD683A63D17BE183E763EDCBD47AD34BECC88313D15A5293E4A1006BEA27FA73DF53604BE8A7C20BEA35C1A3E00B89F39CCEB683DDACA2ABE00E8D2387DC822BE183731BD28B62CBD0672D6BD003E52BDCD250E3E9CB630BDBEE5B1BDA08F9BBCA4A1E7BD207E6E3D4EF104BE103A8BBCE21ACB3D1235EC3D6705A6BDDA6DCA3DCC335ABD4A71FE3D5BBB013E222FCABD059D2B3E5F181EBEA06BA0BCA9A5D7BD49C005BE84352DBEA0E6AEBCF0AD3C3CC988213E3BDB12BEF09630BC0D352E3E7C1E51BDE46C03BEFABA6EBD319F063E0DD0253E8E28E33D1011F23CEE45C33D1845B9BC4B121CBE600E5DBD4AF17BBDF8F78A3C96A0F83DA4B84FBDB4D4BEBD4879F83C74E8203D427928BEE0EB59BC459C2C3E23D7143E4E1FD53D800BC63A04A125BEB968023EC61E84BD5C2AECBD1267B23D10A60F3D68D614BDA65EF23D400639BDD529083E79360C3E888398BCF8FD02BD01ED193E3109333EA7810D3EB693AF3D453F313EB8E28BBC6519273ED023C8BC92A38D3DE44251BD7FC416BE760DA93D4E4EA53DD82889BDD0E44BBD58EAD8BCD60C05BE2A559BBD6609D93DBB5D313ED0FF0CBE2233B1BD821B833DF60EE83DD2D50DBEB0C84FBD584C1FBD1DC8083E38124DBD3C5A25BD68C10DBED1131E3E19CE8BBDD3C3333E26906EBD42ADA63D64C006BEBE4DBC3DAA11AB3DD8486ABD2C1B71BDFB22333EDED2F1BDB7F1253E689CAA3C941B35BDE00C32BE2099EDBDA8DC2BBE5CC30FBE024FB33D215ADCBD7A66F13D86E4BA3D223A25BE51AF273ED2E90BBE80A331BB625AC93D10D9AC3C006ACB3A6F662E3EF53A28BE7D8D323E172BDBBD1BB9DBBD84742DBEF00B8ABD28C98C3C00D8FAB972F5D53DB03C27BCD8BD763DF89D2CBDD08D973C1D0192BDF38B27BE90613D3CE4D4453D192CAABDDA8A943D90BDB2BD13300E3E594C02BEF498303D9E52D03DE809BB3C3236BF3D0A3B64BDD2FDD83DFA4EBA3D2BB8C8BD052DBCBD60E03ABC1119EABD6BB917BE7E94C33D006C4FBC9EAD8BBD078D2EBEFA19AF3D86B3F73D89F8093E005287398DA0B2BD6FF4063E1434883DD8081FBE1E4404BED0D4FD3CD0CE49BC2084923CB6869A3DF0FBBABCAA62E83D3F362B3E102F34BC940A1BBE28F24EBD9BEB1E3E3E6CF23DF48B573DFF5D143E4187183E0F8300BE343B1ABDCF2791BD0076F0B90095F8BA00811DBCB976053E4E7770BD74E3543D799FECBD3E28CA3D45CF83BD0207F83D6AF487BD8E4616BE08D216BE9D0500BE68ED0BBD62F2963D48DFEEBD6F6BA9BD68A7CCBCEA79B93DB8E808BD6F3A313E168EE33D7D3732BEDAEEC9BD9343153E00FC7239ACA653BD5BBD123E809E41BD3180033ECCAE893D61AD0EBEC4F6223D80539ABA0028113D8F1F34BED8C311BD34E806BD0291A63D80CFDE3B6617B53DDE8BFEBDD994ACBD5C88ADBDB083803DBACAFE3D80698E3D3249FB3DF754C1BDE70A0F3E30AB0A3D8BA2093E608D5DBC04D003BDD86A8E3D3CF21BBDD089173CC698A93D79D2ADBDD7958FBD830406BE20402A3C03A1173E7427803DB02EE8BC80F0833D6016D0BDACD90F3DDBCCBABDBE0FB3BDA613D33D40FD17BB6AFC1CBE80FA103BA06147BD41C4283EC578263E00E0333CACE2ECBD667A8F3D5652C63DB950063E092113BEBB6A2EBEA0141DBC8B33D4BD328AF93DE607C93D6235D43D13B4153E589F873D506C9DBD39AE05BE7074103CC0D9863CE05A853DD8A017BDA5DC153EB44F43BD7CC527BDECF677BD984E7ABD941F13BE5E477EBDDA985EBDE6BCCB3D6294C03D43CD093E8539B5BD312E85BDB0026EBC140450BD37770C3E4A16FE3DB06B613DB8FAFABCE00C0CBDC27DF33D72A59FBDC325A0BD46808BBDDF4C093E7CCC25BD0241EF3DA60F1FBE7580123E40BA25BC725DE53DFD1FDCBD847B10BE86D49A3D15D9003EEB8F0D3EEB660DBE9BF990BD409CB9BC04670FBEC19102BE63D51FBEA55A0D3EDD6213BE53181F3E00D2B5BB107E193D4C735CBDA8D7FCBCBAB8F23DF0450BBC9D0D2A3EF5FD1B3EFA76923D1A2FA33D4A8002BEC425ACBDCAD8993DC021433C9A64F53D88B38C3D335A20BE86E1F53DC45907BE9473233DE4B321BD04FD1BBE801C963C4C5A3BBD52395FBDF0D6B63CD0DF693CF4CE71BDB0CA4ABC94F0123D10AE0DBDE25A16BE7A93ACBD9656C03DF65500BEF43014BEFC653CBD66C6BA3D394A113E344E823DC84F7F3DDD17F0BD5373003EEC7D263D61E4063EA08BC9BCE021F0BD58C61BBDBCFF8E3D2393FEBD38D747BD2D6A8BBDA9D487BD8CE6053D308C94BC2218B93DF0C696BCC8B2DDBCA42517BDBCE42FBDDEA1D03DD0DC503DC59802BEAF69043E9EF70BBE2B65073E14670CBD10F9513D406221BB18DA28BDD66EF0BD605A2CBC7813DFBD27C498BD316CB4BDE0D2823D8E9EA43DED5C083EC79F253E82B170BD1A018C3D788206BDAA21FB3DF49424BD506126BC20018EBBCDE6C6BD07D31E3EC066CDBCA3F80DBE8AAFCABDA030163D48818D3DF645D93DCD0616BEB7361E3E50CB6E3C7B3A80BD50538E3DE5B730BEE8632FBD6080A3BC6223D63D9089143C12AAF13DC9C5033E037703BEF04237BC20E8EEBBAFCE333EC4F66EBD086AE73C12F8FB3D500898BCBB1D1A3E8042653BA2C49E3D31B9183E3881C2BC8216B13DE0E7AC3BFA12A63D90BD4D3D0A0CF43D1198003E843A7CBDCA49A83DFF4B193EC7DA273EF6ABEA3D80D520BB752E243EF0C3863DE3C02F3E9638D3BDD464B1BD9CD9E8BDE09BA3BC96EF9D3D8955183E8B0697BDA0CF203DBCA4F4BD8D86303EFC7C643D5EE0A93DC6C6DC3D43B320BE922E803DECDFFABDB0332ABEC382333E66E4A93D7BE2123E2A858D3D2A26A83DD0F5BE3C21D61C3E4CDF92BDCE1CF53D48461C3D1E7C9D3DA0E5A4BBA3EA33BEA42F05BECEEFD13D1E899BBD4C7F21BE290124BE289E87BC7C27393DCCF5323D28C0323D00701EBAAFF9053E40AE41BBFC571DBEE169073E1819083D754FA1BD00D556BD00B8F238D4B5EDBD08ED0F3DAA8C34BE2ECFA43DFB89DEBD3A04863DC335173E40AC3DBB6551A2BDDC591C3D64B311BD4830CBBC5061953C6C3F6A3D468826BE001EC2BA60638E3BE8B7583DCE55A83DACBB1ABD261E853D387CADBCFC3C133D9EEC8A3D1B2083BD0E5DF3BDFEB1A83DEEE305BE9023613C106E87BDB5D802BE947F713D5EB7A63DCB94173E3CD42B3DDAB3B13D3013373C15002EBE9293CD3DC8F57D3D0890183DF22685BD9F9791BD18FB2EBEC0CCA3BC02ADAC3DFCF75A3D908243BD86B6DFBDD0B3CE3C5477723D30F705BCF81EEE3C8A23C0BD06609EBD3468B6BD485D8ABCB61DC93D54D6D1BD70B4E0BDAA0AF1BD73B1183E56E6F5BDC9072DBE40F69EBCAF3A30BEAB9A20BE3C2D0CBD8853953CC0E2CBBB85ED1E3EE2ED12BE2055D33BDC585E3DD43D083D0B49193E737C223E2FED1DBEB947123E52978B3D03462B3EE03940BCF2B501BE724F34BE9C7379BD28824DBD643A21BD4052E03B018E203E9286AC3DD81DF43CE04252BD26319FBD2C3F3E3D65592CBEA0561CBCC056C7BC09B826BE3010FEBDA218943DA0878ABCCF829DBD66C4A8BD6FF5CEBD93DC093E49B9283EC69FBBBD47200E3E93F103BE8CAE4B3D5329C1BD8EAAFFBDC2EFAB3D0A408FBDC146DBBD16F59E3DD02F6E3D50638CBCEBD828BE4947F4BDAE0FD93DB630A83DE8B40A3DC7DE123E9D621BBE3FE71A3E9099833CA791003ECD74CFBDA196233E14DE4F3D0A75D13DDEBFAC3D495EC2BD4052ECBB08141EBD692B2D3EC95197BD101B81BC8885533D683B5DBDFC16FCBDA9060E3E3B2F223E2F9FADBD6BCAC0BDD9A1223EA02A533D9B7F053E3E3DB7BDAB94283E19A5033ED68B8A3D2951ADBDE614BB3D3B35173E0E9B9D3DAA18F7BD875ACBBDEC0C01BEF0EC793C001C1AB96EA5BBBDF86286BCD40777BD46B78FBDC8D674BDBA6EFE3DDF980E3E886A14BD0F7EBABDA9C5263E3D1A20BE3BF22C3E9326B2BDDE3CE53DC20A94BDE49228BEA4E809BDB8C21B3DA8467B3D7017FFBCEA72A2BD34777D3D4CF4573DF04301BD5A6B0ABE183915BDED23323EA07423BC706FFDBCBA8DD83D809F9D3C50D9193C70C0843C20A9BB3B1B01033E492F1A3E22F2F23D5381283EC3D8163E9B681CBE58B88CBC097F173E09F8D3BD60A11DBC04978EBDFE8E08BE8DD81EBEE4071CBDF9E8113E9814D23C29DFC1BDE0D64CBCD46A7F3D5C548CBDA9A62B3EF0CD00BE3C29C1BDFD3592BD2830373D335C273E12309E3DC39D11BE50860E3D7682CE3DF0DEBBBCF6AFEA3DA01FE2BB90159BBC728BDD3DA6ADC0BDC077473B80632ABCA70D27BE1111313E435B043E907F593C79A4243E2889A63C459622BE1AEC21BE98E4E3BD7E5DB63D8384E8BD289F213DA101DCBDF2CBFF3DCE73A03D15AF2E3E769F9EBDC07BB53BD2FFC1BDE661963D2E4DF5BD8AB4DD3DADF1313EE06FE0BC0D4B273EDB1A0F3EDCC92CBE30A90FBE01092E3E9669FC3D2C70013DFB3E0CBE8B5134BE808AFFBC4FC6013E1E69EA3DF1CF313EE5B8343EC048EFBDEEED1ABE31B71D3E803488BBFD8A233EBEF0DC3D37DE96BD0C26543D1EE0C53DE9EA2DBE7186043E027D973D482D7B3D5C7D293D2788AABD0B950B3EBD5EEABDDE13F33D9512313EDC67093D667D9C3D4063E1BD6AE7E53D43D0233E9844453DAA82F8BDB6C5E13DC8B0C23C84B2583D44A4E8BD3C0352BD72E9D53D8518D0BDC13B083E6E3DF0BDA02CD23C0093D8BC92A0B63DF23D993D84A77A3D4EF8E23D408481BB243AC1BD26AEE3BD346242BD70467FBC68A6DA3CB5270BBE0D5E053EC011FA3C6A22963DB6A5F03D85750B3E08B301BD0325053E506AC1BD8290D83D5847DCBDB27AD33D37C21DBE9534D4BDF09329BDF14F2F3ED02F5C3D3ECE11BE6A81B63D7CFA02BEF552303E405F91BD1C5F383D44D5393D4A26F13D5CC073BD57892B3E809B1DBBD76CDDBD60642B3D60FA2B3D72F5F13DD88CA0BC102F103DB4BE8ABD909E813CA0AEEA3B20CE7C3C94BE7A3DDA28C33D92FFFA3D308D37BCB4A6093DC004C33C30A4D43C00F4E7BC03EA0A3EA059213CB4662ABDE6F9C83DD6F29E3D0367333E22A616BE70388E3D8E68E83D00D5273DF438593D689D6EBD2341033E6C1D6B3DBAD6ABBD9BE910BEF4D6803D8C10143DF079E6BD309D933C4E51AFBDF839A83CAE9FF63D7807F4BD3288F6BD049E0C3DF253ADBDCBF91ABE111213BE504A0DBE722E74BDF6EDBB3DE07F70BDD010813CDAC6C93DE0BC61BD41F08CBD0701163E7714323EE8FAEDBC1A29FB3D708CE9BC7F7ABFBDA08B21BD803CD93A9FCD233E0EC1B13DC67B9D3D2B0BA2BD73F901BE9676DC3D76D4A9BD0001293B2C01823DDA53A43DA791333ED8C827BD5E071CBE8A1C913DF8770A3D90BE763CA44E68BD38D0B5BD583CC2BDE41607BE2275A23D40D308BBC857CCBD06F8923DE001E8BC9623BB3DAC60393DCEF4FA3DEDAAC5BD3F67C0BD3045753D085993BDEC9BFBBD6D67173E739097BDC267F63DC09541BD82F5A33DC8B7BEBC541700BD58178E3C171C283E00C5DEBD4969223E2C4074BDE825D93C70C7BA3C639D2B3E5821C6BD37A3B8BD4B48203E79532E3E926EDB3D880A893D948CC2BDA0FC553D60FA29BDE3AA113EE8BCD43CA4590FBDE2079D3D769E32BE9B60BABD28C6A5BC4E62BD3DD57BC6BD003D8DBD3841003D5226EFBD565ABA3D00E4F4BACB9E263E10F11FBD3204983D75B7053ECC640FBEC62D05BE26CDFD3D708A4B3DBFC9133E0ADF00BE387606BDA011C23BD09E683D309501BC5622EF3DC92AF3BD603A523D06C7D73DA0CCE5BCA55D16BE3A83AD3DD65BA33D2C1424BDCF7F053EEAE4E93DB1A581BD90B5283C576788BD60A92E3C16E000BE3E9CFA3D0706313E0E08E23D9C060FBE10E64C3D3EDFA9BD347F953D797B2E3E58A1B43CCEFEF73D01060EBE9C3723BD740D213DAC45663DD71F263E86F5AD3D236030BEA59FD8BD3E057BBD41F9183E80EC983A08D7E0BCD09E56BD7CD2C8BDFB070D3E50D29DBD27D207BEB352043EAC3A04BEDB930F3EC83772BD403BBC3BF7D20E3EF44D9DBDE5BE093E9C9441BD6AAF9F3DB7D20F3E330E223E3A399E3DB00DE93CA8DC863C1301043EDA78D13D998F89BDC566343EE3FF1B3E89751E3E18ABE63CDE4499BDC0A4F83B6920193E90A75CBCDAA7DF3D4EF7DD3D723A98BD00C97BBC8E4CC73D89DF2E3EE3A9083EB439733D640506BDE6AFEC3DFEF9C4BD5E31E03D905506BD77582A3E4DB923BE4E322ABEF0C68F3C71E50D3E7E44FD3DA27F9C3D905EF3BC51300A3E3C49163DE2EBE43DB4D77B3D0680C83D051C193E0698D73DC787BBBD240961BDFDCE32BEF890883DDCC221BEFE330BBE8A85F73D6D539EBD102A7EBDAE4931BE2808703D689C743D002E7F3B2741143E18B8A23C3306323EDE26AE3D6ACEDABD587127BE06CAF23D4286EB3D6AC8E33DC4C3E2BDA41C74BD765B97BD80F77C3C7D050E3EAE552FBEFA9C933D76807EBDFADEF83D1CDE493D74403B3D6389153E484FFC3CE9A0CABD2066ABBBD26E9BBD9FC7323E1A2F9C3DA2D7BC3DF7D0263EA76327BE46FAEC3DD4805ABDA7291C3ED81B2B3D3F74263E9269D53DC612F63DD85529BDC2E9B73D7899D7BC438D343EC55F263EECE4E4BDD702163EB41D1E3DC0E3803BDEDDED3D8A35F83D00664ABB3B5A313E008E123C185013BEAAFB13BE6E73B33DFE22C33D0891923D2E2401BEB019063C281BEEBC8E3EA93D5807E53C5FC4003E1A56CF3D6867F6BC424525BEBFED1BBEE0B07A3D800DBA3A79531D3EA1F40E3EDF3C34BE5912333EADC2BDBD701B2ABE505B053CE8FFECBD4A2FEC3D102A37BDE0AB743D58DC00BE8FDBACBD14C84B3DA9632EBE404BEBBB4B22BEBD9C11463D175BA3BD9F0D96BDE48A8DBDDED7C93D5031A6BD7227C23D3B4C0E3E08A2803D9C355ABD007C523A0ACC32BE177D0BBEF99BCCBDDB451D3E4CD05A3DCC0916BEF4D671BD8C6D2ABE4B970EBE08BDA6BD88C2B9BCCA8D21BEB28505BE081E0C3DA04A5ABC00400DB9C007573C9FEE0E3E3C53883D8A3759BDD099C8BC73940F3EFEEE76BD0307253E1B8EADBD88EA99BDE01A8A3DB2611FBE9DF1173E8F51E8BD0301193EE881BEBDA4940C3DC0063F3DA436703DA3441D3E5025013D4C999EBD941A39BD8009A1BA38E3653D25A2D3BDF33F2A3E66C01EBE8DA5193E40D8E1BB94508DBDD05812BE7E74C73DA0A4D5BBD20909BE9D24A0BD9A54E63DB9D9B5BD161DB53DE352243E2ACC76BD2227B1BD64F410BE405EEF3B808E883D614FB8BD0A5AE0BDDDB433BE060F87BD64BED2BDF03897BC7AC031BE0A3BF23DDE71A53D803CEE3CBC1CC4BDBB2F2D3EBF832CBEDADFF23D71EF03BEB06FDABC05C6333E3464433D2E9AF7BD7047CEBC389D493DD147B9BD6CF1733D287606BED4457F3DADC9303E460CBF3DEC1D573D5579183EF065393D836B293EC53E2ABE001AF6BABF3F203E008AF2BBFE42EE3DD20BBD3D38E52A3D3A10E6BDD012ED3C9708043EE6AEB93DB137E2BD074686BD"> : tensor<3x32x32xf32>}> {device = ""} : () -> tensor<3x32x32xf32>
      %outputs_20, %control_21 = tf_executor.island wraps "tf.Identity"(%outputs_18) {_has_manual_control_dependencies = true, device = ""} : (tensor<3x32x32xf32>) -> tensor<*xf32>
      %outputs_22, %control_23 = tf_executor.island wraps "tf.Const"() <{value = dense<0.000000e+00> : tensor<32xf32>}> {device = ""} : () -> tensor<32xf32>
      %outputs_24, %control_25 = tf_executor.island wraps "tf.Identity"(%outputs_22) {_has_manual_control_dependencies = true, device = ""} : (tensor<32xf32>) -> tensor<*xf32>
      %outputs_26, %control_27 = tf_executor.island wraps "tf.Const"() <{value = dense<"0x996BC1BDF8C71FBDDAFF47BDE0C4CEBBA07B0F3CE075F5BB30D3263C40E9483BE203D43D28031D3D90D8CDBC80B1613D03F6BABDA0AE3F3D68EA83BD9C7577BDBC54A5BD34124B3D2E858A3D0AAE4CBD818008BE18DCD93CB630963DF2D7AC3D406268BB0072353D001314BA461FD23D9409EABCB4AAE8BC2C95523DC6EDC43D70A9683DDCEE1B3D425345BD48E7E0BD7AB401BEE03F2F3D2829CD3D407D5E3BF06D0F3E55FAF8BD3AFEC43DA01564BC76A5E1BDAD118FBDC2A7B5BD7CFA02BE2E3403BDB1B607BE4416B2BD975F00BEBC084A3D942BE83D000953BCD87DC63D106C353C40A1A1BBF65F05BE8BC711BE86BC073EF06840BCBA2BA4BDFA48DABDF879993DA004F33BA02CD33D874B01BE24000A3D68E4A7BCD4297E3DC4E50D3ED490DA3DA61D7FBDDCFCCABDBA05113E057CC6BDA045AABBE833C33CFC58D0BC1C6EA8BC2C7C583D907D843D2C64063E80992F3C84D18B3D183612BE98A4BDBCA02A63BC6E9F41BDF015043CD4550D3E7099373D38DD80BCF04D67BCB72B09BE7ABABCBD9A2404BE6C9F633DA03AAABBB475073EB2D704BDAEB2A53DC691C0BD6EBC4ABD0C9C733D2AA9843DE024503D94FC063E159608BEF4BCB6BC8056A43A392385BD36F9C53D927004BE3886D93D9E9F5EBD389F73BDB836843C34C4ADBDD2D4F3BD24CB773D94EAF93DDE86FFBDC0EC9C3D0009DEBDFC162D3D62EEA6BD966FAABD4CA899BD00787EBA5C51003EE832593DE8D8A93CF4B5DDBD604504BD2E3E12BE58CE73BDB6EDB6BD827C7DBD91DBA8BD60A68E3DF48E4FBD929DC13D55A2B9BDFE0824BDCA6A0C3E6BEAAABD6444F63D2D2B82BD0048EB3860ADF03D0C80B0BD00C076B9105A3C3DD8728DBC3C7BEFBDE8E9A0BDA0C964BDB08A67BC627F4CBDE857D53DD47BB4BC42400B3EA8780D3E10D9AF3D308E293C35DCCCBD4CE3EFBC385793BC00915ABD18CF6B3DB4CBA4BC5CA6C33D680AA9BDF92503BE84E2ED3DDCE2053E70B8133DD1BBACBD34B6093EE014ECBC0096C53D00C17EBA9419DABDE89CA13C507FED3C217C97BDC49F4BBD989478BDF67DD63D6035EB3D940900BD60E79DBD44FBDABC0059B33DF815C1BDF47A013E3457FE3DCC036BBDDC11033EACBA69BDB666DFBDA4CFF5BCBED19F3D1E8296BD5986D1BD46A931BD4EDF073EC469D2BCC07155BCA10FEBBD1652073E480941BD2040F8BC266276BDC01A8BBC487C3DBDC128F9BD00274B3C202B86BBE67E8ABD182E3B3D34B8383DF6CA133EC2F5BC3DF5E697BD0EFBB23D08B2133EF21781BDA4BEB73DA460EFBD5C9EEE3D9846E73D8807B2BC6CC9693D90E9843DB0EED13DE44BB53D140B3B3DB07EC2BDFA14BF3DA78BD2BDD88A743D293BFBBD3C24CF3D94F8553D727BAD3D60C310BE028AB3BD7871323DFABF56BD1E30CABD757A85BDDC5AF8BD0AEA093E0027E2BB349DB73D90CE19BDB45EF93D205E433D7DEE09BEC2B48DBDE09188BC513294BD73D204BE0ABDBF3D505DDF3D4042913C9A38B7BD2671B43D806319BD38277A3D00D406BEB8EADC3C09C9F2BD78D0093DACEE453DF83B2F3D10FC5A3D3C298C3DC8E8B5BD943AACBCF068043EF6EC053E105AF83DB090CF3DEC94B1BC1028D73D56EBC0BD5AFFB23DC43EC8BD126FB2BDA1809EBDDAA79C3D0DFCE7BD62A509BE09750FBE202D12BC78020F3E800834BD46E82BBDF0DB74BCABE5A5BD821BF6BD00C8F3B876CB803D329A0D3E4FCBD8BD08D3173DCC5A453DBC86673D609D01BE228BA23D28C7103EF655F1BDFEDC56BD8C263FBD266B79BD25D10CBE31CBB0BDE564B4BD71D9C7BDFAEF2ABD2A8ADFBD803E303C00B2BFB98963C4BDC87D023D8C64FE3D08B0EDBCA00F463C0823E13DB8D6CB3D2C611C3D5E26913D4636873D64B15F3D50339A3C000970BBA84682BD561438BD788B053EF01CF83D832D0CBED0C390BC348228BD007613BEA41707BE0CBA91BD90ECA23C98A4303D925F9ABD9D49FEBD911AD6BDC843893C0C8F893D5CDE563DD048F93D448E383D466AD03D824FA9BD2071FEBDC2BACD3D902F5F3CD873893C20EDC53B808CBBBD885847BD08A1A9BCE2900EBEC39813BE2E31ADBD8038A83B87BC83BD807D0EBB188E063D607EEB3BD0C9A63D0AEA29BDC89C6C3D86AECBBDB6B2043EA285F8BD2A36973DBCE035BD68B4E83DFE4389BD1461093EE67AC7BD20930ABE4FB0CCBDF07CB73C7801053E0E58DABDB05BDEBD60086D3C48E09B3DA60136BD605608BE80CBE33D4826F23DEEA70BBE60EFC83C10B236BDF8B2BDBDF0CC65BC009860BB30A9043D9CE6CABC69A110BEB8B278BD58F946BDF4C953BD5634A8BD7837D6BDC0DCC73BD03B933C506BD93D620BC7BD5A07D7BDDC9FB63DB3B309BEA86C9F3D00EEC3BA1800FC3D988143BD70E126BC2253073E10DB22BCE43C3D3DE890E73D60A5E63DEAF7903DA0BC833C487398BCC02D2ABBB66EB63DE0A0953C76DBABBD20A4493DF4D904BEC44F1BBDAEB163BD18408E3C26FFF4BD14A3043E60DBB23BA8747A3DBCE5023DB8250F3ED0A6A63D1019553DDAD39A3D005695BA1448D1BC22DF66BD27419CBDF2480D3EDF550BBE50E0463C56AD8A3D8E9551BDCD780BBEC68D13BED4A81F3DE281053E806F99BAF9D7EDBD6013C7BD84D2CDBD08EAE83D7E8C79BDB0C044BD758790BD622DBCBDA05BFCBC807EB0BC7EF46ABD205AAEBBDE94963D48035DBDA0E2F73BB03183BC6EE45CBD6094433CB0DE0E3C6FD590BD587DD53D9ACF8E3DA485793DE0B4E53DB2C7B3BD74AD46BDFEE20C3EBACDEEBDCAE3033E9A458F3D14139F3D50DA18BD7E9BB73D2400FABCA09EF33D79BAECBD966FA83D32B2A43D84B60EBE9CE0DD3D942D673DA82EA43C9886893CA0746D3C7DD090BD0E42B73D3C99193D7CCAE23D38FB65BDB0BAD03DA05EFCBB6C44133EA68C72BD30C2C93D1AFB59BD9080053C40551FBB7041493CF477D93DEBF2AFBD96EA80BD0E50E7BD5068D73D314185BDC0283ABB1CE390BD80E26FBBE3ABE3BD1022AE3D4C19FB3DE0008B3D28FCAC3D50D6243DD8E6083E046333BDE8FD95BC7C37E53D802C0DBB6856E33C084598BDB60541BD665DF5BDD23367BD8CB9763D909526BC9C4976BD4765EEBD58CB52BD68EAE5BCE8EC173D6CC73E3D9E5706BEA9A1CCBD425AD83D66D2A5BDE8A7133E64D6323D6819DF3D8CBDC5BD5233C03DB4025FBDEC6A3B3D409AB73DE7E110BE00BD16BB40AF7F3BD8B17DBD5624DFBD6C66C8BD108DC0BD00783EBB7C1ED6BDF03B27BC5CD3523D3CE7A6BC5834DE3DF89355BD60D7CB3C8CE6163D86D0103E6889AF3DA81E36BDD0B9A9BD2443A13D94FD903DF1D8B3BD243A6F3D70D3FB3D9861CE3D184286BD6834A6BD0E20C63DC272A03D70AEFEBC00D6F6BAADF809BE9888083E688AD83D38DF81BCB33B12BE949C543D6019923B4390DEBD5D8405BEB0B4743C76C6A9BD0877783D9825B33C56E8ECBDD00B5ABD32E6ABBD6890653DD0B7C8BD80EBE8BAC8BA9EBC82A004BEA06BC73B80DB1E3BD090BD3DF4FAC7BC56F5ABBD8811EA3CB4E2703DC25CE6BDA63709BEDA179A3D1EB813BDC0F2093D9E739C3DDC39FD3DC41E6A3DEC20FC3D24ACE83D504CC73C90B1073E1CAD71BD48C58ABD3FA013BECC7BD4BD250BDCBD90B1633CE071D5BC460998BD506F0D3E8A7A44BDFA1002BD8382DDBD7DDEA6BD2AEDCBBDF8451A3DE0182A3DB04554BD74EED13DCF92FABDB077AE3D605302BE5AD9963D052010BE20A7833D8AD2B43D40A059BC402F433B48A702BE1C420B3E78E6B13D0041A9BA405150BC421263BD701DC0BC90E5F93D901161BC5830F13D4A0566BDF4B95ABDBAA50C3E2ECE8B3DD4CADC3DCD55A7BD5047113D3E2D0E3E567E013E67B99ABD165FEABD4669C7BD0CFAFDBDB0B9C8BDB0231E3D54F80C3D086D84BD590DDEBD08383ABD0046903B380DD93DEB5DBEBD5860FA3DA04F883DB85A33BDB25909BE2EFAEDBDA69CB63D961415BDC876723DB08CE73C1824133D8450F03DF26CBA3D6077D13D6879803DFD6E03BEF6A06EBD0C70B5BCC047533C0A55023EC3748FBD3C192A3DA6A799BD1C1AE5BD28267B3D1C2EF23DB83FD9BDC69ED1BDA02E6F3DA403C73DB842DF3D3C34FDBD1853913C024F0C3ED69D33BD4489E2BDA09196BB031CF2BD20D3C6BCC47CEABD38C6C5BCB438983D60A21EBC509D26BC88C3ADBCE032A3BCC887E3BC2097FB3D5891C83D38CAE53D50CC81BDA01D46BC80AC43BC4A5A9E3DA051EB3D664E3ABD450DA6BDE28DC9BD584EA23D186F99BCA8F377BD9A8211BEC07CA43D56BD963D6829943D9CF2753DCA9766BD5610A33DC8ACEC3DD001AF3CD49A8A3D2303F8BDEC3ADD3D2400083DF065CE3DAED54FBDC0AC95BB70760B3DB04FA83DD0257C3D58D4DB3C30CF223CA810133DC809B83D62D9D7BD5617863D807C2F3CC0AB203C48C090BC94A4E13DB80AAD3C2CE2063E7EF6B1BDC4060DBE26E701BEBC7D2C3D27E0F9BDC0C2333B7AB4CE3D04CA4F3D9015FE3DB03581BCC031373C90E2303D1067A23D22A3A8BD640FCC3D10D1923C00359C3BD0442DBD83FBE9BDB424F3BCE45CBFBC297CF6BDA691A8BD6A3F90BD794401BE008E673DFAAF10BEE247993D20BCE63CC0328F3D4A25C33DA096473CA07B6BBC0076ADBBE2FDF5BD98B4F63D8A7312BED775EDBDB0DEAD3C760C5CBD7637C53D80F8A3BBC0BD553BD496DE3DF8CBE4BC1C145EBD682A083ED43C853D8CD52D3D68C7EABDDC5D86BD7E21B83D8467D63D54C48D3D0CC3C13D4A22D4BD1492F73DFC8C6B3DBEC8B6BD76B7BEBD58E994BC6C0ADBBD4AB3823D60BEC93C206C84BCAC7A9EBD50B0A23CC4E3333D402960BBB4E4423D40A75DBBDC38123EE0DD913C0A16083ED0B70ABCBCD3043DF4FF203D98C6E03D6CD7593DF8240A3E7057423C34384FBD12ADC2BDE6B3123ED31207BECE62833D1450A13D117C0ABEE439FA3DE84C9B3CCC8CA7BCD0C686BC39DDA2BD03F104BED4A4F43D0488AE3D1CA3FEBC402B28BB4A68073E80F50CBEC41DC6BD7095A63DA0AB163C4AB9043E98FE833C1C4B6A3DC0481A3D189CA9BD9EE119BDBEF3AA3DE2C4A2BD1887783D38CAB7BC10F2773D6494DCBC6844D93DB87B043E9E3D83BDEA77D3BD48714D3DA618B43DC45E563D92A68A3DB47FCCBD8A5889BD96448E3DE0DD19BC5035613C31B501BE626B0A3EB241CB3D287D003EC07BBCBB7A0450BD405AB03C26C6A43DCCB998BD784ADE3CB17809BE1090653CCA0622BD806F56BC0E5E033E747688BDF2DD3ABD64EA663D3ACAA03D8CBB1D3D7A93B43D0EF60F3E1867CA3DAC5C043EE6646BBD40701BBB3229A0BD588D9C3C96D80B3E60BAC5BBB22BAD3D7C00AC3D0CDA113ED60811BE802A1FBC0BCE0EBE1B1EA8BD68EE163D2CDF013E40DF14BDF8DEB9BDC4EB123D5670873D7C55B1BD6459503DEC3FEA3D20DB1D3DCDA9A2BDFE3A8E3D2CC7FB3D7EE5A73D685AFE3D907634BC16C9A2BD4E5F123E18CEB33D7535FABD17AABABD7CF2E33D0F6386BDB07C93BCB861813D9A2795BD4773A2BD50BF76BD3815F63C9228C63D7C6CF5BCB0CCC6BDE01E103DD8D2E7BD84F4393DC09779BD20BE903D307B34BC607E3A3CC23B823D78D7BB3D988EE63D008E12BB90A0B4BC507B0D3EA0402FBD54734CBDD8F2C83D983EC7BC64C80A3E90FD31BD46430FBE7A500BBDC005FDBB20C9B7BB8028A2BC10468FBC20F9D13CE0AD3ABCA0A4EA3D46C2063E96CD43BD142C323D505395BC90C18D3C000D333A3837773DD0501B3D64DFC2BC42F808BE98105F3D6D4D12BE806BDB3DE4691D3D002103BBE373CEBD804E97BA537197BDAEDE01BD8095A0BA0B1D10BE56B6B03DDEC1CD3D1A1B7EBDD00DC1BDACD1FB3D08EC54BD804EC33A15B193BDC064E7BD9DF3D4BDB0E698BD348C2ABD7858C03C5CCF043D6EE5BCBD96D13DBD64800C3E20594F3C00649F3C629510BDDA1BBE3DBC1CD7BD2C2CD93D90866B3DF1800EBE00BAFD39006F3E3A6AF336BDCB9B08BEE135A0BD40671E3BBDA386BD4012393C44EF89BDAB9104BE32A3813DB6520B3E4CFCBFBDB0864EBCE0CB16BD7AD150BDC8D3E13D633FD2BDD7A2A4BD880372BD1437C0BD1441D93D0043E23A28AC8F3D4EAC35BD84555F3D2076AB3C887EC7BC406D76BB10A64ABD701302BD6C2DF0BC2E6015BDA01E9A3BF4EDF03D5EFAF6BDFA950C3E170080BD6EFFD7BDF6210F3ED20AC4BDEE36093ED899E53D601F143CB0CA19BCFEFB64BDB2CFDDBDD8C689BC960F0C3E88C2973DE36E00BEC07E023D0441403D3A1FC2BDF23D0ABD416EFCBDE4049B3D593802BE10F3133CF21DC53DF40A153D8CA696BD004BDEBAA01D073C3C1DAFBC50D30C3CF27EE2BDC283A9BD553D9FBD78C7513D38A6A9BD70659FBDBC8A0F3E707B1FBC2421E53DB4F2463DC46A8B3D394EF1BD6811993CF0A2DE3C0441A4BD4087FD3C42F0013E48084D3DD21007BE801273BC608A95BC2818A8BC04C5743D5063DD3CA00A07BE108420BC8C4AC7BD8C0FA73D0886F83D089036BDD6964ABD046E4C3D119401BE3245B7BDF8D1DB3D60EDA4BBA85FC4BD304B013E2C0FFABDCA86C83D3B2A8DBD1482BEBD720E56BD86790E3E1097073E18B0F13D5432C2BC7EFBCCBDA8F58B3DA83A823CC42F00BEC0D0AF3D083E18BDD73C0DBE4079BF3D5CF6DE3DC065573D4A01133E008F2B3DB0E62FBDE24B61BD3E81853D9CA86EBD7460AB3DC0E927BD78BF103EB00E5D3D00AF273A0C2DE8BCC43CE03D69F19EBD208A11BEFCBF133D10E1583C3218B0BDDC30CFBDF8D6D53C141CCD3D26D3033E501E4DBC857AC2BDDC7CD83DCA9A8A3DE091B93DBC14E9BD489BF73CC4A3F1BCDCB1723D0C54F63DE86ED13CE497AB3DB6D549BD140159BD00C8603B57F50CBEE0A595BC540EFE3D26CB0CBE8408983D8F84E9BD2C06FA3DAA3713BE07CBC8BDB052B43D846EA4BDF090083E922FBE3D546ACEBD0037873D184DD93DB6E5F8BD80E6F73DA03B2C3DCA91ECBD3C4ABDBDB036E43D20EFA93C20966F3D6C40FE3DE2A8D6BD054F04BEA4DD8CBD188F0CBE0088F13D2D0802BEE4642FBDB04C443CE83C72BDA03FDF3D5878E83D78A1593D36FA093EA4BC0ABD700B84BC80FAE03C0C090CBEC43EF3BCC0400B3DC61ACA3DF862B63C5494123EC9F2A3BD6E70A63D8474ADBC6ED1113E2083A0BB969CFBBDAB1011BEC275C93DEAEBAABDCC11873DF1A3F1BDA0F6EFBDD6B9E6BD03D7B4BD5A9CC23D98E06B3D089589BCC0AEFA3D2C45613DDCAA093D4C51C43DB385ECBDFC44C33D4CAE153D8650CDBDD042013EEA66083E5C8B803D9C72A23D6055023C40E70FBE6471EE3D30CDA6BC3C7D68BD60BF993BC19DF5BD62FC863D80B0F1BD9C1114BDA45E8DBDECA3073E5002983D08F8ECBD00020C3E904EBDBDD7E382BDE73D99BDFC2101BE3B02F5BD186CB53D2A1E7CBD00791CBC2EB59A3DA440713D00ABDBBDD0D9BABD7ABFD9BDA2079E3DE2E65CBD703F9D3DDCB2ED3D40E59E3BDAE2A03D9A96813DC079CEBD2C0D483D004FFD3D888DC43C0043663C9D1112BE90C02E3D51050EBE70B672BCDAAF903DDADF863DB889DF3C14F4E9BD54C2023E0013A83B80046ABD801B3D3B9E6E043E5C2A5D3D98570CBE731EA9BD81EA8DBD2D020BBE5DCA02BEA59AE9BDAA25013EE0EC6C3DF0BB02BE6EE4C3BDF3F2A7BDFBD5FEBD1EF101BD9431C9BDD205BDBD80505D3B22268E3DDC13A83DC04FBBBCE4944C3DBC19FCBC405BAB3D98FF00BE83E30BBE0945ECBD7467AD3D76959A3D3A5B843D10A2F93DA02FC1BDD4337B3D4015B7BB0027F5BAB0B30E3D8C42FD3DE0B8383CD3ACAEBD8EF07FBDF52DB6BD609EDFBCA097FA3C384526BDA010B53BC8AF943DD63A0ABEBAF99C3D9E760D3E3A6F8F3D746E07BEC7CDD3BD980A0F3EF4D8F63D280A1BBD48CE86BDD8F3DE3C1CBA6CBD2421AA3D122860BDE086443C92694FBDABEE09BE8A321DBDA41B333D505FC93CC0EB203BC023983B7C8E623D244C443DD24863BD682EB7BD503B6D3CD024F53DD328A7BD20F2E53DA052DC3DFE06D33D843ACDBCA0AEF2BDE099C4BB08367F3D148AAF3DD8FB8DBDB883EA3D0891E7BCF86B043EE441953D3070B13D633F9EBD40A12CBC867E3DBDC6083BBDBE4DCABD14F1423D407984BB6ED0B93DE052083E48A6C33C062B8FBD0B54CDBDC7DE0CBEA0DFFB3BFE62F6BD1016D63C58E49E3D20DC8F3D299BF8BD6A5C01BE68E8B83D2C9ADCBCE4BDF13DE003A8BDD6265CBD7A9ADFBD5C4D953D46A29A3D0C7D0F3E1E4EE0BD7EBABF3DE0E2F3BD10DDFA3C8066993CD63DD43D523739BDC11D10BE7235023E3459BA3DAE6BB5BD204F5D3D4AB4C3BD848E433D78175A3DA9ED08BE4062FCBC74B0113EEA37993DAC6A03BDF6F9A0BD94312DBDD6F91FBD500F23BCCF2905BEC0A73DBB40905FBB504C6E3D3C4FDA3DDC4EFABDC8E7DEBCC0F3B53C5A5FCABD29A5B3BD609732BC535583BD1AF64EBD2C6B2FBD20BBCEBB9845AE3C4003E83BE0CD28BD002D4FBCA44B6F3D837CB5BDB071F83CF2A9D4BDA00923BD3845C73CD093093E4038773C18EBF3BCF045CE3DC41ED0BD44C024BD58C6B7BDA6C60EBE5C2AC33D9EAF14BD7CD9D43DF276C23D4098863B040C03BD069A92BD8004293C5C51B93D9034EEBDFBBFF5BD2830E4BDC089293C82D651BDE07E3E3C704B0FBE6E34073E99E0D6BD302B6E3CDEA202BDD475E2BC54E412BE00A57F3B0003CFBD706548BC46FCA3BD6EC2D3BD01C6F0BD2074FE3D3C2B22BDA644803D608478BC80CCBA3DEC7B0C3E30BD80BCB8ECE9BCF006DD3DB84DFEBC384B36BD68859A3D807A553D6051BC3B189AEE3DAEAFD0BDD89FAC3CFEDAC63D3E8ACF3DE09663BC60DB3B3C30F11E3CEC81FABD2CA4F33DECB6003E6A119C3DF00E073DD66104BE60C10ABE7AFC0F3EF8FBE43CF6B13EBD140AC2BDB49DFF3DE6CD003EAAD905BDCC6CE6BD278609BE3D15E6BDB451B7BC0095A13AD0E8B33CED4B12BEE01BAEBD4C5863BD60140E3C50751CBD40B6EBBD8063ECBA44D9B2BD50FA173C446AA9BDE7C899BD7C1AB1BD804DB73C0CC1743D2A6EFBBDE8B68C3D7A6BE1BDD809763D108886BD3EB21FBD586D8F3D3C7DA5BC620110BEC05ED13CE4F6CFBDE07BE83BA8664A3D6CB148BD56B2A23D0BDAE8BD70E223BC5A27B7BD1807DE3DFB37F8BDC864DBBC2454C3BDFD3D92BDA84E893D502223BC7E325EBD80390C3E68768F3CC9A308BEE0487DBD087558BD5419503D16B9BBBDD8DE97BCE03C6F3CA622F0BD06E5C8BD2A20AF3DEAA54ABDD824EA3DA41401BD8C7DD23D46CACF3D4C4C323D1C074ABD3416583DE069B7BC30057A3DA89ACABD0C87113D127BB7BD2460913D8090F23AE27E8B3DA72B0ABE2D5010BEC013743C2D2C8BBD00D5E33CB2BEB93D404FF53C166EDCBDE27D30BDA64DF4BD30B1AABD8626D03DB8D5A63D78D18CBCD839E43DE2EED13D90D43EBDE242AFBD0058BC3B0084BF3C8CDFED3DE54BA4BDF232D83D2076FA3CF4730F3E505CD83C69590DBEA609C7BDFB41B2BD0085EA3C4033FB3DEBBCAFBDFC03113EE0D3AE3B4C98873DC0EF313BA49F82BD50533E3CC07B653BB481B6BCF0DD083C46380ABE401D883CB4F297BD7C114D3D10E7383CC0D9BF3BAC61F13D824CBABDE69567BD2818FF3D44DB123E64BE75BDD26CD5BD2CDA8B3D7F26DBBDD491A8BD2A2FE5BD8B770FBEB4C80FBE02B3F2BD2836163D28F98EBDD4C71D3D9C980F3E9C60F7BC0035023C36C812BED887D3BC2682A13DC0ED193DB7439BBD8506D4BD3C2C76BDC4842CBDCEE98E3DE0FA1D3D8855C53DC0BF3E3B90C04B3CACDCF33D38D80DBE68C20A3DA2F0EBBDE0587CBD26B29C3D38070B3E54B6E23DD886F13D3884C33CF40C7E3D2087F53C444A083EA0B0B6BC70856E3C2BAA10BE87E109BE10348F3D0013963A0A4CBF3DECAEB13DC48D8BBD7CE5573DA89AABBC38CCF33D8F9E9DBD24E610BE38408B3D48EC053D8A726FBDD8B4BE3DDBD4F6BD44EB533D64ABA0BD06E4B63DBE0BDCBDE0CC723D3B0703BE1CFF913D891590BDF04E55BC68CC803CE8D0EE3D9A5EBB3D87D101BE065B113E4CDCB7BD9074583DB047A23D8448593DAC43FABDB046E73D487310BD9C254E3D513AB8BD744A793D651AFABDDE4920BDC29008BD6C6DC1BD04293EBD64FE8E3D0E43D6BD2D4A10BEF0573BBCE627A43D24E3ECBD38035ABDFADE13BDEECB0A3E08919B3CCCA901BE8B2802BEECD55CBD4962A3BD60F1093E7E8686BD3007413D720A19BD00B4BFBC3C06D9BDF850E43D90A8183C765A053E8AD30C3EECA76ABD227603BE9032863DAE4DD63D704638BC80DAEB3D1CF8A7BDE8F8E23C42D317BDFE27DDBDCD9FCCBD7ABF05BEB844C5BDE23E57BD8C68D6BCEC29A83DE85E50BD38B5D83D50FA243CA41E203DE100ABBDA82BF53D7C87F43DCADB0B3EF58EA3BDA4A3163D5A53C2BDF44F0B3EF24FB73D003644BBB0C4C6BCC94ACCBD8052303BA03B043C302AF43D60177C3D80D02F3D6A21B53DEA2F043EC877153D60DBB4BC9E2E61BD04A1F63DD3D012BEB48910BE47E512BEA4B1C23DB0E8AFBDE69BF7BDD0047D3DC0DCB73D2A17B03DF0869BBCB699C13D263DCC3D804796BD50C7FBBC1C2CA9BD13B9E1BD86E9113E7EBF59BD7B939CBDCC87BDBD3C8BFFBDD45A03BDDCB112BD9246F0BD727E893D40FD9A3C883D113ED07E71BC2B928ABD60A0DA3B7FA701BE1ED9C73DD897F53C0092E539E49AF73DEDBAD7BD08BC4C3DF6259A3D462510BD70BC543C36E88ABD94A0053DAC5678BD065B963DC612F4BD2AFBE3BDE64828BD141CBBBC30EDE23CE843C7BD165D853D6475B9BD001E80B9DCF50A3E14CBFABC94337F3DA2FBCABD023F873DAC69DA3D5806E13D7092C3BC3EFBD33DDC5607BE56B898BD5FCC13BEA00B94BBF8FD37BDCB54F7BDEB5BF3BD84342EBD40180FBB5871483D8430CA3D00451ABB1E2DAA3D2035BD3BA5E797BD003B823D7C0E8E3D00798BBC3453A53D007B103DAC13F3BC907984BC4E0887BDE802843CB241CF3D18A815BD37C5DEBD203EF8BB0E77AC3DCEC23ABDA695A23D10D39C3D902B8B3C90B108BDBC83C6BCF822CEBDA085B83DE21FD1BDA297D23D15F08FBD7EEC04BEB49FF2BCD561A2BD28590ABE104AAEBCF0620A3CC037E3BC8053D5BA6869E5BD00AB15BA9197DCBD00AC04BD64FC2C3D309D8D3CCC50B23D9811B43DF732C3BDD842B33C4091B43B863AD83DAC2B263DC48609BE0E67043EA56488BD03DDABBDB831C33D18EC023ED05E193D69ABBEBD28AA233DF865853C925B25BDB48DB03D772BCCBD143E003D96CEFFBD5ED28D3DC467E33D806DA03B004E663DF43CF53D9445BDBDB4CE8E3DCD1ECFBD4824ACBCE20505BD9EAE33BDB47D363D606B8FBCD2FEA8BD76C2B63DC0220A3BA8500BBDB078083DB0CBC63C2CDFBEBC287B123D10FB7B3D5A0361BDD02E7DBC68C8A43D38B6A9BDA22FCEBDBC5ACCBD90F9113E42DAC9BD201A2B3D84EA183DE6C58F3D6BFFF6BDF013C83D79AE05BE8026783BBA7AEBBD823C003E40880EBD709492BC81B0E0BD583CD43C6816183D88BC80BC0AFD19BD501C823D6E821FBDADCD0FBE389ADB3D2A20F7BD9C89ED3D40B036BBC86DC3BC983F8DBCD0BCD73C50F54B3D906F35BC8062923AD0A030BD0E46033E788CA8BD0565E6BDD4A7FC3DC412EC3D2C07D4BDA22B20BDFBEF00BEFEA6123EB4C0323DB930A2BDCA5CE2BD68C6ED3C8C9D4CBD20C7DDBB3C4CBCBD10EB593CA41711BEE0B38A3B105A133E20A9AEBB30FB05BEF839D3BCAA160A3EBCE266BD1600C7BD30BFE03D03ADB9BDB47EA9BD1C3EBE3D82EED2BD35BAF4BDC79D0BBE687EEF3D80424D3C98700B3D5A481CBDD50B05BE3861D43C48AB803C6079163CC06C423BA00358BCF0A800BE7E99D6BD00E06C3AF47F743DF0F065BD043004BD5CBE413DE8E7083E4797F3BDD85E003DC895FC3C30CF00BC406CFABC0028FC388C74AA3D91DDA1BDA8EF1BBD2ECAB0BD002044B8D81B6E3DE60DA1BDC4DB903DB0FF40BDA03FEF3DD29EE0BD6071A73B1FFDBCBD048497BD107872BC88969A3DE0721F3D52F50E3EE085DC3B6011EF3B24D1AFBC48E5FF3DCE2C11BE987EEFBD38FE023E645900BE60C3A8BD30DD053E70AE12BC4099FB3D7CE30DBD76A0ABBD10A8E63C620F3BBD393A0ABE0044193D06F6CC3DFADFC9BD964528BD98ED28BD742AE0BC082F113E6E3AF1BD276281BDC040FF3BD4664F3DFA1BAC3DF0893E3D0C55A1BCA0CAD93D003836B95EB239BD5C23ABBC612591BDCCBC1EBD64A0A83D6C14A93D1D1E9ABD842003BE0C7D95BD50C5E63DD58593BDCE08E0BD72DAA1BDF01F2EBCA895433D3E480A3EC092423D067719BDCE14853D4CAFCC3DB4DF0BBE8086F63B94EFC2BDF2EF04BD6099D43C2671EDBD6A3B983DA00ADC3CACDD713D78982ABDA05E793CA017BCBDC652C73D221B113ED0A8D8BDBC543FBD5627CF3D7272B9BD2CE9ADBD40CDC73B201FE33D002551BAE411023EFE200C3E44E7053EF0A4A43C50D27F3C3FA181BDE0AB0B3C509951BD3E4B093EB4C1AF3D6E5BD73DB26BB13DD003063D664985BD1B988ABD8D9900BE6403463D649CB1BDF2F500BEC436D4BDBCCEBA3DA44BF13D3D47A0BDFABA9A3D4CA0D43D0EC0023E9089333DAAD1AEBD1AD9943DB7AB0ABE2275D03D709AC73DC8EB1A3D80E97F3C1C11063E580BC63D48260F3E9A09B6BD54FEE9BC7CE2CCBDE4613EBD2253C63D006622BA2C8CED3DC401113E16CBD13D8A3BCF3DE035B23DF45D053E34AB62BDFCBA5D3D9A61D53D32DEEEBD4BB1C0BD461943BD2C0F5C3D543BE33D162FAD3D36FE7CBD70A79E3C8727C6BD509B033EA4B1E13DF07C733DCC3ADF3D2AF1A43D1CAA503D631FD9BDB434493D504D903C3435C93D0883A43C8802DD3C2E790FBD683204BEB8B485BC80E6D43B48440DBD6028523CD5C4D8BD4A00B2BD040AEF3DE4656C3D50ED403C88038ABCAC925D3DEC1476BD1228FABDE44C553D84A5E3BC208217BCF8720D3DAC45C33D88D2903DAA25A73D38D9FE3CA860D3BCB65C6FBD724F09BE54834F3D185BFDBD903BA1BDEC2D0C3D409FC2BBAC3CDB3D009AA439502E95BDF4B92ABD5ABA79BDBCDE083D3A9108BD9205113E10EFF83C5DFD11BE00CAEA3DFAC031BDA253B63D00057BBA3D2805BE052B13BECAE2FBBDA66045BD04A2D5BCA6C0BE3DC03D6BBB362372BD60B9013E588B073E4B6F0ABE305D993DBFAEA3BD40EBDA3D2262953D18B3943C4CAD0A3EEC88B53DF088673D400CB6BB6945B3BDD4CE3E3D3CC200BEF9F7FFBDF6A2123EF9CB87BD684725BD785D22BD655795BD2A92823D3CE3D6BDC8627D3D6EE7B63D104F693D90B8E43C5DE6B1BD944282BD845DF13D7694BA3DA228E7BD6C3671BD350BB5BDDF30ABBD682F083E1450CEBCEC1502BE2094BDBB16300F3E391B11BE1876BD3DAC0CE7BC60986FBCF445CDBD2C871ABD603DE1BDF832F83DD841063D48B6C93D30C8D33D1C2EBE3D10BD06BE0C02D93DE658A33D58C68CBCB8FEB1BC1ACB49BD9CCEBA3D34FFCFBC707C013C14AE033E8A8C38BDE2E29B3D54EE8ABDE02FC63C9061DE3CF46D4A3D054BB0BDD0E4E33C38E2EFBD01A113BEB1DD9FBD3BA293BD80185DBD1C60CCBD7803D53D200F7ABC5C84443D84B6143D02FF16BDE604A73D101EB73DE038DD3DA04BD83DA0D1FE3B0068E5BC802C77BB30F5873C88BB50BD00FE48BBC4EF083DF4A4A93D8C55ED3D90A3423DB817033EC03FFF3DE399A0BDE001AC3DC2F9B2BD3467013E8F189ABDA095D13D2F4EBABDDBEB0CBE601EEDBB8032F23B689BBFBD0C091D3DF06E04BE291201BE3519B4BD4AA611BE9457AE3DE8A6243DC0FE893C801C96BA68DC39BDA047F33BC78682BDA4CBE03DFE0F843DCDADFDBDE6161DBD7888D93DF221BABD08B87EBD10C417BC1DF50EBE9807B2BD8C84DABD706C703C88E274BD12C136BDDE1E77BD44FFFABCA8F3B63CA03F013CE7F1BFBD4494A9BDC0E4D8BDC604A43DE851B8BCC063F63DBC22CA3D80646ABBB0063CBC102DA53CB8DFC83CFF68F1BD4C78903DAC36823D089A70BD7CF68CBDC650AFBD3EAF62BDA03087BC21EC8DBDB0A828BC62F057BDD076D73CC48AC0BC69DEEABD6E6E8E3D38F0B33D64B4103EB200BE3DA4759DBD34EBE23DB23DA8BD4EE6913DFAB8003E5C8D973D4CD0AD3D50038B3D18366B3D32F8873DDC35FA3D240FB9BD61DCA6BDAA005EBD3416EA3DD893EABD990309BE93B3E3BD5457D93DDED8E5BD0C492EBDF888C43D0B35CABD5A2F063E062580BD509106BCC4ACA7BC0C28253D705FF0BCAEB0D7BD4E9C21BDE02488BBB488E0BCE0A7E1BB5E330D3EE076F63DBF43C8BDD0308BBDEE142FBD98DC07BDA02EBA3B8435763D446D0C3ED046C8BD9874B5BD14CA01BD7E42853DF8169C3D50C8353C46168D3DF2EE003E748926BDCA0A00BEF0D909BC80C4B5BD3C5A05BEC0A8743BB833F3BD3E7ECB3D52A1B93DA75E05BE88239B3DDF2599BDAB9CA1BDA4B41CBD4476FD3D14C069BD602CF23C32A002BDE024123E1C935F3D887DC2BDA28B55BD2C3EB3BD84D6423DE86323BD5C016EBD7822A83D00F9383C19F9EEBD00BAF43B7C171D3D5EF6CA3D779A05BEE01C68BCBECB3BBD0642863D0CAD813DFEFBAA3D6EB424BD320C1ABD040CE13D963A9C3D14514E3DA0A399BDE6A515BDC0E05DBB64130C3E80E60CBEA07F0C3C6442403DB0D072BC16138F3DD47F6C3DD487CCBC26A7B53D8EEFA63D6E69023E6AB7B0BD5A28D73DFC502E3DF8CD0F3E66E9CD3D5CAF55BDD335A0BD08B700BE1CF89FBC208D4E3D5474FA3DEF45FFBD049EC6BC8EBE023E108F2EBC3701EEBD3A46043E241BF23DB849B1BCE1AC0BBE58CE9E3C8EBDCA3DC0ADEBBD407F73BB1460CBBC30256A3D045EF13D129006BD38309ABCEE5F933D4BFEEDBDC44002BEC0AE0DBE145D413DE824043EBE1E093E046667BD0A07CABDF418B0BC1F25F1BDF633993D6C6662BD858F91BDC80F8D3D5DD19ABD44CCBC3DC0C5763B168F24BDDC7A0F3E3A22023E5E61C53DD2FB813DEB9BFABDF8F5DB3D846B033E2EB9C0BD43F3FCBD26C92CBD0849A7BC2ABEAE3D000EEB3D0C9EB1BD8049C9BAC84686BCDC30CFBDBC4B72BD0438A83DD46CB13DF4988F3D20E743BC8CF0263DB5FE11BE9476113E20D4EB3B16C6E3BD785DD83D5B75A6BDEE3911BE00B7873C5096E4BD7DCD9FBDBCC59FBCEE6735BD7CBA023EC0D793BC82DB833D8074573B8CEC13BD802FBA3BDADAC6BD74ECDA3D9A1EB03D09CD9DBD40C30C3D3CE4B5BC8059F33D2345FCBD627F88BD884424BD209241BC82F980BDE453F43D0675C9BD60EF8FBBDA02FBBD548225BDF8AB003EC614D43D9A56B23DB84A6ABDF425253DDCB6063DD8F3F73CA08FD6BDBF1504BE682082BD2C3D8ABD8C590C3EF3BAACBD672797BD2C3DF0BD1800DA3DC0729ABD00F0123A90D8563CB43F053EB0ED253CC86FD53C569BD73DC83A653DA03504BE46A6B0BD4772C7BDCC8487BD5056E33D7E44B5BD06A3043ED467243D346AA53D527E123E822A01BEF0D2C83CC0CFC3BDEA3EE5BD626ED03D6B499DBD24A307BDA0BC80BB504B283CFC87113D04DA743D94D6013E967C10BEE0CD043C6092C93DD0A0E3BDBAAC55BDEE53E1BDBA650E3EB036583CD69EF5BDCCC76B3DA42EC83D205348BC9A26103EF8D788BC40ED18BCCCE30A3E5C30FC3DA0F4FB3D604BAD3DC89E58BDEC743FBDF4F3623D18DAC03C845C143D48118C3C64900C3EAC14E33D225F45BD00B9F33A80A8EBBB9AC062BD308B903D6892A7BD6CCE793D2C2BF23DD1820CBE626D103EA4E8263D94FD343DBA26D9BD6CDF1D3D38B19BBCB4FC033E64B4263D6C25B3BDA0139D3B10B422BCE0122DBC00F746BC19C5D1BD794D0BBE52C3083EE87A973DC88E14BD989EA0BC62D5E2BDD725A1BDF07FF53D1A31C23D70646ABCA60046BDDC0D0D3DD650BC3DE96B97BDC08532BDEC604ABD42D30A3E70F851BCE42798BDEAD841BD1B3E0FBE6C58ACBD78D99F3D484E8A3CD01CEC3D9E62CCBD260A023E822BB73D00ADBF3C602790BB605AA43B487ABFBD324412BD227BF4BD74084E3DD6BFD8BD787D67BD0AC157BDB808B8BD601D6F3D92280D3EBED80D3E75EEA8BDA4860FBDAA9E0E3E66DE883D6E6E3FBDDCD6A63DCF1D0FBE0ECA813D706C0C3C9284ABBD504591BD68BEA33DFEFF75BDF067383CCAF5FABD5A72AF3D5018BC3D36AD20BD8065643B52AFD4BDD8FA3ABD206508BE051B0EBEA0D5C2BB149FDD3D9CCD273D9C5401BEAD16C6BD16F6D5BDE0C9D5BBF0541F3DE095823CDAD029BDDE9A0DBEA51197BD121E28BD94B84E3D52FA9D3D20C94C3C1F0881BD008E33BCD8D6AABDE8BB8FBC70905B3DE2F4AB3D80A3EF3CD259023EAA2205BEA40CD0BC061AD83D18DAFEBDC05F433D5B52BFBD20FB0A3E5064723D2C54233D107AE83C92E6003EDCCAC33D148EF63D48A5803CDA6F3ABD0466B9BC5E0E8B3DA43EF2BCC0D935BCC855353DA8B68EBC3604BE3DC68B093E709F09BE8471FA3DC021B33B1030DEBD2F380CBE061492BD7CDF093DE6BE933D782DC33CF239A9BD606984BB34B9133DF49602BEEC536EBDE0BFFC3B829FC33D2830CD3DE65BA63DF2AD4DBD002E063A90E8603C407888BCB6B9B23D90CA0D3CCC437A3D6BDEC3BD00C7F0BCE8EDFDBD4A1B5CBDD059563CF4A0CBBD803D03BEDC4565BD42EB57BD6019D23BF29B863D9838C93DF147A4BD0036E0B976A2BE3DA0517EBC0078753B603BE53B3894FDBD9B279BBD7C71E6BDA8E8AC3C201EC4BBC83DD2BD1A92DCBD60BD2B3C20BC7BBD0052E4BCAC7EAB3DE4820F3EFC9042BD60B564BC533284BD1253D3BD1080023E78E6F0BC861EF9BDBED89BBD40A4473B725508BE8419463DACE0D63D884382BC1C77C0BDF403FFBCBC5002BE3CF6C23DA0BB2BBC50508F3C04B0233DCA45B93DA41ABDBD84BAFF3D80E9EB3CBB0FE0BDB402DDBD607ED8BCD4A6E03D2C1BB4BD8F17DDBD3C28103EBA0F5FBD95F6FDBDE039C23D40A263BC9E8A98BD406A50BCB007CE3DC0A746BDB26B68BD6E02BD3DEA11FABD9022C33D4CD5F93D640DE23DE02289BB78C7FC3D801CFA3D7619CC3D7A3FD2BD407385BB7434A3BC28D5E9BD449CD83DAF3F93BD0016AEBB48D3183DBA9B0D3E80CB303C4E1DD53D126B123EBC51EBBC80402CBD0C39FBBDAEC7EBBD1F1393BD4EB39B3DC08D0C3C0AE0B93D888BA9BC60DCA4BCA073C3BDAC89F5BD7881DD3C609A713CC764A8BD422E12BD28C96E3DD2383EBD9213C53D1CA5EEBCC8A4093EF0F8BFBD663813BE5E1126BD90BB97BC02F6B83D5030DEBD60DA9ABCA6FA3FBDACFBCBBC0CA3A1BCF4F9443D0492963DC2E0E9BD2E89BC3DD69DCF3DDF4A06BED0FEFD3DDC5C663D588CAB3DE2F9E5BD2EB6C03DB4CBBD3DD0058CBCD4DBF1BCD05A883CDC87033DC2F7983D25AB07BE00BECAB9328201BE9B1E08BEB73B03BE387BC73C88FA923D5C000A3EA3BAEFBD1FF212BE663206BD1CE4973DC3A0A1BDCCD028BD545C123D4CCCA33D2090B23CF8B865BDD413FA3D0C92DA3DA0B1753D3849E43D00864D3D4A08BDBD84CCD53D50E5013E3039753CA01B87BCC03EE23D408B00BC88C76CBD642FF7BC0EC89D3DCE87CCBD942C453DF29164BDF090CF3C524780BD46FB003E08A310BE2DD38ABDC02D0E3C2A950CBE584ACF3C5059B5BD687CE2BC42FA79BDA8F5063EB0B7B63CA4E6EC3D783F313DEB7E8CBD9C1A043EA8284F3D5CEA463DF49CE6BDDB0283BD54713A3D529BC63DCA2AAB3D2C1FE63DE4C7CB3DD00491BD6214F5BD48615FBD4CD747BDAE0DBABD862002BEBF34BCBDE4A3AD3DC25C03BE400D3CBB6CBA623D3441AF3D7C12A13D20DFE33B0884D73C604138BD005C133A860996BD84CC06BE65CE0BBE5138EDBDFAA979BD246F0E3E42B4AF3D5E8990BD402925BCE5F800BE925882BD08E2813D8C64A93D803FD43C62C503BD284A003E902F07BD142153BDC09817BC0072503DE42FD13D18D7E7BC185B94BD50D98E3D00F849BC74FC093E9268F7BDDC540ABDE2A4C1BD0A41053EB25B69BDC2F3D73D8C37F4BD5866C7BC60F6BA3BA029783C201BECBD10C2423C8016B43DF0956FBD60B55ABD8853FA3D023D3CBDDCA941BD63AF0BBE38E28B3D4A270D3E5F2D92BD70F4893C00CB30BBD443BC3DCC105E3DFCBDEC3D40CA09BE9AFE013E1961DBBD0A09AD3DF805FC3C5C8EDB3D003BA8BA74F3BEBC7EE6B73D50E420BC302DD93D8091FC3AE65FB83D048EEC3D50F0C4BCA8EA98BCA659C93DD537F3BD5835263D5C5C0EBE069CA8BD93A207BE6CAEC0BC18D7063EC23E053E12C1B5BD8CA8E63D60788DBB2A2120BD36D8C3BD8CBC833DF490443D105BDA3C6E5A80BDEC56D7BC68CB673D2CFA123D801A47BC48FE013D2060FC3B50F459BC5834043D05AAA5BDC0D4443BACC0283D987A0C3E784BCC3DF6900DBDEE19043E2A3DFDBD5445BE3DD2AC043E8487B0BC9A02063EFF2B09BEF24BA53DA007323D807AD8BAE8452CBDB658C73DB87EC4BC46A12CBD802B093E3441203D9ADCFDBD2CC3EC3D40C10EBE587E873CFE6CC9BDCCD1693DCEAD04BE08ED1F3DE9D187BD7892CCBD0418383DD694D4BDE6D9FFBDA54600BEBE2BA73D80DC823B008A4FBBA74C0DBEC9BD08BEA979E5BDF6A786BD308AB23D6F19C3BD27B985BD440FE33D88506A3D021CEBBDD2129BBDEE4CC23D90CBB43CEE25BC3D40CEF0BD681EDB3CB4CCAB3D86E5F1BDC47EC83D846BCE3DBB54EABDD067F13D24DCC6BCF0169F3D6AEF57BDCEF2DDBDB4CBBDBD100D6EBCFFFB01BE6471A2BC38BDFABCD6CD3BBD374AECBD048A40BDF0AA033E483F6ABD6487CF3DAC78853D067A023E1AA4C03D60DB23BCE061E83B8D8501BEEA64133E002A053D38CD1CBD42932FBD4EF7B33DCA3E69BD8E5514BD6468113E2000073E58F535BD48BFC9BD48141E3DA4AD4ABDB2028ABD5C60C3BD90718FBC04703DBD086DFA3C34A8C83DC823D13C767781BD00E6F53BA43FE93DF1BB90BD8C29F3BCA82AAFBC1EEA9B3D9CA32D3D6298C6BDC89BF83CDCFD693D545A0CBE74DC903D9CE90F3E52CE51BDC86B8BBCCC900B3E98B1F23CC8163F3D36CBFDBD0F5707BEA8B9963D9AA03CBDA354FDBD082918BD6061FE3D8E6181BDCC0172BD02E4F0BDC774A3BD24A77A3D09548FBD9D2D81BDC8688A3C98AA66BD3C82A03DDA0811BDA02BCE3C58869F3DB8C76EBD1014163C5999EFBDD025A8BD7A3A82BD6C537A3DDAAB9C3D60F7FF3DFC8231BD4A8469BD4B7885BD50D6A73D0BEF02BE4001E83D7C7DAE3DBAE2D63D0CA6303D08C1EB3CC03DFC3BF2C0B93DB61CEABDEAC303BEF266AEBDE882963C6020393DEC0B08BE5049063CB8B9913D382B0CBE4608BC3D32100F3E755481BD0E0B45BDE04B0EBD10C12C3DDBAA05BE2491BA3DD03C373DC67EA23D9CA39B3DA02BCEBC96FCA93DCE63A8BDD67293BDA0BB9A3DFC31733DCCE8FF3DB290C4BD90AC1F3C9C4A793D3430273DF87FE13CF62B8F3DECFD92BD0AA74CBDCC1B663D542F4D3D4082F03D3605C7BDD0C9D73D905B71BCF4C2FF3D8C24DC3D0AB2003E70FE063CB097FD3D9CCB66BDAA0C9B3D6CFB893DB4AC013E7CD60C3E4EAB02BE1849883D3E87ADBD4B5F0FBED23337BDC6CED43D18A066BD74CD213DE205B6BD1447A6BD076FC3BDA8020A3D4077293CC0359EBB6C816ABD0E4161BD3BAE12BE0023093BB443773D7E84A3BD9074BBBC3474933D74AEFFBD881487BCC012853D85D980BD60CC213D104CD5BC8EC0D23D828908BDC885133DB27628BDCEFEBE3DA005483CC83C9A3CE040143D0C39353D2892F33D2C1C53BD5E277EBD8E3DDABD265E1ABD90C671BC00E77D3D5A16AC3DA1F1A3BD89098ABD7C30233D60595E3CA4C340BDF831A93DDD2D0ABEB8DBAD3C38A2B43D005E093D20CB853D8854E73D908A803D84B2BF3DDCE5963D00C2F5BD40F00D3CB218C4BDC7940CBEE4C3A03D0A7AD23D19EAB1BDE435CA3DA4EE343DFD7895BD405393BC02E8013E48A2283D7689AFBD585BE33D3AA801BD046C283D88130CBE9C8FDE3D44FA043D4C32C1BDDCEAB4BD6D6CF3BDCCC2F33DA0B8063EA0E95ABD1F4A83BDE4530E3EE0CAC13BCC98E93DB87ADFBC30A33B3D38BEAC3CB5079DBDB875BEBDC89E843C000A73BC48919EBDA81BDF3D7EBF8FBDD0E20CBC5846023EF024EF3C44C8143D3882983CEE66983DD840EC3D3A9D37BD870ABEBDB0F716BCA0AD603C89110ABE0CAA793D70F1EB3CA06CBB3CFB63F0BD181B8EBDDCB206BE4EFAD43D209D42BCD8CAAB3D86EEBA3D306DC5BD1D42D5BDB0640B3E8021F23D702B01BC18F94A3D4D29B4BD86F1C3BDB4C7F9BCCC85C6BDB03B023CF4CD02BED49BF13DBC375C3DD84E983D6C5057BD6AE62ABD685003BE38A77A3D1618ADBD002F7BBDB68EC5BD30C5DA3DB4B00ABE6EDEB93DB8C8FDBC001A63BCF07DFC3D828591BDC05DDE3DDE06A93D22BB7CBD305BEF3CB0BBAABD37698CBD58F21A3D16250ABD182B84BC7E16C13DE4DB163D50869D3CEC3B64BD206273BDC81E043E9BEF11BE00E6BC3C60FE213CF96E05BEEA73BC3D90F462BD1A1FAABD5647A83D9B50C1BDB1A3A9BD8A4E9ABD7418D5BDD0A06A3D9CFD853DE08CC83CF25F5DBD7ECC843D00BF343CA229AA3D363A26BDF81AB03C003A653B924F073EAB280EBE4C5D9D3D5C0889BDF413B2BD36DA003EB8D12D3DC068FC3B44C4B23D4CCA6B3D4C2F043D37488CBD08E3EFBD415CEBBDD0456E3D2E341CBD608CF23D20DB023DE07B0FBC84BED2BD8C47273D30030C3E8CF37B3DC04AECBB408611BD16AFCC3D000206BA90D3FFBD5ECDC13D3216983D009C023BF0BD123EC0E5EC3BCED2CE3D80C40D3E8E4EC83DBA458D3D6B18EDBD1643EDBD207D0BBC0853E63DA143BBBD4CF4D8BCB07C49BD1878EC3D669FDBBD700C033E5C4DAE3DA40D80BD4FAAD5BDAADDC23DB262A23DE071E43DFA1097BD705FDF3C62C9013E765727BD821708BEA684CE3D0E9AA93D9830C33CD0949E3CDA39D5BDBA69ACBDD08A14BD5856183DBA09063EC4CEE43DB46B72BD114797BD867898BD6CD2AD3D76C112BE70B1B83C709D673C3455E73DF8D693BCF07460BC20A514BCD07D05BE5AA10BBEB6390F3ED4AD603D44B90F3DC0E6203CC44F98BDB4D7FA3DC8EE523DF01E7D3D4E4ACF3D806198BBD211DDBD66A0863DEF0FB5BD488BD13C404048BCC071313C8C9A4C3D039A9EBD56C1B03D20D99DBDE294AC3DB437533DFAAF02BE2E42103EF00AB8BDDA880DBE50DB863C0076AF3AD4C9F0BDF8DD113E00181DBAFAD090BD1EF6853D90FC383C56B575BDF01D63BC834EF2BDD816ED3D0ACACEBD9633CB3D24776A3DBE969ABD1A6C0C3E8C0F6E3D827B21BD90D1D93CD2ECAFBD7C926C3DF2F57ABDC64F013E805ACBBB2C118D3DAA87E8BD407A8E3DCC740A3D60A2C7BDFE2C12BD1E54013E481C863C7846DB3CE0490ABEA33F0FBEE0F3EC3B92C88FBDBC48833DF15605BEA465D7BDB2EBA53DB8BBAA3CC83440BD26082DBD00B543BC1C0947BDB40E0BBE00FA753D08E3D1BDD1C3D1BD68A08ABC0002B43A98CA0D3EA0E0653D0972BDBD973AD5BD0016C9BC7C62A9BDDC87C2BCBBF909BEA361A6BDB868C9BD64EA853DB74B8EBD74BF40BD3CC923BD667151BD63E50BBE087A0FBE60577D3D280274BD86B7CBBD0060E13A1040B53C9CB4413D8C7FB73D6861B83CD2F7A83DC0A64D3BFC5CC4BD5439BEBD1459573D668D0E3EA450533D7CAECDBCBAAA71BDBC19DABC444B5D3D000067BD56BD01BE881A753D920D9DBD80EFA63D0026B7BB4EE324BD6A37CE3D7CA4393D38991A3D963FD13DE2FF0CBECE3DD83D5C9D923DB6E202BE958BA3BDAFA60ABED811EB3D58BC9B3C2C7B15BD0818293DFEB608BE13AAF0BD34E2783D506FDFBCD402203D2ACC61BDFB9307BE1001FABD80A09F3C71AFB1BD100FFABD92ED0E3EB65239BD9ADC34BD68EEC9BDDC4DBABD301EE33C34080C3EEE31B83DD683CCBD30A2743D62A5A73DE6C4CD3D082EEEBCD6EFB03DF00D6F3DE49A3F3D619AF2BD5CE30A3EC4CF3ABDAC1CEBBDDCBD7BBDA06CEF3DD79DBBBD229AAD3D48CF803C48A866BD986A163D3C290E3EA0DC953C4437793D3A9FD2BDBAC9043EAEA84DBD4E27A5BD54C9133D63558CBDA01FF73D2025FA3B04DC20BDECFA093EB45F58BDF004D8BDF0BF933CFFF711BE01870EBE00B211BB0078CDBC2CAAE73D00250F3BDAAE87BDC095123C2803A73CF0EC3FBD1812E53D000F683B7444CE3DB88812BDF87C873D308F77BC7CBF843DB63D88BD58C19ABC809FB73DFC7BE03D2410F2BD3274B53D4EA4A73D04F5B1BDA8564BBDF4C37BBD2805E23DB8A8723DA286983D0EA0B93DD46FD13DB86DE23DB4F5503DA476A93D38E9013D7441EF3D5CB5FB3DB584EBBDA04E2DBDBC9CE5BD3899FABC521B1ABD44C3913D689B0B3E8082743B98E4923D0005CA3D7817943D60B2B43C6C1C9B3D92CE0A3E002C79BD60C9E23D2C1FE43D0832E4BC0CDEC5BCF8B59D3C2614133EBC6BE33D34BF8C3DC484A4BC00AC943CB3D38ABDA425053D22E7113E8C67E2BCCCCA203DA829303DCAFEC8BDC2C512BE7023313D7C09E43D2467753DC03FF6BB8AFA69BD1C20F7BDE8AD0D3D8037083CFCE9073D2077D7BB3AA255BD441149BDAC1B7C3D9E610CBEB084513C2CB00F3E97A9C2BDC886063E080C123E589F963D4C5CA93D8EA6D8BDCE51CABD88E5CB3D2072BB3BA0E06DBC31B307BEC0980D3ED431DCBD34D20EBEA075E53CC486533D5C0F273D0A92D13D74D611BEAC9286BD808446BD2819713DA677BF3D807A54BB027FBC3D20CFB33C68559DBCA81EEABC30EF14BCF481263D3E7D0EBDB2CBCBBD7C5DB8BDACB3333D8086EF3D2A450F3E8A7F0E3E3EFF2CBDA6F9CCBDA871083D30FE673D00E5D53DDEF70C3E7C11D0BD2021A33C4893FE3D80472B3B9011043EC096EE3C9C3FEF3D026FBE3DD07AE53D09E201BE4010053CBB1496BDE08C38BCBEEB03BED4970B3E8E83A43D227C07BD5457F83D8414CCBDA2C3813DFCAB583DED3F0CBEDE97CF3D30C4C63DCC20C23DE0AF10BC7F0EA4BDA00F88BCECD528BDB8C2563DA187B9BD78C8A03CC80D0C3E2896A7BDB0EA283C1E60D5BDC2C8853D9A2F1CBD9027E83DE8E1BA3C588ED33C8019F73D99E5BFBD3F9204BEE5D1C0BDE06023BDBC4F4F3DF2D3D33D1810B4BD84B601BD1A8D04BEB0EE443D4019483CC0BDB73CC0B3F63D604CCBBD57B409BE741A863D505E82BC5C0E083E00F01ABD504D253C2A0614BDB032E8BC2C6BB33D18DEE3BC384B84BC8450FBBCE0A3DA3DD7140CBEA4E2ACBD88461DBD8EFECABDB76312BE7898FE3D30CB0F3EBC6D4A3D98123D3DF465093EF05841BC7C9FF2BD3F590EBE004E603B4044F93D7420DBBD901332BCF640103E63448ABDAF030DBE9044C83C00FA73BAF82BF9BC9048323CD8F8333DE059CBBCD81E8CBD08D0093D34AB153D2E4E0B3EB03BAB3C0067ADBB9C7BEE3D12DF903DC447F83D341FDA3D80E3AF3BCB5A07BE8A2B003E908F003DD080E6BC906792BC900A043D7B57A9BDCC0A0BBE89BEBEBD30AC233D222F6BBD2957E0BD75928CBD2095103D49DADABDB00EB53C38395D3D1265E1BD30F8CBBD7089F63DB41B42BDF644B4BD406E173B10B4033DC071583D80A7453B6844D53C400AE6BD18BCB53DF7B410BE100E8F3C17D70CBE640909BD606B23BDB0C2353CA06BE83CD0E50ABDA43776BDB234C53DC43AFF3D0EFE00BE7600BA3DE0E1D4BB20E0C0BB4EB654BD0000CA3A1A08CBBDFF8F9BBDF454033E7CD3333D9297F7BDD4A9AEBCA8493F3D2363A9BD020D13BDD4DC00BE4CC2B63DD8ECF23CCCA7EBBD94C0F6BDB0E4343C50EA003D1888C83D08E5D33C20E0093E96768F3D60DD7ABD84AB03BD585216BDAB9CEFBD3B26AFBD107080BDA8E0A63C2A2458BD3858EB3DCBD412BE8C564DBD78C680BCB25BB4BDECC1693DEE2B45BD876CCFBD2447473D82BA06BE3455033D7E9ED53DAF6800BED43178BDE677053EEE3A84BDB2E68D3D2832FEBDF7F3E1BDFB7308BEAC89DBBD5E53AB3DC061DA3DF8B7023ED64D9DBD1C0C813DC83D093DA0B8B53BF4C8393DBA4EEFBD5C424E3D48EBA53D1CFEE9BC100DB83CA0DF3B3D648AA33DA000DBBDA803073EAA7C893D900EEF3C9CCEBCBCC05E8B3B98C5083E20ADF4BD33E0A1BD105CF23D431E13BEB276ACBD3022D13C746E253DEEAAE1BD4EA19E3D308C393C30780DBCD076F4BC078584BD7C9C0A3DC04242BD685514BD904EF3BC607B47BC58F8063EA0F5943DD00CD2BCCD62E5BDC89AACBCC0A6C2BBB63A0CBE9484D0BC3697AB3D14F2553D9AEFCFBD94F7D2BD602301BCA488D93D64E856BDF22476BD40DDC53CE54CAEBD10F6F8BCF8A8BA3CF83ADC3C1424FF3D4C2D713DB279B0BDAF280BBEE8C6773D989FA83D1AAC113E9CC4F23DC07637BC8027153CC42E4C3DE7AC84BDB0A494BD1815D3BC0C48383D0A4F063EA4BBE13D9874EF3D8889E03DF889CCBD1C4A0B3ED2630DBEF237C33DB0F4663CD82E713D5A43CD3D5CE9973D581084BCB0213C3D10F272BC3E5E0ABDDAFC0C3E5E13F0BD240F9D3DA82F213D09BD06BE06B79BBDD81E6A3D4095A1BD421C20BD4A3B4CBDC0AD333DE064573CE6AD893D26F219BD04C2D8BD50B1923D40E9FA3DE7A7E6BD78770E3D4689D43D357E0CBE804F20BD106DB23C34FDFE3D2423A7BD7EA483BD9A53D8BDA067C8BC9849BD3C8C464E3DF63FB03DBAD2D8BD513904BE5FA704BEDE309F3D40114E3D70D83F3D6E40C83D882BD4BC0850AD3D32FACE3DF8E6833CFE5430BD90A838BC574491BD1EAC74BD3AD3BD3D6826033EFCFC653D3EF224BDE9CF0DBE901157BCD636043EBC7F2FBDA09D0F3DBC26023DB8FDD13CE00BAC3CC073A4BB16BDD23DB04BCB3D7CE6793DD074353D87F905BE7881013D3EB85BBD4C3F113E200EB2BD10DAC1BC30F6123EF065263C060D08BEFDDEE9BD585CA03CB478463D602202BE823135BDBE0E64BDB623103E8093383C842190BD6013B33D5C7B813D20FCCA3B555DB1BDD808CEBCB091F43DA6560FBEBAD59A3D6D5B9EBD42C3BD3D580690BDE0AD22BC4ED665BD3C95D03D1C97033E4E8CB93D78F307BD86837CBD6844CD3CB03D81BDB6B874BDE00DAD3CB8528F3D103B4A3D08AFD13DC0A2F9BC3C580D3E5462313DC7B6BFBDA0100CBC6C0D313D9645933D486DC8BD4431283DD85FD43C0AE1073EE77DE8BDF535F4BD4260CD3D0C80B23D2FB7FDBD37C5F5BDC2B120BD4044F43D24BCAE3D70BBBFBC00F8D4B85629113E2A3832BDE6CDE6BD5E94BCBD819085BDE490C1BC88F73A3D0474FB3D8C45C63D0EF27EBD9A31B43D7BB8FBBD1CEFAABC205AF2BCA88C2B3D9AD305BDAC14C93DF837953D913901BEE07CE43D22B702BEA02A52BDA0DAFD3DC440C23DAC03A43DF2E58F3D78BEAA3D485E0E3E3A3E96BD841A513DE69EC8BDF2E3C9BD505F193CA0202EBC0056AEBB9852DEBD508D1EBD98AD073E68BFADBDF0C19F3DC4E6DD3DD27AF0BD4CE211BD6C7EED3D0011683AF8F4A83D16AFD4BDD027BDBDBE1C4FBDA4B2093E587D423DE07EE5BC00FA85BA7CC1E23D1E6C09BDC65C61BD198DA2BDC90AF6BD00CE02BCC0BE81BC23FC12BE8B92E9BD0CE10A3EEEC034BDF494DEBDD75DCFBD404CE3BC100F32BD66B6D6BD040FD1BDE30EE6BDC813A53D487D6E3DCC74A63D19D187BD6094E8BB9061D93CFED5A6BDBE0D90BD2015D83BA65FD7BD80733A3D18598FBC6A33C0BD709080BC4C61C03D57EC86BD66D101BEB48E06BD78451C3DAAF015BD10F80ABC8053813DE88F373DD00C2D3DBA1502BEE5BADDBDE0FC3C3D2E065ABDF6EE5EBD4241FCBDF0FBF13CB09311BED2B955BD91E684BDF2E0DDBD5CEF0FBD807FD5BBA4E885BD3073B7BDFC31B83D84A3F63DF00945BDAC9B9CBDE880ADBD00F08ABAF898053D7673EEBD409E8B3B481F44BD5496DB3DF61B023E2043B63BAFC1FCBDF6564ABD60F2D23CD486B1BD6876C93D8039963A7A8066BD30D6023EC229A3BD20670E3E5614B4BD56D0123E18F3B53C5EBC12BE706504BEC85A0BBE36EACD3D3423FD3D36A7C4BD32321CBD1CF5273DB31F0ABE946DA2BD7A5807BE021FA5BDE22ED6BDB20527BDB648B73D4A94FFBD041E8DBD043AF13DC1B0F5BDF0D7F5BC3A6AC23DF7F70DBEDA4F5DBD9C45183D716A0DBED8A76A3DE0617BBDF85EE53CD276013EF0A3D0BD80F0E2BD2776C1BD005184BC80D512BE20EEA83B484AAABCD015773D7651103EC2FD05BE480FB13DE497063E781F2F3D7C87A33D68AD153D3495073E0034123DB4DFD83DB0390C3E88F4AE3C81B1B7BDD4BACFBDFE5F1EBD08D9E2BDE84CCD3C3AF30F3E5661983D5408103D86C183BD023BDABD50501F3C571D0FBE72EF8ABD0E700E3EC064813CF04EC93DCE52C13D888DE03DD88F0D3DACBBDC3DF0F243BCB90E96BD40EB253C0067203B34B2303DD06A3D3C60F20ABC8E69B83D7AC586BDA8C4E23D46EA75BD8C6C07BD6A8E4FBDA8058BBD40D8F8BDD44FC3BCB65FFABD1DDD08BE95BB95BD5E3801BE5614873DEA9BDDBDB065103C2020E43B28D5503D340E9C3DC613DFBDB8F54D3D6453A0BC44CE183DFA40D73D649713BD42EBA23D5110BBBDD21D94BDE27E0BBE81BB8DBD12D0D63D651399BD18D991BCDA6A063E682DC3BCC449EDBC2C82ADBD2C57DA3D0009C5BD58D00CBD94DB9FBD2401FF3D183E043DB814583DECD7D8BD2828DDBD8884D7BCE0C4723C66CB0BBED40EAEBD32F8A0BDF4F4DABD34CFB93D0463223D26CCE8BD5009BA3D41A010BE820F27BDE87A01BE3400E13D2C367B3DA84DD43C9815E43DBA19943D5899003E1CFB1ABD0ED4D63D54A3913DE4716D3DEB33DABDE4B9133EE48DD63D6693D7BDAEE2CBBDEC5B433DD4C5A93D8A68B03D363322BD2816E03CE0018B3B464F923DC4A789BD8CD869BD0877BEBD905BDA3C6CA1903D4D520CBEFADD053EE07FAB3D0094F53DE6E066BDD020DABCA8C6733D70918D3C685AC5BCF820EC3D909F8ABCF03F053E297511BE77C904BEC0CD4ABBCC04B13DC80D423DC0B503BB282CF53DA675053ECEC285BD0CE57F3D4FDE03BE801EDA3D49838ABD05230BBEE629D13DD42ADD3D104225BC1A5CAABD9E8368BDDA4DC53D1CB6DD3DFCCC853D5075FCBC7078D53D96490F3E6014303DF0D42EBCA473E93DF091DDBD08B2F13D6D30B3BD046005BE9306ECBD48F367BDCE4185BD9624C5BD74C5AB3D00B8B3B9208B813D36C7A2BD7003A53D7E0E853DE038AD3BBC57FE3DE45860BDB8A57FBDB0E87DBC384C5E3DCE24C9BD009CE13A945D8B3DAE39C8BDA6C16ABD0078E9B87887853D3C0A403D041C963D822A803D8C260E3E7093083EE8EB9B3D3022C03C3A0EA03DF019913DD9EA03BEF271EDBD5CBE49BD208794BB8056CFBD3EE9F3BD18BDC33C24A0313D88872F3DC49FA03DE0BFAFBD600A4F3D22FD67BD0C00003ECCCA833D7ED28F3D524A9C3DC84529BDA675933DFA47A1BD7E9AFCBDF8B03F3D440902BEDE56C63DEEC5D23DD60B7ABD804D85BBF04BAEBC187EF93D0016FF3C00BAFF3B609CDB3BD1DEF8BD6005593C38A9A33CFD65C5BD962D00BE187C083EAA25AB3DE087E73BCEC67DBDBC35993D1ABD0D3EC0ABA43DC0B05ABDBE360F3E5885C9BC697AA8BD9447F93DF8DECC3D14F4B63D8C3D003E282B973D7C03B63D327AA63D4820823D60E8F23CB05722BC5049C93C0A0E0CBE0C1D0F3EB76BB5BD1EB2CFBD2039893B407999BC7E059F3D7EC0C8BD40FB113BD85CBE3C2EFB05BE97400ABE8C6AF93DB3D812BE9863833DB229B03D358C0CBEC4DBE53D0419C1BCDB6A8ABDE03E17BD38C6313D448C4C3D8C92583D9E62AA3D1033143DDCA7083D6C1D793D75E398BDD83FA43D40CDAD3BEAAB113E80C4ECBAC084F73D66133ABD5CE5393D0AB4ABBD5C990DBE9E9830BD023A023EAE1A0F3EA61E5CBDB4826F3DF05A103ED4AEFD3D04B9BDBC947C023D6EB2923DEEFEBD3D2EC7A63DFA8CC0BDFA9AD73DC0F6B93DB45E02BDFE2BBABDF8B610BEFD24B3BD40335EBD9CF1493D389F663D10F4083E3C0A003DDEF3B93D64EE6C3D631283BDC08E2C3BFE5554BD5090FBBCFCD2E43D50D4203CB9B39EBDD0C3983D003E09BD4ABECABD5EDC99BD289C8FBCC0ADC6BCBCAC033D40D8F9BB4690883DEF5F12BE3A5CC63D9EC9AABD58391A3D950BFDBD002FC93A606504BC68CB973D111B0EBEBC04873D541385BD542E3C3DDC166E3D485E27BD8F17C4BDBAC207BED00BF73C1C7A96BD88E28ABCE84A8E3C7453043D564CFDBD4E8AF6BDDE3D4FBD5B820CBE9CF3983D005F5EBCCEEA863D9030743D7016E13DABD78ABD5027D1BCBE78CB3DB8A3D63C10FE0CBCA0DFF03B5E2B0EBD7CC0013EA2CEA63D34657B3DEE29953D48B8C63D2049D3BC48CBCE3CD46CCA3D70B8E33C377C04BEE0D1E63D809ED43B600B97BCCE701ABDC675BF3D9C70443DB4CF9EBC00A01A3C280A66BD005C3839008FADBC32A3D13D6C17223DE803453DF091503CA882F63DB11CE8BDD2CE6CBD302644BC0AF1A83D18638B3D6092D3BC63D599BD18629E3CDE8DB2BD58677C3D0048433A6E858ABD54E113BD40FDF63D4C185E3DCC8AE63DAA8692BD4059D9BB5A48013E156B10BE1824D93D9138E8BD00184CB9104C9F3CDC431DBD7A3338BD319008BE96E973BD30BAC53CD029C23C5A14083E8090DF3B496F0BBE9AECF9BDE940A8BD0050C5390CA2553DA61883BDB650BEBDBA00EBBDE727DABDE4A77F3D603ACD3C2059E13BA8B5A0BDBE3B9C3D0EB8A43D564EAEBD3C62E53D4FD503BE808018BD949B4BBDF080863C4A4E86BD406E3A3CF643C13D4BFB9CBDDED0DABD4A9D993D7250C5BDF88F613D12EE073E90C907BE6C21A03D8000173C5470AEBDF2F08E3D9A074FBD084EF83D0AA2973D902C153CCC2543BDAE24133ECC98933D00019BBB2C3A023E9C2EEC3DF4F169BD40F6E0BC6039373D0129AABD3045243D6028693C20D6E7BDC034F6BC02FCA53DB6E4A63D70F646BC0802E83D2C7F243D3D9CC0BD5620013E2CC4303D99A299BD143AC5BC8467BC3D72E50F3EF80D82BD40A939BBA69FA5BDA4B4983D5047F83D18D78FBD1AE1A3BD00674D3D5698D5BDF250C0BD5C93DD3D38D13B3D10D3DA3D4426083E606EAA3D9813FDBD68630D3E1DC9ADBDFC6F643D9A96823D80D2DCBA604AD0BB64F2FB3D54AA243D2E44083EF495003DA51A13BE4800EA3DB41DBC3D352099BD888C323DC0C09ABCA89BB9BD203FAD3B68C45D3DAF72A2BD6C27823DC8ACE83D9CC700BEECED2EBD0817963CF683B03DEBDBFFBD3885553D80812ABBC23DAFBD0CD94ABDAC6BD93D9A18053E0C94093EB890E13D14E8E83D886A8ABD642AF43DC4B902BEF49F233DDC80F03D3322EFBD30FC1F3D5C5F08BD2C73C4BCA6AAA2BDC0A79DBCBABBE3BDB009243CD8D6F13DE0AE5C3D00C552BAE0AE103EA627073EAC8C603DBCD9613DB51213BE7CD93BBD605ADCBC00FB433C9A0EBE3D0469073D081E1A3D4100CDBD9EC98E3D8CA7013D1074F13CF82CC03C0E8FACBD8017103B7ED5AFBD748F2C3DF86DBC3CA043DDBCC26719BDA611EBBD84FC913D504E003CD21800BE8840AABCEC10E5BDECF5A13D4FCF86BD38E3FC3CB0B7C33CFEA4ACBDAA5580BDA256A93D18C8C63C1C3A11BD3ADBF5BD069878BDFC094F3DA8C000BE691B13BE54B6063E34F3EC3D44926A3D27B2D0BDB07C2ABDC429733D800F053EA63C903D1207C6BD5049B8BDBEBCCF3D008942BB926C093E944F0FBD941D273D22C04DBDCC72083E3CE695BD5A7B96BDC95B9FBDB4300E3D107540BC4404F73DF56410BE56E3B23DBA683DBDA20BAC3D506DDB3D40F838BD1856F9BD0CB1FDBDB199EFBDC038F33DA43E7EBD40B4EF3BA014E8BDB81BE73DF270CCBDA6EE113E304D203D80DF4ABB5895EB3C9E36013EB865423D78E9F93D7E4433BDD008873D840E893DE0994E3CBF6DDCBDE8A4673DACDC793D500BE03D5C06D8BD272298BD484DBBBDCFC2A2BD54A7DA3D9AE2A4BD26DC18BD5E4EF5BD223EC73D48E22D3D789EA3BC6E7EBB3D28C695BD4CAA91BDF2ECFCBD711A8EBD1223923D74F79B3D99E1E1BDD6CC6ABD30EAE2BD54C9F9BDD6EE25BDD8E3A1BDAC759A3DE6A598BDF05C38BD80154ABBC8070A3D7241B93D3810FB3C1206A63DE08C83BD94B991BD8C0DEF3D00C8C938406E433B2FFD08BE600DDABB3C7ACDBC7440503D866E46BDC6084CBDA8F69C3D3835143D079686BD3CF6EE3DD8C1CC3DE476213D60B026BC5E9F093E388953BD301B453D70D8113EBC356D3D8278D03D2A077